#version: 0.2 - Trained by `huggingface/tokenizers`
Ġ ì
Ġ ë
ì Ŀ
Ġ ê
í ķ
ì Ĺ
Ġ í
ë ĭ
ìĿ ´
ìĿ ĺ
ëĭ ¤
ê ³
Ħ ë
ì Ħ
ìĹ Ĳ
Ġì Ŀ
ë Ĭ
¡ ľ
ì ł
ëĬ Ķ
ì ŀ
ê µ
¼ ë
íķ ĺ
ì §
ê °
ë ¦
ì ĭ
Ġì ŀ
Ĥ ¬
ì ľ
ìĿ Ħ
ì Ĭ
Į Ģ
Ġë ¶
¸ °
´ ë
íķ ľ
ì ķ
Ġê °
ë ı
Ġì ł
ë ¥
ê³ ł
Ġì Ħ
ìĬ ¤
ë¦ ¬
ì ļ
ìĦ ľ
Ġì ķ
ì§ Ģ
ê° Ģ
¸ ë
Ġì Ĺ
Ġë °
ì ĸ
ìĿ Ģ
ê ¸°
Ħë ¥
Ī ëĭ¤
ì ĺ
Ġì ĭ
ìľ ¼ë
ë ĵ
Ī ĺ
ìĭ ľ
ê ²
Ġê ²
Ħë¥ ĺ
Ġë¶ Ħë¥ĺ
Ġë §
ë ¡ľ
Ġì ĺ
Ĥ ĺ
Ġê ³
ì Ĥ¬
ì ¹
Ŀ ¼
Ġë ĮĢ
Ġì §
ì ĥ
êµ Ń
ìŀ Ĳ
ìĿ ¸
ĠìĿ ´
ëı Ħ
£ ¼
ì Ľ
Ġê µ
Ġì ľ
ìľ¼ë ¡ľ
ë¥ ¼
Ġì Ĥ¬
ë ł
ë §
í Ļ
Ġë ĭ
ìĹĲ ìĦľ
Ġë ı
ë Ĳ
¶ Ģ
íķ Ļ
í Ĭ
í ĸ
ìĸ ´
ì Īĺ
ì Ļ
ë °
í ĺ
íķ ´
Ġë ³
ì ²
Ġê ·
í ĥ
ì Ĩ
ê³ ¼
êµ ¬
ë ¬
ìŀ ¥
ë ©
Ġë ª
ìĽ Ĳ
ìł ķ
ë ¯
ì £¼
ìĥ ģ
¡ °
ìķ Ħ
ë Ŀ¼
íĻ Ķ
Ġìĭ ľ
ë ĮĢ
ìĦ ±
Ġê ¸°
Ġì§ Ģ
ë ³
íĬ ¸
Ġì ¶
ë Ĥĺ
Ġê° Ģ
Ġì ļ
ìĻ Ģ
êµ Ĳ
Ġì ĥ
Ġí ĺ
Ġë ħ
ë ŀ
ìł ģ
´ Ģ
ë ¶Ģ
ë ²
ë į
ìł Ħ
Ġì Ĭ
¤ ĳ
Ġë ¯
ëĲ ĺ
í Ħ
Ġ íķĺ
ļ Į
Ġë ¬
ìļ °
ëĵ ľ
Ġë Ĥ
Ġì Ĩ
ë ª
ê ·
Ĥ °
ê² Į
í Ķ
¹ Ħ
Ġí Ļ
ì¹ ĺ
ìł ľ
Ġë ²
ģ ¬
ìĿ´ ëĭ¤
Ġìł ķ
í Ĩ
Ġìŀ Ī
ìĹ Īëĭ¤
ìĺ Ģ
Ġê² ½
íĦ °
ìĦ ł
Ġí Ķ
ëı Ļ
ĠìĿ ´ë
ĠìĦ ł
Ġë ĵ
Ġì °
Ġì ²
Ġ íķ
ìĹ ¬
ìĿ ¼
ëĵ ¤
Ġì Īĺ
Ġìł Ħ
ì °
ëĭ Ī
Ġì Ļ
Ġ s
¦ ¬
Ġì ĸ
Ġê³ µ
í ļĮ
Ġí ĥ
Ġìĺ ģ
Ġìŀ Ĳ
± °
Ġìľ ł
Ġìķ Ħ
Ġëĭ ¤
Ġ íķľ
ì Ĥ°
Ġí ı
Į Į
Ġê° ľ
Ġìŀ Īëĭ¤
ë Ł
ìļ ©
Ġì Ľ
íĥ Ģ
í ģ¬
Ġë¶ Ģ
ê ¸
Ġìĺ ¤
Ġëı Ļ
ë© ´
ìĭ ł
Ġì ¡°
Ġë§ Ī
Ġ t
ë¯ ¼
ìĹ Ń
Ġë¯ ¸
Ġì ¤ĳ
ĠìĿ ¸
ĠìĬ ¤
ĠìĹ °
Ġìł ľ
Ġ m
Ġì ¹
ë ħ
ìĨ Į
í ı
ë Ĥ
ë¬ ¸
½ Ķ
êµ °
íķĺ ìĺĢ
ë¥ ´
ê³ µ
ì ¦
ìĺ ¤
ì§ Ħ
ĠìĦ ľ
Ġê· ¸
ĠìĨ Į
íķĺ ëĬĶ
Ġë Ĥĺ
Ġ c
Ġë³ ´
Ġêµ Ń
Ĥ ¤
Ġê³ ł
Ľ Ħ
ê³ Ħ
Ġìľ Ħ
¢ ħ
íķĻ êµĲ
Ġ a
ê ´Ģ
ĠìĦ ¸
e r
ë ¡
ì ¶
ë§ Į
íĸ Īëĭ¤
í ĭ
ì ¡°
ëĭ ¹
Ġê² ĥ
ĠìĿ ¼ë
Ġëª ¨
ë £
Ġìĭ ł
i n
ìŀ ¬
Ġì £¼
Ġê ¹
ĠìĹ ¬
Ġ p
ìĭ Ŀ
ĠëĮĢ íķľ
ĠìĿ ¼
Ķ Ķ
Ġêµ ¬
ìĹ °
Ġí Ĩ
Ġë Ĳ
ì¹ ´
ë§ Ī
Ŀ ¼ë
ëĲ ľ
íķĺ ê³ł
ë ¶
ê° Ħ
ĠíĶ Ħë
êµŃ ìĿĺ
o n
í Ĥ¤
ìĺ ģ
Ġìĥ ģ
ê² ½
ĳ ľ
Ġ å
íĸ ī
ĠìĿ ĺ
Ġê· ¸ë
Ġë° ľ
ìĹ ħ
ëĭ ¨
ìĿ Į
ŀ Ī
Ġê¹ Ģ
ìľ Ħ
íķĺ ìĹ¬
ê ±°
© °
Ġ k
ĠìĦ ±
íķĺìĺĢ ëĭ¤
ł Ī
Ġë° ©
ëł Ī
íĨ ł
Ġ f
ìŀ ĳ
ĠìĹ Ĳ
Ġêµ Ĳ
ì ¡
µ ľ
ë ¹Ħ
Ġìķ Ħë
´ Ī
ìĸ ´ë
ìľ ł
Ġì¶ ľ
ë Ħ
ë¯ ¸
ĠëĤ ¨
ìĹ Ī
Ġê ´Ģ
í İ
Ġëı Ħ
ì Ī
ìļ Ķ
ëª ħ
a n
Ġí ĸ
Ġí ĮĮ
¸ Į
íķľ ëĭ¤
Ġìŀ ¥
ìķ Ī
Ġìļ °
Ġëĵ ±
Ġ d
í Į
Ġí Ĭ
Ġ b
ìľ¼ë ©°
ĠëĲ ĺ
ì² ´
íĺ ¸
ĵ ¤
ë© °
ìŀ Ħ
Ġìŀ ĳ
ì¦ Ī
ìĨ į
Ġëħ Ħ
ìĸ ĳ
í ħ
Ġì µľ
Ġë į
ĠìĦł ìĪĺ
Ġë ¹Ħ
Ġ æ
ì ½Ķ
ìķ ¼
ìĹĲ ëĬĶ
ìĥ Ŀ
¹ Į
íķ ł
Ġë ©
Ġì Ĥ
íĭ °
Ġì £
ë° ©
e n
íĨ µ
í ĽĦ
´ ĳ
ĠëĮĢíķľ ë¯¼
íı ¬
Ġê ¸
§ Ī
Ġë¬ ¸
ĠìĹ Ń
o r
Ġë° Ķ
Ġë§ Į
ëį ĺ
Ł ¬
ì° ¨
ì ¢ħ
Ġí İ
Ġê° ķ
a r
Ġíı ¬
Ġë ¦¬
± ´
Ġë° °
ëŁ ¬
ëĲĺ ìĹĪëĭ¤
¶ Į
Ġëª ħ
ì ¤ĳ
ì ħ
ëį °
ë³ ´
ĳ Ĳ
í ĳľ
³ ¸
Ī ¬
Ġ l
ĠíĨ µ
ëł ¥
ë¦ ½
Ġë Ŀ¼
Ġìĥ Ŀ
ĠìĽ Ĳ
í ŀĪ
Ġ íķ´
í ĮĮ
ĵ ľ
ë Ŀ¼ë
ì² ľ
ĠìŀĪ ëĬĶ
Ġê² °
Ġê° Ļ
í Ĵ
Ġìĺģ íĻĶ
Ġí Į
Ġì¶ ķ
ëł ¤
¤ Ģ
ķ Į
ìĬ ¹
ë¡ Ŀ
ì ¸
Ġë ¹
íĶ Ħ
íĺ ķ
Ġë¬ ´
ê ¹Į
ìĦ ¸
ĠìĤ¬ ëŀ
Ġìķ Ĭ
e s
Ġ r
ĠìĿ¼ë ³¸
Ġê ±°
í Ĺ
ì ¿
ì§Ģ ë§Į
Ġì§ Ħ
Ġë¶ Ī
íĺ Ħ
ì ¼
íķ ©
ëĵ ±
Ġìķ Ī
Ġì° ¨
Ġíĥ ľ
a l
a t
Ġ o
ëª ¨
Ġë ¡ľ
¥ ¼
ìĭ ¤
Ġì° ¸
Ġê° ģ
ê· ¸
ìĨ ¡
Ġí Ĺ
ŀ ĺ
ë£ ¨
íĬ ¸ë
ë¬ ´
Ġ g
ìļ ´
íĸ Ī
h e
Ġëĭ ¹
ìĹĲ ê²Į
ìĦ ¤
ê² ©
ë² ķ
Ġíĥ Ģ
ìł Ĳ
ë¬ ¼
Ġ n
Ġì¶ķ êµ¬
¸ë ¶Ģ
£ ¨
ĠìĦ ¤
Ġìĭ ¤
Ġíĺ Ħ
Ġìĺ Ī
Ġë Ħ
Ħë ¡ľ
Ĥ ¨
í Ŀ
ìķ ĺ
ë¦ °
ë¥ ¸
Ġëĭ ¨
ĠíĬ ¹
Ġ j
Ġì ½Ķ
ê¹Į ì§Ģ
ì »
Ġë Ķ
ì² Ń
Ġìķ Į
Ġìŀ ¬
Ġë° ĺ
ë° Ķ
ì§ ģ
i s
Ġìļ Ķ
Ġíĺ ¸
b s
ìĪ ł
ìĦ Ŀ
ê° ģ
ĠìĹ Ĩ
ìļ ¸
ĠìĿ Į
Ġ w
Ġë ĺ
Ġ h
Ġê³ Ħ
íĥ ľ
i t
ìłģ ìĿ¸
i c
Ġ íķĻ
ê ¶Į
ı Ħ
ì¶ ľ
ë° ľ
ëł ¹
íĴ Ī
Ġê²½ ê¸°
Ġë° ķ
ë¶ Ħ
Ġì Ī
Ġëĺ Ĳ
Ġë ķĮ
ìłģ ìľ¼ë¡ľ
ìķ Ħë
¼ë ¡ľ
ĠìĤ¬ëŀ Į
Ġì ¢ħ
ĠìĽ Ķ
Ġ é
Ġí ĽĦ
Ġë² Ī
Ġìł Ħë
Ġëħ ¸
íħ Į
ê¸ ī
Ġíķ ¨
ĠíĶĦë ¡ľ
Ġê° Ĳ
Ġì ´Ī
ëı ħ
Ġë łĪ
ĠìĤ¬ ìļ©
ìĬ¤ íĬ¸
íĮ Ĳ
ĠëĤ ´
Ġëı ħ
Ħë¥ ¼
ëĤ ¨
ĠëĶ °
ì¡ ±
ì ´Ī
ĠëĮĢíķľë¯¼ êµŃìĿĺ
ì¿ ł
ë ¸Į
íķ ¨
Ġë² ł
Ġë§ Ĳ
ê³ ¡
ĠíĻ Ķ
ı Ļ
Ġ e
ê° ľ
Ġíķľ êµŃ
ë¦ ¼
íķ Ń
ìĿ ¸ë
ì ¤Ģ
ë¦ Ħ
Ġìĺ ¬
Ġë° Ľ
Ġë Ĩ
Ġí ļĮ
ĠìĬ ¹
ë° ĺ
Ġìĸ ĳ
Ġêµ °
íİ ĺ
Ġë§ ģ
ìŀ ħ
Ġíı ī
Ġë§ ¤
Ġê² Į
ë£ Į
´ ī
ëĦ ¤
ê¸ Ī
Ġíĸ ī
ĠìĻ ¸ë¶Ģ
ê ±´
ìħ ĺ
ëĲĺ ìĸ´
íĶ ¼
ëħ ¸
Ġì¶ Ķ
Ġí ħ
´ Ŀ
Ġë§ģ íģ¬
ë ¹
Ġëĵ ľ
ì¸ ł
Ġíķľ ëĭ¤
Ħë ĮĢ
í Ī¬
Ġëª ©
Ġë© Ķ
ã ģ
ë ĶĶ
Ġt he
Ġì ¡
ëŀ ĺ
ĵ °
íķĺ ê²Į
Ġë¶ Ħ
ë² Ħ
Ġí ģ¬
ìĭ ¬
íķĺ ê¸°
ë¶Ģ íĦ°
ë¥ ´ë
ê ´ĳ
ª ½
ì £
Ġë¯¸ êµŃ
Ħë ¦¬
ê· ¸ë
Ġë³ Ģ
ëĵ± íķĻêµĲ
ë© Ķ
Ġ ç
Ġì ±
ìĹĲìĦľ ëĬĶ
Ġì£ ¼ë
ĠìĿ´ íĽĦ
ë ĳĲ
ìķ ħ
Ġëį °
Ġì Ĥ°
Ġí Ŀ
Ġìŀ ħ
ì§ Ī
ë³ Ħ
ã ĥ
u s
ìĸ ¸
ëĬ ¥
ë¦¬ ìķĦ
Ġì º
ìķ ½
ê° ķ
ì£¼ ìĿĺ
ìĿ ¼ë
Ġê°ģ ì£¼
ë©´ ìĦľ
íĸ ¥
Ġíĺ ķ
ĠíĻ ľ
ĠìĦľ ìļ¸
ìľ ¡
ìĻ ķ
ĠëħĦ ìĹĲ
ëŀ Ģ
ĠíĨ ł
Ġë¶ ģ
Ġë¯ ¼
ì ª½
Ġí Ľ
l e
Ġì² Ń
Ġì² ľ
ĠìĻ ķ
Ġê ´ĳ
Ġì² ł
ëı Ħë
¸ Ķ
Ġ v
ìķĺ ëĭ¤
© ´
Ġìĸ ´ë
ì² ł
ìľ¼ë Ĥĺ
ëħ Ħ
ĠíĶ ¼
ë§ ¤
ì Ĥ
¨ ¸
ì Ķ
Ġìĸ ´
Ġ è
ìł Ģ
Ġìļ ´
ì¼ Ģ
Ġë ¸Į
ë¥ ĺ
Ġê·¸ ë¦¬
ëĭ ¬
ìĽ Į
ëł ¨
ŀ ĳ
Ġë§ İ
Ġì¹ ´
Ġo f
ìĺĢ ëĭ¤
i on
Ġê³ ¼
Ġìł ģ
ì² ĺ
ĠëĲĺ ìĹĪëĭ¤
ê »
ĠìĤ ´
íĻ ĺ
ê² °
ľ ëĭ¤
ëĵ ł
Ł ģ
Ġíķ Ń
o l
í ļ
Ġì »
Ġìķ ł
ĠêµŃ ê°Ģ
Ġí ĳľ
ìĭľ ìķĦ
ìļ ´ë
Ġíİ ¸
íİ ¸
ìĿ´ ëĿ¼
Ġì ¦
Ġì§Ģ ìĹŃ
ê¸ Ģ
o m
ì Łģ
ë² ł
ë¶ ģ
ëŁ ī
° ĺ
u n
ëª ©
ĠìĻ ¸
ê» ĺ
ì§ ĳ
ëĤ ´
ìĺ Ī
ĠìľĦ íķ´
a s
Ġê·¸ ëĬĶ
³ ´
u r
í ģ
ä ¸
Ġê¸ Ī
Ġì§ ģ
Ġì¡° ìĦł
ì ±
ëĬĶ ëį°
į ¼
Ġë³ ´ë
Ġê ±´
ĠëĮĢíķľë¯¼ êµŃ
Ġê°Ļ ìĿĢ
Ġëĭ ¬
Ġë ĶĶ
ľ ëĵľ
Ġìł Ģ
í Ľ
· ¨
Ġìĭľ ìŀĳ
ë³ µ
Ġëĵ ¤
Ġí ŀĪ
Ġíĥľ ìĸ´ë
ĠìĪ ľ
e l
ĠëķĮ ë¬¸
ĠìĤ¬ ìĿ´
Ġí Ī¬
íı ī
ë³ ĳ
Ġí ģ
ì¹ ´ë
ĠíĺĦ ìŀ¬
Ġë¹ Ħë
in g
Ġìĥ Ī
i l
Ġëħ ¸ë
ĠìĿ´ ë¦Ħ
Ġíķ¨ ê»ĺ
Ġìŀ Ħ
Ġì¶ ©
ĠìĤ ¼
a m
ìĺ ¨
ã Ĥ
ëĵ¤ ìĿ´
Ġ in
ì ½
Ġì² ĺ
Ġê²½ ìļ°
ĠëĶ° ëĿ¼
ìĬ¤ ìĿĺ
Ġì£ ½
íĿ ¬
ëĿ¼ë §Ī
ì¶ ķ
Ġê¸° ë¡Ŀ
Ĭ Ķ
Ġìŀĳ íĴĪ
ëĲĺ ìĹĪ
Ġì§ ĳ
e t
Ġë¯¸ êµŃìĿĺ
Ġë°© ìĨ¡
Ġë £¨
ìĶ ¨
ëĲľ ëĭ¤
ì¡ Į
Ġíķ ©
ĠíĻ ©
ìĿ´ ë©°
Ġë³ ¸
Ġëĭ¤ ë¥¸
ìł Ī
ŀ Ģ
Ġë° ±
ìł ¸
ìĥ ī
Ġk bs
ì° ½
Ġë³ µ
b c
ĠíĶ Į
ìĿ´ ìĬ¤
Ġì ´Ŀ
Ġë² ķ
Ġê°Ļ ìĿ´
ĠíĶĦë ŀĳ
íĻ ©
Ġê·¸ë Ł¬
Ġì° ½
a c
Ġ i
ĠìĨ į
Ġìĭ ¬
íķĺ ëĭ¤
Ġìķ ¼
Ġì² ´
ìĿ´ ëĤĺ
Ġì ¢
íķĺ ë©°
ĠìŀĲ ìĭł
ĠìĹ ´
ĠìĹŃ ìĤ¬
ìķ ł
Ġíİ ĺ
ë² Ķ
¯ ¸
Ġê ±
ì§ ¸
ë¡ ł
Ġë¯ ¸ë
ĠëĺĲ íķľ
Ġìļ ©
ª ħ
¯ ¼
Ġë ĳĲ
ìĻ ¸
íĥ Ī
Ġa n
Ġìł Ĳ
íķĺ ì§Ģ
ìŀ Ī
ê· ¹
ê· ¼
ì¦ Į
ĠìĹĲ ìĦľ
íĹ ĺ
Ġì¶ľ ìĭł
Ġê° Ħ
¬ ¼
ê° Ĳ
ëĵ¤ ìĿĢ
Ġê²Į ìŀĦ
Ġì ½
ĠìĦ¸ ê³Ħ
Ġì¹ ´ë
Ġë°° ìļ°
ī ´
ĠíĮĮ ìĿ¼
ĠìĿ ¸ë
ĠíĮ Ĳ
į °
ëį Ķ
Ġs t
Ġëĭ¤ ìĿĮ
ë° °
r o
ì£ ¼ë
ĠíĻ ķ
ì ³
ĠìĿ¼ë ¶Ģ
¶ ģ
r e
Ġëĭ¹ ìĭľ
Ġíķĺ ëĤĺ
Ġì¹ ĺ
ìľĦ ìĽĲ
Ġë ģ
ì° °
íĶ ½
í ĮĢ
ĠìķĦ ìĿ´
ìķ Ļ
ĠëĦ ¤
² Ħ
ĠíĻ į
ëłĪ ìĿ´
ħ ¸
ĠëķĮë¬¸ ìĹĲ
Ġê°Ĳ ëıħ
Ŀ ½
Ġê°Ģ ìŀ¥
ë³ ¸
ìĬ µ
Ġì¦ Ŀ
ê² ¬
Ġìĭľ ì¦Į
ĠìĹ¬ ìŀĲ
ĠëĲ ľëĭ¤
ê· ľ
Ġë³ ĳ
Ķ ëĭ¤
´ë ¥¼
Ĳ ĺ
e d
Ġë¦¬ ê·¸
Ġê·¸ ìĿĺ
ĠíĻľ ëıĻ
Ġìº Ĳ
ìĿ´ íĬ¸
ĠëĺĲ ëĬĶ
ìĿ´ ì§Ģ
ê¸° ëıĦ
Ġíģ ´ë
Ġë Ĭ
i g
i d
Ġp x
ì¹ Ń
Ġíħ Į
Ġê²ĥ ìĿĦ
Ġëıħ ìĿ¼
Ġë Ī
Ġê ¶Į
ë§ Ŀ
Ġí ļ
¬ ¸
ëĦ Ī
Ġì ·¨
ìĹĲ ëıĦ
ëıĦ ìĿĺ
ĠíĮ ¨
ìĪ ľ
ĠìĿĺ íķ´
p g
ĠìĪĺ ìĥģ
Ġê·¸ëŁ¬ ëĤĺ
Ġê°Ģ ì§Ģ
ĠìľĦ ì¹ĺ
ĠíĽ Ħë
Ġt v
Ġëı Ħë
¸ë ¡ľ
ĠêµŃ ìłľ
ìĹ ´
Ġíĥľìĸ´ë Ĥ¨
Ġê²ĥ ìĿ´
c h
Ġì¹ ľ
Ģ ë¡ľ
í į¼
Ġëı Į
Ġíĸ Īëĭ¤
ĠìĿĮ ìķħ
Ġëª »
ëĮĢ íķĻêµĲ
ì ĵ°
ìĿ´ ìħĺ
Ġì ¤Ģ
¼ë §Ī
ĠìŀĪ ìľ¼ë©°
ĠìĨ Ĳ
ìĽ ¨
Ġê²ĥ ìľ¼ë¡ľ
en t
Ġë¬ ´ë
ĠìŀĪ ìĹĪëĭ¤
Ġëĵľ ëĿ¼ë§Ī
íļĮ ìĿĺ
ĠìĦ¸ ê¸°
Ġìľ ¼ë¡ľ
Ġì¡ ´
Ġì°¸ ê°Ģ
¡ ł
ĠëıĻ ë¬¸
íĥ Ħ
Ġí Ĵ
Ġj pg
ĠìĿ´ë Ŀ¼
ìĬ ¬
Ġì ĵ°
Ġê·¸ë¦¬ ê³ł
Ġë² Ħ
ëĲĺ ëĬĶ
Ġëħ Ħë
ëĤ ľ
ì± ħ
Ġm bc
Ġì ¼
ĠëĤ¨ ìŀĲ
ë Ŀ½
o s
ê¸° ë¥¼
ìŀĪ ëĬĶ
ĠìĿ Ģ
íĭ Ģ
íĶ Į
¨ ¼
ĠìĦ¤ ë¦½
ëŀ ľëĵľ
ëĵ¤ ìĿĺ
ëĵ¤ ìĿĦ
ë¦¼ íĶ½
Ġë Ł¬
ì¶ Ķ
íļ į
Ġë³´ ê¸°
¼ë ¦¬
íĬ ¹
ĠíĹ Ī
ĠëĤ ´ë
ë¦¬ ëĬĶ
ĠíĨµ íķ´
ŀ ¨
ëĬĶ ëĭ¤
ë¦¬ ìĬ¤
ĠìĦł ê±°
Ġìłķ ì¹ĺ
ł ¥
ë¦ Ń
ĠìĨ ¡
ìĦ ¼
íĻ ľ
ìĬ ¨
Ġìľ ¡
ĠìĤ¬ íļĮ
ł ¤
Ġí Ĥ¤
íĦ ´
Ġëį Ķ
ĠìĹ° êµ¬
ĠìĿ´ ìĥģ
Ġìľ ¤
Ġì¤ĳ êµŃ
a d
Ġì¶ľ ìĹ°
íĽ Ī
ê² ĥ
Ġë¬¸ íĻĶ
Ġë ī´
Ġìĭ Ŀ
Ġíķĺ ëĬĶ
Ġì ¿
Ġë²Ī ì§¸
u m
ë¯ ¸ë
Ġìĺ¬ ë¦¼íĶ½
íĥ Ŀ
ëĭĪ ìķĦ
ì¡Į ëĭ¤
ĠìĿ¼ë³¸ ìĿĺ
ĠìĦ ¸ë
Ġìłľ ìŀĳ
ê¸° ìĹĲ
° Ķ
ĠëĮĢ íķĻ
Ġë§Į ëĵ¤
ĠëĨ Ĵ
Ġê°ľ ìĿĺ
ĠìĻ Ħ
ä º
Ġì¡ ¸
u t
Ġìļ° ìĬ¹
ĠíĶĦë¡ľ ê·¸ë
© Ķ
ìĽ Ķ
Ġëĵ¤ ìĸ´
ĠëıĦ ìĭľ
Ġëĭ¤ ìĭľ
Ġíı¬ íķ¨
ë¦¬ ë¥¼
ë ´ī
ĠìĦ Ŀ
i v
ìĬ¤ íĦ°
ì§Ģ ëĬĶ
ĠìłĦ ìŁģ
Ġì²ł ëıĦ
íĺ ģ
ì» µ
Ġê²ĥ ìĿ´ëĭ¤
Ĥ ´
ëħ Ģ
ì¦ Ŀ
Ġë ¸Ķ
ì³ Ĳ
Ġë§İ ìĿĢ
Ġì¡¸ ìĹħ
Ġk m
íĺ ĳ
Ġc h
ĠëĮĢ íķ´
ĠíĶĦëŀĳ ìĬ¤
Ġë ĸ
ĠìĦ ¬
ĠìĿ¼ ìĹĲ
íĹ Į
íĶ Ħë
Ġì ¸
Ł °
ëŁ ½
Ġ y
Ķ ëłĪ
ê² ¨
ĠìĿ´ ìļ©
a g
ì¡ ´
¶Ģ íĦ°
Ġëª¨ ëĵł
ì§ ķ
ìķ Ķ
ĠíĬ ¸ë
o t
ĠíĻ ĺ
ĠëĮĢ íĳľ
¡ Ŀ
Ġê· ľ
ê³ł ëĵ±íķĻêµĲ
Ġìłķ ë¶Ģ
ë Ī
íķĺ ë©´ìĦľ
ĶĶ ìĺ¤
Ġìĸ ¸
ĠìķĦ ëĭĪ
Ġë Ŀ¼ë
i f
ìĭľ ìĿĺ
Ġê² Ģ
ë¶ Ī
ë ĥ
Ġëª¨ ëĳĲ
Ġëĭ Ī
Ġë¬ ¼
ĠìĬ Ī
Ġìķ ½
Ġìĭľ ê°Ħ
ĠëĨ į
ìľ ¨
ĠìĤ´ ìķĦ
ĩ ´
ĠìĹ¬ ëŁ¬
Ġíı Ĳ
ĠìŀĪ ìĹĪ
Ġê´Ģ ëł¨
íĨµ ëł¹
ë° ķ
ë§ ī
å ®
Ġì§Ģ ìłķ
§ Į
ì» ¤
ĠíĶĦë¡ľê·¸ë ŀ¨
ë° ±
ĩ ¼
u l
¬ ´
ĠìŀĲ ìľł
´ë ¡ľ
Ġìĺģ êµŃ
Ġan d
ĠìĬ¤ íĥĢ
e c
ëŀ ĳ
ëħ Ĳ
at ion
i a
ë¦¬ ê·¸
ĠìľĦ íķľ
¸ ëĭ¤
ëĲĺ ê³ł
Ġs bs
Ġíĺ¸ ìĦł
Ġë Ĵ
ĠêµĲ ìľ¡
Ġìķ ¨
ìĽ Ģ
íķĺìĺĢ ê³ł
ë ¨¸
íķĻ ìŀĲ
Ġê³µ ìĭĿ
ëı Ħë¡ľ
Ġë¶Ģ ìĤ°
i r
Ġêµ¬ ìĦ±
s t
Ġê³ ¨
Ġíĺ ĳ
ëĭ ´
ħ Ģ
ìł Ħë
íĸĪ ê³ł
ª ¨
Ġì°¸ ê³ł
ĠëĮĢ íļĮ
ĠìĿ¼ë °ĺ
Ġí ĮĢ
ìł ĳ
ìĤ¬ ë¥¼
ĠíĹ ¤
ìĹ Ķ
Ġì§Ģ ë°©
ĠìĹ Ķ
Ġíķ Ħ
ë Ķ
ì ´Ŀ
ë ¸Ķ
ê° Ŀ
´ Į
ìĿ´ ìĹĪëĭ¤
íĺ ¼
ê¸ ¸
ĠëĮĢ íĨµëł¹
ĠíĥĢ ìĿ´
a y
íĿ ¥
ê±° ë¦¬
ìĤ ´
Ġí Ħ
Ġf c
ë¹Ħ ìłĦ
Ġíķĺ ìĺĢëĭ¤
ĠëĿ¼ ê³ł
¤ Ħ
ìĿ´ ìŀĲ
ìĥģ ìĿĦ
ìŀ¥ ìĿĦ
Ġì²ĺ ìĿĮ
® ¤
i m
ĠìĤ¬ ê±´
Ġëħ ĦëĮĢ
ĠìĻ Ģ
Ġë° Ģ
Ħ ¤
ľ ĺ
Ġê°Ģ ëĬ¥
Ġìĭ ±
Ġê· ¹
ìĸ´ ì§Ħ
ĠíĻ Ī
e m
ë² Ī
Ġìķł ëĭĪ
ìļ° ìĬ¤
Ġíĸī ìłķ
Ġë¬¸ ìłľ
ìĬ Ī
ì° ¬
ĠìĿ´ ëĭ¤
ĠìķĦë ĵ¤
Ġë ´ī
Ġíķ ´ë
ëĮĢ ë¡ľ
Ġë°ľ ë§¤
Ġì¿ ł
ë¦¬ ì¦Ī
ëĤĺ ëĿ¼
ìĿ´ ëĬĶ
Ġëĵ± ìŀ¥
ìĦ± ìĿĦ
ĠìĤ´ìķĦ ìŀĪëĬĶ
Ġì¡´ ìŀ¬
ë¡ Ģ
Ġê²½ ìĥģ
ì§Ģ ë¥¼
ĠëĿ¼ ìĿ´
ëı Į
o p
a p
ëĤ ł
íĮ ¨
Ħë ĬĶ
Ġ ä¸
ëį ķ
Ġíħ ĶëłĪ
Ġëĵ± ìĿĺ
¥ ´
Ġì¤ĳ ìķĻ
ê±° ëĤĺ
ê´ĳ ìĹŃ
Ġíı Ń
ìĨ Ĳ
Ġì¼ Ģ
£ ¹
ĠìĦ¤ ì¹ĺ
ĠìŀĪ ìĸ´
Ġê°ľ ë°ľ
ìĬ¤ íĥĢ
å ¤
ìľĦìĽĲ íļĮ
ĠìĤ¬ëŀ ĳ
Ġëģ Ŀ
ĵ¤ ìĿĢ
ë¥ ł
ìŀĲ ê°Ģ
ë¦¬ ìĹĲ
ê· ł
íĬ¹ ë³Ħ
Ġ u
ĠìĿ´ë £¨
ì° ©
o d
ìĿ´ ê³ł
ëĮĢ íĳľ
Ġì¢ ĭ
ĠìĿ´ íĥĪ
ĠìķĮ ëł¤
t er
ìĿ´ ëĵľ
Ġæ Ŀ
ë ·
Ġê¸° íĥĢ
Ġíļ ¨
Ħë¥ ´
ĠìłĦ íĪ¬
Ġë§ ŀ
ĠìŀĲìĭł ìĿĺ
Ġìĭľ ëĮĢ
ìĿ´ ìĹĪ
Ġ íķĻêµĲ
ĠìĿĮ ë°ĺ
ëŁ ¼
ê¸° ìĿĺ
êµ° ìĿĺ
Ġê· Ģ
ìĿ į
ìĬ¤ íĬ¸ë
ë° Ľ
ê ¹
Ġìł ĳ
ĠìĨĮ ìĨį
ĠëĤĺ íĥĢ
ëĦ Ĳ
ĠíħĶëłĪ ë¹ĦìłĦ
Ĥ ľ
Ġì§Ħ íĸī
Ġìĺ ¨
ĠìĽĶ ëĵľ
ĠìĬ¤ íİĺ
o c
Ġê²° ê³¼
ë³ ´ë
ì¸ ¡
į ¨
ìĿ ĳ
ĳ ¸
Ħ Ĳ
ìĬ¤ ëĬĶ
å ħ
å Ń
ë² Į
ìĿ´ëĿ¼ ê³ł
ëŀ Į
ê³ ¼ë
Ġìļ ´ë
ĠëĴ ¤
Ġê²ĥ ìĿĢ
ìĿ¸ ìĿĺ
ëĵ Ŀ
Ġíĸ ¥
ĠëĮĢ íķĻêµĲ
Ġê· ¼
ì´Ī ëĵ±íķĻêµĲ
Ġê³µ ê²©
° ©
Ġìķ ŀ
Ġë§Ī ìĿ´
íļ ¨
Ġê²½ ìłľ
ĠìĥĪ ë¡ľ
ì ´Į
ĠëĿ¼ ëĬĶ
Ġì£¼ ìļĶ
o w
Ġë°ľ íĳľ
Ġë² Ķ
Ġíĥ Ī
Ġëĭ ´
íĶĦ íĬ¸
ĠëħĦë ¶ĢíĦ°
ì¹ ľ
¸ë ĮĢ
ĠìĹĨ ëĭ¤
Ġì» ¤
Ġíķĺ ê³ł
ë¬ ´ë
ĠëŁ¬ ìĭľìķĦ
Ġë§ ¡
Ġíķĺ ì§Ģë§Į
ë¹ Ħë
Ġëĵ± ìĿ´
ĠíĦ °
ìŀĲ ìĿĺ
Ġë§ ī
íķĺ ë©´
Ġê°Ģ ìĪĺ
o v
ìĦľ ëĬĶ
Ġì£¼ ìŀ¥
Ġë³Ģ ê²½
ë¶Ģ ë¶Ħ
ë§ Ĳ
ë¦¬ ê°Ģ
Ġê³ł ëł¤
Ġê° ĸ
Ġì¤ĳ ìĭ¬
ì µľ
Ġt h
ìĿ´ íĦ°
ìľ ¤
²Ħ ì§Ģ
ìĿ µ
Ħë ªħ
Ġìľł ëŁ½
Ġëıħ ë¦½
ìĭľ ìĹĲ
ëĿ¼ ëĬĶ
ëŁ °
ìĹ ĺ
Ġìµľ ì´Ī
ìĭľ íĤ¤
¦ °
Ġë ľ
ĠëĲĺ ìĸ´
Ġëħ¸ ìĦł
Ġë¡ľ ë§Ī
er s
Ġì£½ ìĿĮ
í Ĥ¨
ĠëıĻ ìķĪ
an d
Ġê¸° ìĪł
Ġëħ¸ë ŀĺ
íĴ į
ë©Ķ ìĿ´ìħĺ
ĠìĤ¬ ë§Ŀ
ľ ´
ĠìĿ´ ìłĦ
ê¸° ê°Ģ
æ Ĺ
ì£¼ ëĭ¹
ëĭ Īëĭ¤
ìĪ Ļ
Ġìķ Ķ
ĠëĮĢ ìłĦ
ĠíĶĦë ¦¬
ì¹ ¨
Ġê¸ ¸
Ġìµľ ê³ł
Ġìļ´ ìĺģ
ĠíķŃ ê³µ
Ġìł Ī
Ġê³ ³
ìĬ¤ íħ
íķ ´ë
Ġëĵ± ìĿĦ
íĶ Ħë¦¬
Ġì§Ģ ìĽĲ
ê³ ¨
ë ĳ
Ġë° Ŀ
ë¥´ íģ¬
ìŀĲ ë¡ľ
Ġë°ľ ê²¬
Ġí ĭ
ĠìĿ´ ëĬĶ
ê´ĳìĹŃ ìĭľ
ê° Ī
Ġëĵ Ŀ
Ĳ ëĭ¤
ĠìĿ´ë Ł¬
ĠìĿ´íĥĪ ë¦¬ìķĦ
³ ĳ
Ħë ıĦ
ëĭ Į
ĠìķłëĭĪ ë©ĶìĿ´ìħĺ
Ġd e
Ġêµ¬ ì¡°
ë³´ ëĭ¤
ĠëħĦ ìĹĲëĬĶ
Ġë© ´
ĩ Į
ĠìĿ´ëŁ¬ íķľ
íĻĶ êµŃ
Ġê± ´ë
Ġíĺ ĦëĮĢ
ëıĦë ¡Ŀ
Ġê± ¸
Ġìļ ¸
íĺ ľ
ìĹĪ ê³ł
Ġê° Ī
Ġíĸ Ī
ê ´
is t
Ġì§Ħ ì¶ľ
Ġì°¸ ìĹ¬
¡ ¯
Ġë°ľ ìĥĿ
Ġìķ¨ ë²Ķ
ì£¼ ìĭľ
Ġê³ ¡
ĠëĤ ł
ë¦¬ ìĿĺ
å ·
ĠëıĦ ì¿
ĠìĿ´ë ¥¼
ê¸° ëĬĶ
Ġìķ ħ
Ġr e
ìļ´ë ĵľ
Ġëªħ ìĿĺ
íĮ ħ
Ġìĺģ íĸ¥
ìĤ¬ ìĿĺ
ìĤ ¼
Ġa l
Ġìŀĳ ê³¡
Ġë ĳ
ì į¨
ìĤ¬ ê°Ģ
Ġë¸Į ëĿ¼
ĠìĦ ¼
ëĬ Ĳ
Ġì½ ĺ
Ġë ¨
ĵ¤ ìĿ´
Ġa r
ë³ Ģ
Ĥ¬ ëĭ¤
Ġì± Ħ
ì¹´ ìĿ´
Ġê²° ìłķ
Ġìļ´ íĸī
ìĻĢ ìĿĺ
ĠíĬ¹ ë³Ħ
ê· Ģ
ĠìĿ´ ìĸ´
Ġê·¸ë ħĢ
Ġë ®¤
Ġê¸ ī
ëĬ ĺ
íķĻ ê³¼
ĵ¤ ìĿĺ
ì» ¬
Ġå ¤
ĠìĹ¬ ìĦ±
Ġëª© ë¡Ŀ
Ġìĸ »
ë§ ¹
íĸĪ ìľ¼ë©°
Ġì§ Ī
ĠìłĦë Ŀ¼ë
Ġê¸° ìĽĲ
ë ģ
ĠëĮĢ ë¶Ģë¶Ħ
ĠêµĲ ìĪĺ
ìĺ ¥
ëĭ ĺ
ĠêµŃê°Ģ ëĮĢíĳľ
ìķ ¼ë§Ī
ĠìĥĿ ê°ģ
i e
Ġt o
ëł Į
Ġìŀ ¡
Ġìķ¼ êµ¬
ìļĶ ìĿ¼
c e
íĭ ´
ëł¥ ìĿĦ
ê³¼ ìĿĺ
Ġì± ħ
ar t
Ġì¹ ¨
ìĿ´ëĿ¼ ëĬĶ
Ġ ä
ĠìĿ¸ íĦ°
Ġê·¸ë £¹
Ġì¢ Į
Ġé ĩ
ĠìĿ¸ íķ´
ĠìĪĺ ëıĦ
ì º
ĠìĿ´ ìĹĲ
Ġíĺķ íĥľ
Ġìŀ ī
ëĤ¨ ëıĦ
ĠëĮĢ êµ¬
ìĹĲìĦľ ëıĦ
ĠìĤ¬ ìĭ¤
ìĭľ ì¼
Ġê³µ ëıĻ
Ġì° ¾
Ġê¸° ì¤Ģ
ìĬ¤ íģ¬
ë°© ìĨ¡
ĠëłĪ ìĿ´
ë¬¸ íĻĶ
ìĦ± ìĿ´
ëĮĢ íķĻ
ĠìĿ¸ ì²ľ
Ġìļ´ë ıĻ
ì¶ ©
ìłķ ìĿĦ
ĠíĬ¹ íŀĪ
ĠíķĦ ìļĶ
es t
ëĿ¼ ê³ł
ë§ ģ
Ġëĭ¤ìĿĮ ê³¼
ĠìĥĪë¡ľ ìļ´
ĠìĽĶ ìĹĲ
Ġìĭ± ê¸Ģ
Ġêµ¬ ê°Ħ
ìĭľ ë§Ī
ì§Ģ ë¡ľ
ìŀĲ ë¥¼
ì ¢
ĠìŀĲ ë£Į
ĠìĹ ĺ
ĠìĦľìļ¸ íĬ¹ë³Ħ
ìļ ķ
ìĬ¤ ë¥¼
Ġê¸° ìĹħ
Ġ un
ëŀĢ ëĵľ
Ġìĸ´ë ĸ
ĠìĦ± ìļ°
Ġìĭľ ë¦¬ì¦Ī
ìĺ ¬
Ġì¡° ì§ģ
Ġ x
íķĺìĺĢ ìľ¼ë©°
íģ ´
³ Ģ
ĠëħĦ ê¹Įì§Ģ
ĠìķĦë ²Ħì§Ģ
ŀ ľëĵľ
ìľ Ħë¥¼
Ġê¸ Ģ
Ġëĭ¤ ìĿ´
ë¹ Ī
ĠíĹ Į
Ġë¶Ģ ë¶Ħ
ĠìĿ¼ ìĸ´ë
æ °
ìĭ ±
å ±
Ġíĥ Ħ
Ġëĭ¤ ìĸĳ
ë· Ķ
ìĬ¤íħ ľ
ĠìĹ ħ
êµ¬ ìĿĺ
ìĻ Ħ
¥ ĺ
Ġëľ »
ĠêµĲ íĨµ
ëı Ħë¥¼
æĹ ¥
ĠìĹĨ ëĬĶ
r a
Ġë² Į
Ġê²½ê¸° ëıĦ
Ġìĥģ íĥľ
ł ëĭ¤
Ġc om
æ ľ
Ġì¸ ¡
ĠìĿĺ ë¯¸
ë¶ģ ëıĦ
Ġì ¤Ħ
ĠìĿ¸ë ¬¼
ìŀĲ ëĬĶ
Ġì²łëıĦ ìĹŃ
ê ¶ģ
ĠìĽ Į
ìĹ° êµ¬
í ĩ´
ìĸ´ë ¡ľ
Ġë°Ķ ìĿ´
ĠìĦ± ê³µ
ŀ Į
ĠìĿ´ ê²ĥ
ĠëĤ´ ìļ©
Ġìŀ ł
ê ±
ĠëĤ ľ
o g
¨¸ ëĭĪ
ĠìĿ´ ìķ¼
ë¡ľ ìĦľ
Ġìĥģ ëĮĢ
Ġs p
å ľ
ë Ĩ
ĠëĦ ĺ
c t
² ł
Ħ Ī
Ġéĩ ĳ
Ġëį° ë·Ķ
ìļ´ë ıĻ
Ġf r
í ľĺ
íĺ Ģ
ëĿ¼ ìĿ´
Ġì¶© ì²Ń
Ŀ¼ ìĿ´
ĠëıĮ ìķĦ
ìļ ±
ì¹ Ļ
Ġìłķ ë³´
ìĹ Ħ
a k
Ġ on
ê°Ģ ìĻĢ
¥ ´ë
ì¤ĳ íķĻêµĲ
ĠæĿ İ
Ġê´Ģ ê³Ħ
ëĲĺìĹĪ ê³ł
ëį ¸
Ġì ĩ¼
ì¢ Į
ìĿ¸ ìĿ´
ig h
ëł ī
ìĬ¤ ê°Ģ
íĸĪ ëįĺ
ìĹĲìĦľ ìĿĺ
Ġíķ´ ëĭ¹
Ġê³Ħ ìĨį
Ġë ¹Į
ĠìľĦ ìĽĲ
Ł ½
Ġëª¨ ìĬµ
Ġì» ´
ìĭĿ ìĿĦ
ê³ Ħë¥¼
ĠìŀĪ ê³ł
ëĭ Ŀ
ĠíĴ į
es s
il l
ì¶ ĺ
Ġë°° ê²½
ĠìĿ´ ìľł
ìĽĲ ìĿĺ
Ġì¤ĳ ìļĶ
Ġê°ľ ìµľ
ìĿ¸ë ¯¼
ì¸ µ
ì²ĺ ëŁ¼
i p
ê¸° ë¡ľ
ë ¨¼
Ġì± Ķ
Ġë§¤ ìļ°
íĶ¼ ìĸ¸
Ġë°Ľ ìķĺëĭ¤
ĠìŀĪ ëįĺ
å ¯
Ġê°Ģì§Ģ ê³ł
ëĦ¤ ìĿ¼
ìľ ¼
Ġn e
Ġì£ ¼ë¡ľ
Ġê²½ ëł¥
Ġë§Ī ì§Ģ
² ķ
ë¦¬ ìĬ¤íĬ¸
ĠìłĦ êµŃ
íķ´ ìĦľ
ëħ ¸ë
Ġëħ ¹
Ġìŀī ê¸Ģ
ĠìĪľ ìľĦ
ìĦ¼ íĦ°
ìŀĲ ìĿ¸
íĬ¸ë ¡ľ
ìŀ¥ ìĿ´
o u
Ġë¹Ħ ê³ł
êµĲ ìľ¡
ìķ ķ
ĠìŀĲ ëıĻ
Ġs h
ĠìĽ ¨
ĠêµŃê°ĢëĮĢíĳľ íĮĢ
ç Ķ
Ġìĭľ ìłĪ
Ġíĭ °
Ġíķ ł
ĠìĥĿ ìĤ°
ĠëĬ ¥
a b
ĠìĽĶëĵľ ì»µ
ĠëıĦì¿ Ħ
Ġì Į
ĠìĹŃ íķł
ĠêµŃ ë¯¼
ìľ¼ë¡ľ ìĦľ
Ġf or
ê¸ ´
Ġê±´ ì¶ķ
Ġê³Ħ íļį
ĠìĤ¬ ìĹħ
ĠìĦľìļ¸íĬ¹ë³Ħ ìĭľ
Ġ en
å Ĳ
ì² ´ë
Ġë¹ ł
ìĪĺ ìĿĺ
ë¡ľ ë¶ĢíĦ°
ĠíĬ ¸
Ġå ħ
ĠìķĬ ìķĺëĭ¤
ìĭľ ëĮĢ
ĠíĮ Ķ
an g
é Ļ
Ĳ ľ
ë¦¬ ìĺ¤
´ë ĵľ
ĠíĿ ¬
ìĤ¬ ê´Ģ
e f
ĠìĻ¸ êµŃ
ĵ ¨
Ġë°© ë²ķ
ìľ¼ë¡ľ ëĬĶ
Ġt r
íİĺ ìĿ´ì§Ģ
ĠìĦ¬ ëĦ¤ìĿ¼
Ġìĺ ¥
Ġë³ Ħ
q u
Ġìłľ ê³µ
ìłĦ ìĿĦ
Ġê´Ģ íķľ
Ġëª °
ĠìĿ ĳ
ĠìĿ¸ ê°Ħ
ĠìķĬ ê³ł
ìĭ Ń
ëĤĺ ëĭ¤
ĠìķĬ ëĬĶëĭ¤
Ġë§Īì§Ģ ë§ī
½ ĥ
Ġëı Ħë¡ľ
Ġë°© ë©´
Ġì±Ķ íĶ¼ìĸ¸
ĠëĪ Ī
ar d
a v
Ġë ¨¸
ìĺģ íĻĶ
íķ Ħ
ĠìĹ ´ë
Ġí ŀĺ
in e
Ġê²° êµŃ
ìĦ± ìĿĺ
ĠìĿ¸ êµ¬
ëĲ ł
Ġíĺ ¼
į ¼ë
ìĤ¬ ë¡ľ
ĠìķĦëĭĪ ëĿ¼
Ġê°Ģ ì¡±
íı¬ ì¸ł
ĠìĿ´ë ¯¸
if a
Ġê¸°ìĽĲ ìłĦ
Ġìłķ ìĿĺ
Ġì§Ģ íķĺ
Ġíķĺ ìĹ¬
Ġp r
į Ķ
ĠìĬ ¬
Ġìŀīê¸Ģ ëŀľëĵľ
Ġìĭľ ìĬ¤íħľ
Ġíĺ ¸ë
ĠìĿ´ëĿ¼ ê³ł
Ġp ro
ĠíĽĦë ³´
íĻ į
Ġì¶Ķ ê°Ģ
ĠìķĦë ŀĺ
ìķĦ ìĿĺ
Ġs e
Ġê·¸ë¦¬ ìĬ¤
ìļ´ë į°
©Ķ ë¦¬
ëĵ¤ ê³¼
é ĥ
ĠìĨĮ ìĦ¤
ê² Ģ
° ëĭ¤
ĠìķĦ ìĭľ
íķĺê¸° ëıĦ
Ġëĸ ł
ìłľ ë¡ľ
Ġëĸ ¨
ĠìĥĿ ìķł
Ġì½ ľ
ĠíĶĮ ëłĪìĿ´
Ġìľł ëªħ
ĠëĮĢ ìĥģ
ëĲĺìĹĪ ìľ¼ë©°
Ġf ifa
íķĺ ìŀĲ
Ġê· ¼ë
ĠëĿ¼ë ĶĶìĺ¤
t h
ĠíĻĪ íİĺìĿ´ì§Ģ
Ġì ħ
Ġc on
ĠìĨĮ ìŀ¬
íĥ ķ
ê³µ íķŃ
Ġë§ ¥
Ġì°¨ ì§Ģ
Ġë§İ ìĿ´
Ġì ī
å ı
ìŀ ¡
Ġìĥ ¤
í Ĥ
ĠìĹ´ ë¦°
ì¹ ¸
Ġê² ©
ĠìĥĿ íĻľ
íĶĦë¦¬ ì¹´
Ġìĸ´ ë¦°
Ġìĺģ ìĸ´
ĠíŀĪ ë¡ľ
Ġë¬ ĺ
íĻĶ ë¥¼
Ġì¶ľ ìłĦ
ĠëĪ Ħ
ĠìĦłê±° êµ¬
íı °
ë§ ¨
ëĲĺ ì§Ģ
íģ Ĳ
íĥ ģ
ê¶Į ìĿĦ
ë¯¼ ì£¼
å± ±
ĠìĹ° ê²°
ìĥ ¤
Ġê¸° ëĬ¥
Ġc m
Ġëªħ ì¹Ń
Ġê°ľ ìĿ¸
ĠìĿ´ëĿ¼ ëĬĶ
Ľ °
íĨ ¨
ìĪĺ ë¥¼
Ġíıī ê°Ģ
ĠêµŃ íļĮìĿĺ
ë¥´ ëĬĶ
ë¦ ī
ë² Ħë
§ Ŀ
ëĵ¤ ìĹĲê²Į
ìľ¼ë ©´
ìĽĲ ìĿĦ
Ġíķľ íİ¸
Ġì§Ģ ê¸Ī
Ġëħ ¼
ìĬ¤ ì½Ķ
ì§Ģ ìĿĺ
Ġ he
Ġa t
ëıĦ ê°Ģ
íĦ ¸
ê ¾
ì ·¨
Ġê²° íĺ¼
Ġê°Ģ ìļ´ëį°
íħ Ĳ
ĠìĤ¬ ì§Ħ
Ġë¬ ¼ë
ìĿ¸ë¯¼ ê³µ
ĠìĪĺ ë¡Ŀ
Ġí į¼
Ġìĸ´ë ¨¸ëĭĪ
å į
Ġê´Ģ ë¦¬
Ġê°ľ ìļĶ
ë²Ħ ìĬ¤
íģ ´ë
ì½ ĺ
Ġå ®
Ġê°ķ ìĽĲ
igh t
ĠìĤ¼ ìĦ±
Ġë² ¨
íĿ Ĳ
Ġìľ¡ êµ°
Ġë³´ ê³ł
Ġê³¼ ìłķ
on g
ìĤ¬ ëĬĶ
ĵ¤ ìĿĦ
íĻ ķ
ĠìĿ´ë ıĻ
Ġíİ¸ ìĦ±
Ġê°Ļ ëĭ¤
Ġíģ´ë Ł½
Ĳĺ ìĹĪëĭ¤
ë¶Ģ ìĿĺ
ĠëĦ Ī
ìĥ Ī
ê³ Ħë
ĠíĶ ¼ë
Ġê°ģ ê°ģ
ë¹Ħ ìĬ¤
æ ´
ì§Ħ ëĭ¤
é ģ
ĠìłĦ ì²´
ë¥´ íĬ¸
Ġë¯¼ ì£¼
Ġìłľ êµŃ
ëĪ Ħ
Ġë³ ¸ë
ë° Ģ
ìĿ¸ ëĭ¤
ìľ¼ë¡ľ ìį¨
ìķ ¼ë
ìĥģ ìĿĺ
Ġì£¼ë ³Ģ
Ġë¶ Ļ
ìĿ¼ë ¦¬
Ġ z
ĠìĿ¸ ìłķ
Ġìļ° ë¦¬
ĠëĤĺ ê°Ģ
ëĦ ·
ĠìľĦì¹ĺ íķľ
ë£ ¡
it y
ł ĩ
ì¹´ ìĻĢ
íħ Ķ
ĠìŀĲ ìĹ°
Ġê²½ ì°°
Ġëį ķ
Ġìľł ì§Ģ
ì ĩ
ĠíķĻ ê¸ī
Ġë ¿
ĠìĿ¼ë¶Ģ íĦ°
Ġëĭ¤ìĸĳ íķľ
Ġë¶ Ħë
Ġì ´
ĠíıĲ ì§Ģ
ĠíķĻ ìĥĿ
ëĭ¤ ê°Ģ
Ġìĸ ¸ë
Ġê ´
ìŀ¥ ìľ¼ë¡ľ
Ġ is
ëª ¬
ëĶ ©
ëĥ Ĳ
ê³ ¤
Ġìŀĳ ìĿĢ
í ĵ¨
Ġê´ĳ ì£¼
Ġê±° ì£¼
Ġê³¼ íķĻ
Ġë§ Ŀ
ĠëĨĴ ìĿĢ
Ġìķ ķ
Ġíģ¬ ë¦¬ìĬ¤
ì½ ľ
ìŀĲ ìĻĢ
ĠëĮĢ ìĭł
i an
Ġì§Ģ êµ¬
ª ©
íķĺ ëįĺ
¥ Ĳ
Ġl e
ìħ Ķ
ì°¨ ë¡ľ
Ġê³µ ê°ľ
Ġë¨ ¹
Ġìłķ ëĭ¹
ìł ¤
ĠìĿ´ë ģ
ĠìĺĪ ìĦł
Ġí ĳ¸
al l
ìŀ Īëĭ¤
Ġì§ Ħë
Ġê±° ìĿĺ
a e
iv e
ìķ ¡
ĠìĬ¹ ê°ķ
Ġëĳ ĺ
íĨ ¤
ĠìĹ° ìĨį
ĠìºĲ ëĤĺëĭ¤
æ ĸ
ìĬ¤ ë¡ľ
ìĦł ê±°
íķĺ ëł¤
Ġê³µ ìĹ°
ìĿ´ ê°Ģ
ì¼ ĵ
ìĿ´ ìĿĺ
Ġì§ģ ìłĳ
Ġì¤ĳ íĻĶ
° Ģ
Ġëħ¸ ëıĻ
ĠìķĬ ìĿĢ
ì§Ģ ë°©
ë¥´ë ©´
Ġìŀ Ħëªħ
ìĿĮ ìĿĦ
Ġëī´ ìļķ
Ġìµľ ëĮĢ
¬ ìĺģ
ĠëĤ¨ ìķĦ
æ ĺ
ĠìĦł ìłķ
ĠëĤĺ ìĺ¤
ĠíĬ¹ ì§ķ
ì± Ħ
Ġë² Ħë
Ġê±´ ìĦ¤
ìĬ¤ ìĻĢ
ĠìĻĦ ìłĦ
ĠìĹŃ ëĮĢ
ìĽĲ ìĿ´
it h
ì ĩ¼
ê³ ³
Ġ or
İ ĭ
ĠìĹ° ëıĦ
Ġë³¸ ìĦł
´ ë¦¬
u b
ĠëĲĺ ëĬĶ
ĠëĤ Ļ
Ġìĥģ íĻ©
ìľ¼ë¡ľ ë¶ĢíĦ°
Ġë Ľ°
Ġíĥ Ĳ
ëĤ ´ë
ĠìĹ° ê¸°
Ġêµ° ìĤ¬
ŀ ľ
ĠíĨµ íķ©
ìłĦ ìĹĲ
Ġa m
Ġëª¨ ëį¸
Ġìľ Į
ìłķ ë¶Ģ
ĠìĿ´ ìĤ¬
Ġê¸° ëħĲ
Ġë¶Ģ ë¬¸
Ġê ¼
Ġì± Ħë
Ġëħ ¼ë
ìŀ¥ ìĿĢ
Ġë¹Ħë ĶĶìĺ¤
Ġìĺģ êµŃìĿĺ
ë¥ Ļ
¹ ìĿĢ
ìĺĢ ëįĺ
Ġìľ Ī
ì ī
Ġìĭ¤ ìĭľ
Ġê·¸ë ŀĺ
Ġë°ĺ ëĮĢ
ìĪĺ ê°Ģ
ĠíĽĦ ìĹĲ
ĠíĽ Ī
Ġs c
ê¸° ê´Ģ
ĠëĶ°ëĿ¼ ìĦľ
ĠêµŃ ëıĦ
ì§Ģ ê³ł
Ġê¸° ë³¸
£ Į
ê°Ģ ëĬĶ
Ġìĭ ¸
Ġê¸° ê°Ħ
¬ ´ë
ëł ¬
ëĭ¬ ë¦¬ìĬ¤íĬ¸
êµ° ìĿĢ
Ġìĥ ī
Ġê³ł ëĵ±íķĻêµĲ
Ġë©Ķ ìĿ´
Ġë°© ìĭĿ
ì£ Ħ
Ġm m
ìłľ ê°Ģ
í į¼ë
íķĺ ëĿ¼
u d
ĠìķĬ ëĬĶ
ì§Ģ ìĹĲ
Ġíķĺ ê³Ħ
ì³ ¤
ìĽ ħ
ĠìłĦ ê¸°
ĠëĤĺ ëĿ¼
Ġìľ Ħë
íĶ ¼ë
ìĬ¤ íĥĦ
ĠìĦľ ìļ
ĠëĿ¼ ìļ´ëĵľ
ĠêµŃ ë¦½
t v
ĠìĿ´ë¦Ħ ìĿĦ
ĠìĹ° íķ©
ëį ´
Ġë²ł ìĿ´
ĠìĿ´ë£¨ ìĸ´
el l
ìĸ´ë ¥¼
ìĸ ¼
Ġì»´ íĵ¨
ĠìĨĮ ëł¨
Ġi i
íĬ¸ ë¦¬
êµ ´
ìĻ Ķëĭ¤
ìĹ Ĩ
ł Į
ëıĦë ĬĶ
ĠìĬ¤ íı¬ì¸ł
ëĤĺ ìĿ´
ĠìĿ´ë ¡ł
æ Ŀ
b o
Ġì¹ľ êµ¬
ĠìĦľ ë¡ľ
Ġì´ ¬ìĺģ
ìĹ ¼
ëıħ êµĲ
Ġìķ ¼ë§Ī
ĠìĪ Ļ
ĠìĬ¤íİĺ ìĿ¸
Ġí ĩ´
ìŀĲ ë¦¬
ëª¨ íĨł
Ġë³´ ìĹ¬
ĠëĬ Ĳ
Ġìĺģíĸ¥ ìĿĦ
Ġê³µ ê°Ħ
ìĹĪ ìľ¼ë©°
Ġì§Ģ ëıĦ
¨ ë¦¬
Ġê° ĳ
ìłľ ë¥¼
Ġë© ¤
íĬ ľ
å Ł
Ġìµľ ì¢ħ
íĹ Ī
łĪ ìĿ´
Ġê³Ħ ìķ½
Ġì´Ī ê¸°
Ġê¸° ê´Ģ
ìłĲ ìĿĦ
íķ´ ìķ¼
b er
Ġê³¼ ê±°
ëŁ¬ ìĬ¤
Ġë¯¼ ì¡±
ĠíĮĲ ë§¤
ê³¼ íķĻ
ì§Ģ ê°Ģ
Ģ ëĭ¤
Ġê·¸ ê²ĥ
ìĤ¬ ìĹĲ
ĠìļĶ ìĭľ
ì§Ģ ìĽĲ
ì² Ļ
Ġìŀĳ ê°Ģ
ĠêµŃíļĮìĿĺ ìĽĲ
ê² ¼
íı Ń
ìļ° ìĪĺ
ĠìłĦë ¬¸
ãģ ®
ĠëıĻ ìĭľìĹĲ
Ġíķ µ
ä ¹
ìĬ¤ íĤ¤
Ġìķ Ħë¥´
ĠëĶ° ë¥´ë©´
ĠìĤ° ìĹħ
êµ° ìĿ´
Ġìłķ ì±ħ
ŀ Ļ
í ĳ¸
ĠëıĦ ìŀħ
ìķ Į
ĠìĤ¬ ê³ł
ĠíĻľ ìķ½
Ġì·¨ ìŀĦ
Ġc o
Ġê ¶ģ
ĠíĶĦëŀĳ ìĬ¤ìĿĺ
Ġì°¨ ëŁī
Ġëªħ ìĿ´
Ġíĺ ģ
Ġëĭ´ ëĭ¹
Ġìĺ¤ ìĤ¬
ìĦ ¸ë
ëĮĢ ë¥¼
Ġëª ¸
Ġíķ Ħë
Ġíĳľ íĺĦ
íĹ ¤
íķ Ģ
Ġa s
ĠìĹŃ ìĭľ
å º
Ġëį° ìĿ´
Ġe x
ĠìĨ Ķ
Ġë§Į ëĵł
ëĭ¤ ëĬĶ
Ġì° ©
Ġê³µ íķŃ
Ġf l
o k
Ġë³´ íĨµ
ì¹ĺ ëĬĶ
Ġë§Įëĵ¤ ìĸ´
ëĵľ ë¦¬
Ġì£¼ ìĹ°
ĠìĿ¼ ìĽĲ
ĠíĻĺ ê²½
Ġb l
Ġs k
Ġíı ´ë
ĠìĽĲ ëŀĺ
Ġëį° ìĿ´íĦ°
ĠìķĮëł¤ ìł¸
ìĿ¸ ìĿĦ
íĸĪ ì§Ģë§Į
Ġê·¸ ê°Ģ
ìħ ľ
Ġìĸ´ëĸ ¤
ìĬ¤ íĭ°
Ġìĸ¸ ìĸ´
ĠìĿ´ ìłģ
ëĵľ ëĿ¼ë§Ī
ì²ł ëıĦ
ë¦¬ ì§Ģ
Ġìĭľ ìĦ¤
Ġì»´íĵ¨ íĦ°
ĠìĿĺ íķľ
ĠìłĦëĿ¼ë Ĥ¨
ëĳ ¥
Ġê³µ íĻĶêµŃ
ê° ĳ
Ġë°Ľ ìķĦ
Ġíķĺ ìĿ´
ĠìŀĪëĬĶ ëį°
ìĬ¤ íĦ´
Ġê² ¬
ĠëıħìĿ¼ ìĿĺ
ë³ ¼
Ġb e
Ġt e
ìĿ´ ìĸ´
Ġë°°ê²½ ìľ¼ë¡ľ
ëį ľ
ëĵľ ëĬĶ
ĠëĶĶ ì§Ģ
ĠìķĬ ìķĺ
Ġë°ľ ìłĦ
Ġì¡° ì§Ģ
ĠìĹ¬ ê°Ŀ
ìŀ¥ ìĿĺ
Ġæ ĸ
ìĽ¨ ìĸ´
ĠíĽĦ ì§Ģ
Ġí ľ´
ĠìļĶ êµ¬
ìĦ Ń
ìłľ ìĿĺ
Ġìłľ ëª©
ìĤ¬ ìĹħ
ì° ¸
ĠìķĦ ëĭĮ
ë¡ľ ëĬĶ
Ġì¢ħ êµĲ
Ġì Ķ
Ġë¬¸ íĹĮ
íķ Ħë
Ġìłķ ëıĦ
an t
ê³ł ìĨį
Ġê¸° ëıħêµĲ
Ġì¶ľ ìĭľ
ĠìķĦ ìĭľìķĦ
ëĭ¨ ìĿĺ
ë¯ Ģë¡ľ
¢ °
Ġê°ľ íĨµ
ĠìĦ¤ ëªħ
i o
íĹ ¨
ì² ´ë¥¼
ĠìĮ į
íģ¬ ë¡ľ
ì¹ĺ ë¥¼
ìĦľ ê´Ģ
ëłĪ ìĬ¤
ì§ ľ
å °
ìħ Ģ
ë¦¬ ê³ł
ĠìĿ´ìķ¼ ê¸°
Ġë Ł°
Ġë¹Ħë ¡¯
ac k
ë¬¼ ê´Ģ
Ġíıī ê·ł
ĠìĿ µ
Ġë¹Ħ íĮĲ
Ġíģ¬ ê²Į
¦ Ħ
Ġc l
ä »
ìĤ¬ ìĻĢ
íĺ Ħë
Ĥ ł
ĠëĨ ĵ
ĠìĿ¼ ìľ¼
íĭ ±
ìĺ¤ ì¹´
ĠìĤ¬ ìĥģ
Ġìļ¸ ìĤ°
u p
a in
ĠëĤ ®
Ġì§Ģ ëĤĺ
Ġê¸° ì¡´
ë² ¨
Ġìŀĳ ìĤ¬
ĠìķĦìĭľ ìķĪ
ĠêµĲ íĻ©
Ġë¶Ī ê°Ģ
ĠìĽ ¹
Ġê±´ë ¬¼
Ġì¢ħ ë¥ĺ
Ġë§Ĳ íķľëĭ¤
Ġìĭľ ì²Ń
ĠêµŃìłľ ê³µíķŃ
ì½ ©
ë¬ ĺ
§ ģ
Ġìĺ¤ ë¥¸
æ Ī
ë§ ¥
Ġíģ¬ ë¡ľ
íĬ¸ ìĿĺ
° °
Ġìµľ ìļ°ìĪĺ
Ġì¤ĳìļĶ íķľ
Ġë®¤ ì§ģ
Ġìłľ ìĻ¸
Ġê°Ģ ì§Ħ
ê³¼ë ¥¼
Ġê²½ìĥģ ë¶ģëıĦ
ìª½ ìľ¼ë¡ľ
ë¯¸ë ĦĲ
ìłĦ ìĹĲìĦľ
ĠìĬ¹ ë¦¬
å ¸
Ġë ¥ĺ
Ġë°© ìĺģ
Ġë§Ī ìĤ¬
¹Ħ ìķĦ
å ¾
Ġìľł ëĭĪ
å¤ §
ê¸° ìĪł
ëĮĢ íļĮ
ĠìĹ¬ ê¸°
ëĮĢ ìĥģ
Ġë°Ķ ë¡ľ
Ġb o
ĠêµŃ ëĤ´
Ġê²° ìĬ¹
Ġíķĺ ìĺĢ
² Ī
or t
íĬ ¼
ĠìĹ Ħ
Ġíĺķ ìĦ±
ĠëįĶ ë¶Ī
Ġë§Į íĻĶ
Ġ ãģ
Ġë° ´ëĵľ
íĶ Ħë¡ľ
ìĨĮ ë¥¼
Ġë¸ĮëĿ¼ ì§Ī
ĠìĹ° ë°©
i k
Ġê±° ì³Ĳ
Ġìłķì¹ĺ ìĿ¸
Ġì» ¨
ìĽĮ ëĵľ
Ġìµľì´Ī ìĿĺ
Ã ©
ĠëĵĿ ìłĲ
íı Ĳ
ĠìĻ¸êµŃ ìĿ¸
ìŀĦ ìĿĦ
¸ëĮĢ íķĻêµĲ
ĠíķĻ ëħĦ
ĠìĿ¸ ëıĦ
ĠìķĦ íĤ¤
íĺĳ íļĮ
Ġå¤ §
Ġ Ð
ë ķĮ
ef a
ĠìĪĺ íĸī
ë¦ ´
Ġìĺ¤ ëĬĺ
ëĵ Ģ
Ġíĺ ¹ìĿĢ
ì²´ ìĿĺ
ĠìĿĺ ìĽĲ
ëĭ ī
ì£¼ ëĬĶ
ĠìĤ¬ìĿ´ ìĹĲ
ĠíĿ ¥
ìŀ¥ ìĹĲ
Ġìķ ¡
Ġm ar
ĠëĲĺ ê³ł
Ġìĺ¤ ë¸Į
i b
ëŀ ľ
ĠìłĦ íĨµ
ĠìľĦ ìĹĲ
ĠíĽĦ ì¿ł
Ġìĺ ®
íĨł ë¦¬
Ġíĥ ĳ
ë¯¸ë ĶĶ
Ġp h
ĠìĿ´ ìĻĢ
íĬ¸ë Ĥ¨
ä ½
ìĿ´ ì¹ĺ
Ġêµ¬ ìĹŃ
n g
ĠíĬ¹ ìĪĺ
Ġu efa
Ġíĥľ ìĸĳ
Ġê¸° ë°ĺ
ìł Ŀ
åŃ Ĳ
ê´ ´
ì§ Ħë
ìĿ¼ë ŀľëĵľ
ê¹ Ģ
Ġì°¨ íĬ¸
Ĳ ë¦¬
ĠëĤĺ ìĿ´
æ° ı
Ġìĸ µ
íĥ ĳ
ĠìĹ´ ì°¨
ĠìĿ¼ ê¹Įì§Ģ
Ġë°© íĸ¥
or e
ì¦ ĺ
ĠìĤ¬ ë¬´
ĠíĹ ¬
ëįľ ëŀĢëĵľ
ìĿ¸ ìĿĢ
Ġë§Ī ë¥´
ì²ľ ìĭľ
è ¡
Ġìĭ¤ íĮ¨
ëĵľ ë¡ľ
Ġr o
¶ ¤
Ġëĭ¬ ë¦¬
ìĪĺ ë¡ľ
ë¯ ¼ë
Ł ³
Ġì§Ģ íľĺ
ë¶Ģ ìĹĲ
Ġë¬ ¼ë¦¬
ĠìŀĪ ìĿĦ
Ġì´Ī ëĮĢ
Ġë§Ī ìĿĦ
¡ ¤
ĠëĦ¤ ëįľëŀĢëĵľ
ĠìĦł ë°ľ
ĠìĬ¤ íħĮ
Ġs o
ë© ĺ
Ġê² ¨
ìŀ Ħë
ìĹ¬ ìŀĲ
Ġp l
Ġì§ ķ
ĠìĺĪ ìĪł
ĠìłĦ ìŀĲ
ê° Ķëĭ¤
é Ŀ
ĠìĦ¸ ìĿĺ
ìĬ¤íĬ¸ë łĪ
ëł ¸ëĭ¤
ĠëıĻ ë¬¼
ìĹ° íķ©
Ġëª ½
êµ¬ ìĹŃ
Ġëĭ¹ ìĦł
ì ¥Ĳ
Ġì²ĺìĿĮ ìľ¼ë¡ľ
ìŀ¥ ìĹĲìĦľ
ìĦ± êµ°
ìłķ íķľ
ìĬ¤ ì¼Ģ
ìĿ´ìĹĪ ëįĺ
ç İĭ
íķĺ ì§Ģë§Į
Ġìłķ ê·ľ
ĠíĮ ¬
Ġ ãĥ
íķĺëĬĶ ëį°
Ġìłģ ìļ©
Ġíļ į
Ġë¹ Ī
©Ķë¦¬ ì¹´
ĠíĿ ĳ
íĤ ¹
ãĥ ¼
Ġw ith
ĠìĦł íĥĿ
æ Ń
Ġì¹ ł
íĺ ¸ë
Ľ ¸
at e
Ġm e
ĠìĪĺ ìĽĲ
ĠìĹŃíķł ìĿĦ
§ Ĳ
ìŀ Ķ
ë ¹Į
Ġl a
ĠìŀĲ ê¸°
Ġë§Ī ìĿĮ
Ġìĸ ¼
Ġíķĺ ë©°
ìł ł
íķĺìĺĢ ìľ¼ëĤĺ
ìĬ ·
ĠìľĦ íķĺìĹ¬
ê²© ìĿĦ
ĠìĬĪ íį¼
ŀĢ ëĵľ
ìĦľ ë¥¼
ĠìĨĮ íĶĦíĬ¸
Ġê²½ê¸° ìĹĲìĦľ
íĽ Ħë
ķ ħ
ë¦Ń íĦ°
ìĿ´ ë¥¼
ìľ Ħë
Ġë¹Ħ ìĬ·
Ġê·¸ ë¦¼
g e
Ġëª ¬
ĠíĶĦë łĪ
Ġíĳľ ì¤Ģ
ì¤ĳ ìĹĲ
Ġì£¼ ìĿ¸
Ġw e
Ġì±Ħë ĦĲ
Ġìĸ´ ëĬĲ
Ġë¯¸ ìĪł
³ ´ë
å Ī
ë¦° ëĭ¤
Ġìĭľìŀĳ íĸĪëĭ¤
Ġíķĺ ë£¨
Ġë¹Ħ êµĲ
ìĺĪ ìĪł
íĬ¸ ë¥¼
íĸĪ ìľ¼ëĤĺ
i al
ëªħ ìĿĦ
ëŀ µ
Ġê²½ìĥģ ëĤ¨ëıĦ
ĠíĴ Ģ
ìłķ ë³´
ĠìĹŃ ìŀĦ
ìĿ¼ë ³¸
Ġì¦ ī
ĠìķĦ íĶĦë¦¬ì¹´
ĠëĶĶì§Ģ íĦ¸
æ ³
Ġë¶ Ħë¦¬
ĠìĹ° ê·¹
ĠëĮĢ íķĺìĹ¬
ĠìłĦëĿ¼ëĤ¨ ëıĦ
v er
Ġê¹ Į
êµ° ìĿĦ
ìĤ¬ íĤ¤
Ġë ĥ
ê´Ģ ë¦¬
Ġë³Ģ íĻĶ
ĠìŀĪëĭ¤ ê³ł
ìĸ µ
Ġê·¸ë ĮĢ
Ġê³ł ëĮĢ
ëĿ¼ë ıĦ
Ġæ ľ
ç ¾
íĨ¨ ë¦Ń
ĠìĺĪ ìłķ
Ġ us
ĠìĿ´ë ķĮ
ì§Ģ ìĹŃ
íĺ Ķëĭ¤
ìĤ° ìĭľ
ëĲ Ĳëĭ¤
ìĿ´ ê¸°ëıĦ
ìĨĮ ëħĦ
ìľ µ
å ¹
Ġë¬¸ íķĻ
ĠìºĲ ë¦ŃíĦ°
Ġìļ° ì£¼
Ġìľł ìĿ¼
ìĪĺ ëĬĶ
Ġíĸī ëıĻ
į ķ
Ġëª¨ ìĸĳ
Ġì¢ħ íķ©
Ġj o
å· ŀ
Ġë²ł íĬ¸ëĤ¨
ê° Ħë
as t
ê°Ħ ìĿĺ
Ġëĭ¨ ì²´
ëĮĢ íķľ
ĠêµĲ ì°¨ë¡ľ
Ġì¡° ìĤ¬
íĻĶ êµŃìĿĺ
ëĤĺ ëĬĶ
ì¹ ł
ë¥´ ê²Į
ìĭľ ì½Ķ
Ġ ãĤ
ë² ½
Ġë¬ ¸ë
ĠìĹ° íĺģ
Ġíı¬ ë¥´
ë Ĥ¬ëĭ¤
Ġí ľĺ
Ġå į
Ĭ ìĿĢ
ëĭĪ ìĬ¤
íķĺ ìĿ´
Ġì¢ĭ ìķĦ
íĮ Ķ
ìĦ ¬
Ġc ol
Ġs v
Ġì¢ĭ ìĿĢ
Ġå °
Ġb y
³ µ
ëĲĺ ë©´ìĦľ
¡ Ģ
r y
Ġìľ Ħë¥¼
Ġc d
Ġê°ľ ìĭľ
¯ ¸ë
Ġìŀ ĺ
ic h
ëĨ į
ê³¼ ëĬĶ
Ġì§Ģ ë°°
ĠìĪĺìĥģ ìŀĲ
Ġne w
Ġíķľ êµŃìĿĺ
ĠëħĦë ıĦ
ìĹ° ìĥģ
ìĬ¤íĬ¸ëłĪ ìĿ¼ë¦¬
ĠìĹĨ ìĿ´
ĠíĿ Ķ
ìłģ ìĿĦ
Ġl ov
Ġë° ĸ
Ð °
Ġë°Ľ ìĿĢ
ìĬ¤ íĨł
é ĩĮ
ìĽ¨ ìĿ´
Ġë ¡¯
Ġíı´ë ŀĢëĵľ
ë² ¤
ëĶĶ ìĺ¤
ĠìķĮ ëłī
Ġìĥģ ëĭ¹
ł ¸ëĭ¤
ĠìĿ¼ ìłľ
íļĮ ë¥¼
ëŀ Ļ
Ġë²Ħ ìłĦ
Ġê¸° íļį
ĠëĤ´ë ¶Ģ
ĠíĶĦë¡ľ ìłĿ
n a
Ġìŀĳ ìĹħ
Ġê²½ ìĺģ
Ġìķ ¤
Ġíĺķ ìĭĿ
ĠìķĦë §Ī
ê² łëĭ¤
ëł¥ ìĿ´
Ġí Ģ
Ġìŀ Ķ
Ġe d
ec t
ìłķ ìĿĺ
Ġë ŀ
Ġb r
ĠìĦ¼ íĦ°
ë¥¸ ëĭ¤
Ġíķ´ ìĻ¸
ĠìĿ´ë ŀĢ
Ġì¡°ìĦł ìĿĺ
ìĿĺ ë¥¼
ĠìĦ¸ ìĿ´
u e
ë¯¼ì£¼ ì£¼ìĿĺ
ĠìĬ¤ ìľĦ
Ġë³´ íĺ¸
ĠìĹ ¼
Ġê°ľ êµĲ
ìĦ± ìĿĢ
ł ¹
Ġìķ Ļ
ê°Ģ ìĿĺ
Ġ it
Ġì¶ ĺ
í ŀĮ
ë ī´
ĠëĵĿ íĳľ
Ġë§Ī ë¦¬
en s
Ġì¶Ķ ìłķ
Ġë¸Ķ ë£¨
Ġå ı
Ġíķ Ģ
Ġê°ľ ìĽĶ
íĦ° íħĮ
ìī ¬
íķĺ ê±°ëĤĺ
ìĦł ìĿĦ
un d
ìĸ´ ëĬĶ
íĭ° ëĤĺ
Ġíļį ëĵĿ
ë¶Ģ ë¥¼
ìĽĲ ìľ¼ë¡ľ
Ġë¯¼ ì£¼ëĭ¹
ĠìĬ¤ ìĽ¨
ìĭľì¼ °ëĭ¤
ĠìĿ¼ë°ĺ ìłģìľ¼ë¡ľ
Ġìĺ¤ ìĬ¤íĬ¸ëłĪìĿ¼ë¦¬
ê² Ĳ
Ġì°¨ ìłĦ
Ġë¶ģ íķľ
Ġw or
Ł ī
ĠìĿ´ê²ĥ ìĿĢ
ĠìĿ´ëģ Į
Ġì¤ĳìĭ¬ ìľ¼ë¡ľ
Ġê°Ģ ê¹Į
Ġë²ķ ë¥ł
ĠìŀĲìĭł ìĿ´
ìłķ ìĹĲ
Ġw h
ìĿ¸ë ¨¼
ìķ ¤
ìĽĲ ìĿĢ
ĠìķĦë Ĥĺ
Ġê·ľ ëª¨
Ġê°Ģ íĨ¨ë¦Ń
Ġì² «
ĠíĽĦë °ĺ
Ġê°ķìĽĲ ëıĦ
Ġì¼Ģ ìĿ´
Ġìłľ ì£¼
ĠìĹĲ ìĿ´
ìĿ¸ë¯¼ê³µ íĻĶêµŃ
ĠëŁ° ëįĺ
Ġê ½ĥ
Ġk g
u c
Ġëĵ± ìĹĲ
ëĲĺ ë©°
íİ ľ
ĠìĹĲ ëĦĪ
í Ĥ¬
Ġa f
ìº Ĳ
° ľ
ĠìĶ ¨
ĠìĿ¸íĦ° ëĦ·
ĠìĻ Ħë
ë° į
Ġê·¸ ë¥¼
or y
¦ ½
ĠìĦ¸ë ł¥
ĠìŀĲëıĻ ì°¨
äº º
Ġìĸ¸ë ¡ł
íļĮ ìĤ¬
Ġì§Ģ ì§Ģ
ëĮĢ ìĿĺ
ĠìŀĪ ì§Ģë§Į
ê³µ ìĤ¬
åŁ İ
ĠìŀĪëĭ¤ ëĬĶ
Ġê°ķ íĻĶ
Ġìŀ¥ ê´Ģ
ìĭľ ìŀ¥
Ġë°Ľ ê³ł
í Ģ
Ġì¶ľ íĮĲ
íĦ°íħĮ ìĿ¸ë¨¼
ĠëĦ ĵ
ìĤ¬ ìĿ´íĬ¸
ìĿĢ íĸī
id e
Ġìĺ¤ ìĬ¤íĬ¸
ĠíķľêµŃ ìĸ´
ĠíĺĦìŀ¬ ìĿĺ
Ġì¦Ŀ ê°Ģ
Ġìº ł
p h
ìĽĮ íģ¬
Ġì§Ģ ìĥģ
ĠìľĪ ëıĦ
ê± ¸
¸ £
ĠíĹĮ ë²ķ
ĠëıĻ ìĿ¼
ĠíĶĦë¡ľ ëĵĢ
íķ ĳ
Ġë¡¯ ëį°
ĠìĨĮ ìľł
íķ´ ìĿĺ
ìĤ° ìĹħ
ìŀ ī
ħ Ħ
ĠìĬ¹ ê²©
Ġê°ľ ëħĲ
Ġìľł ë¡ľ
Ġa c
íĻ Ģ
Ġì ĩ
Ġìŀ ĥ
Ġê ¿
íĺ Ī
Ġê³µ ìĤ°
Ġì¡° ìķ½
ìĸ´ ê°Ģ
Ġì¹ Ń
¸ Ĳ
Ġê°ľ ìĹħ
ĠìĦľ ë¹ĦìĬ¤
ĠìĬ¤ìĽ¨ ëį´
ĠìľĮ ë¦¬
ĠìĭĿ ë¬¼
Ġm y
ìļ° ìĬ¹
ìĸ´ë Ĥĺ
ĠìĿ´ìĥģ ìĿĺ
ìĿ´ ì§Ģë§Į
Ħë §Ī
l d
Ġì§Ģíķĺ ì²ł
ë¬ ¼ë
ĠìĬ¹ê°ķ ìŀ¥
ì²ľ êµ°
Ġê³ł ìĨį
ac e
ì² ´ë¡ľ
ë Ģ
ç ¥
ĠíĿ Ĳ
êµĲ íļĮ
Ġìĺ¬ ëĿ¼
Ġìłķ ìĭł
Ġa p
Ġë®¤ ì§Ģ
ì²´ ê°Ģ
êµŃ ë¯¼
t e
ì¡° ìĿĺ
Ġg o
Ġf e
Ġê´Ģ íķł
ĠìĦ¸ ì¢ħ
Ġë¹ ħ
ĠìĿ´ë Ł°
² ¨
Ġê¸ ´
Ġë¯¸ë ŀĺ
ìĦ ¯
Ġë°Ľ ìķĺ
íĬ¸ë Ŀ¼
Ġë¹Ħ íĸī
ĠëıĦ ìĽĢ
ĠëĦ £
Ġíķĺ ëĭ¤
Ġê³ł ìĸĳ
ëĿ¼ ìĿĺ
Ġê·¸ ë¦°
Ĳĺ ìĸ´
ķ ìĭľì½Ķ
ĠíĨµ ìĤ°
ĠëķĮë¬¸ ìĿ´ëĭ¤
ĠìŀĲ ë¦¬
ĠêµĲ íļĮ
Ġì¤ĳ êµŃìĿĺ
ìĥģ ìĿ´
Ġë³´ ìĿ¸ëĭ¤
Ġê¹Ģ ìĺģ
ê³Ħ ìĿĺ
Ġë³´ë Ĥ´
ĠíĻį ì½©
Ġíķ Ħë¦¬
ëĵ¤ ìĹĲ
Ġl g
ĠìŀĪìĸ´ ìĦľ
Ġë³ ¼
Ġìļ° ìĪĺ
en d
²Ħ ìĬ¤
as s
Ġìµľì´Ī ë¡ľ
¯¼ ì£¼ëĭ¹
Ġê°ľ ë´ī
ĠìĹ° ì£¼
i es
ĠìĨĮ ê°ľ
Ġë¿ Ĳ
ĠíĪ¬ ìĪĺ
Ġë°Ķ ëĢ
ĠíķĻ ëł¥
ë¶Ģ ë¬¸
Ġëĸ¨ ìĸ´
Ġìĺ¤ íĽĦ
Ġì§Ģ ëªħ
us t
ĠìĹĲ íĶ¼
ì²´ ìľ¡
ĠìĻ ¼
ĠìĦłìĪĺ ê¶Į
ĠëĲĺ ìĹĪê³ł
Ġa d
ìĬ¤ íħĮ
Ġíķĺ ì§Ģ
é ķ
ĺ ë¦¬
Ġë¯¸ ëĭĪ
ĠìĻ ¸ë
ĠíļĮ ìĤ¬
ĠìĬ¤ ì½Ķ
Ġë¹ Ľ
ìĨ Ķ
ëĭ¹ ìĿĺ
or d
íķĻ ìłģ
íķĻ ìĥĿ
íĺ ¹
ŀ µ
ìĬ¤ ì¹´
Ġíĺģ ëªħ
ĠìĽ Ģ
ĠíĴ Ī
ì³¤ ëĭ¤
æ µ
ìĭľì¼ ľ
íĺ¸ ë¥¼
Ġìĺ¤ìĤ¬ ì¹´
Ġë¹Ħë °Ģ
ĠìķĦ ìĿ¼ëŀľëĵľ
ìĤ¬ ìĿ´
Ġë°ĺ ìĿĳ
ĠìķĦ ì¹´ë
ĠìĿ¼ìĸ´ë Ĥĺ
ìŀĦ ìĬ¤
Ġì¶ľ ìĥĿ
ìĹ ½
Ġëªħ ëł¹
ĠìĨĮíĶĦíĬ¸ ìĽ¨ìĸ´
ĠìĤ¬ ëĿ¼
ar y
ag e
i z
êµĲ íĨµ
ìĭľ íĤ¨
Ġìľ¡ ìĥģ
łĩ ê²Į
ë¦¬ ìĻĢ
ìĽ ĥ
¯ Ģë¡ľ
ìĤ¬ íļĮ
Ġëį ´ë
ĠëĳĲ ê³ł
ê¸° ìĻĢ
ìª½ ìĹĲ
ĠìĹĺ ë¦¬
Ġìµľ ê·¼
ë¬¸ ìĿĦ
ëĭ¨ ìĿĦ
Ġìĺ¤ ë¦¬
Ġëī´ ìĬ¤
Ġíİ¸ ê³¡
i x
Ġê°Ģ ë¦¬
ĠìĿ´ ìĬ¤
ìŀĲ ë£Į
Ġì¤Ģ ìļ°ìĬ¹
Ġìĺ¤ìĬ¤íĬ¸ ë¦¬ìķĦ
Ġëħ¼ë ŀĢ
Ġëĵ± ìľ¼ë¡ľ
Ġë©Ķ ëĭ¬ë¦¬ìĬ¤íĬ¸
ìĶ ©
ĠìĿ´ë¦Ħ ìĿĢ
Ġì° ¬
± ħ
åŃ ¸
ë¬¼ ìĿĦ
Ġìľł íĺķ
íĭ° ëĵľ
íĶ Ī
Ġëªħ ìĺĪ
Ġë Į
ë²ķ ìĽĲ
ĠëĮĢ ì¤ĳ
ì¹ĺ ê°Ģ
ĠíĻľëıĻ ìĿĦ
ãĥ ³
ëħ ķ
Ġìĭ Ń
m an
ĠìĿ´ ìĬ¹
íķ ´ë¥¼
ĠíĻķ ìŀ¥
Ġë¯¸êµŃ ìĿ¸
ĠìĦł ìĿĺ
ĠìĹ¬ íĸī
ê± ´ë
Ġg r
Ġlov e
Ġê·¸ëħĢ ëĬĶ
Ġë¶Ģ ìĹ¬
ìķĦë ĵ¤
Ġë²Ħ ìĬ¤
Ġfc ìĿĺ
ĠíĪ¬ íĳľ
ê°Ģ ì§Ģ
ĠìĹĶ ì§Ħ
Ġë°Ķ íĥķ
ëĤĺ ë¬´
ĠìłĦëĿ¼ë ¶ģ
Ġì½Ķ ë¯¸ëĶĶ
Ġì¡°ìĦł ë¯¼ì£¼ì£¼ìĿĺ
ê²¼ ëĭ¤
ë¦ ¿
Ġì¸ µ
ìĭ¬ ìĿĦ
Ġê°ľ êµŃ
íĦ°íħĮìĿ¸ë¨¼ íĬ¸
Ġìłľ íĴĪ
ìĦ± ê³¼
ìļ° ì£¼
Ġëĭ¤ ì¹´
ĠìķĦ ìĤ¬
Ġë¶Ī êµĲ
ĠëĤ´ë ł¤
Ġíİ ľ
ëĿ¼ ìĬ¤
Ġì¶©ì²Ń ëĤ¨ëıĦ
Ġë© Ģ
Ġsv g
Ġê±¸ ì³Ĳ
ë¥´ ê³ł
Ð ¾
ì£¼ë ¥¼
Ġo p
ë ¢°
ìŀĲ ì¹ĺ
ê ¼
ĠìĹ° ìŀ¥
ł µ
Ġìĭ¤ íĹĺ
Ġh t
Ġë§ ¨
ìĸ´ ìĿĺ
ĠìĹ¬ ë¦Ħ
íĴ Ģ
Ġn o
ìĤ ´ë
Ħë¥ ´ë
éģ ĵ
Ġì¢ħ ëª©
ĠëĤ´ ê°ģ
ë¥ ¼ë
Ġì°¾ ìķĦ
ĠìĹĨ ìĹĪëĭ¤
ë¬¸íĻĶ ìŀ¬
Ġfr om
ĠìĦł ì¶ľ
ĠëħĦ ìĿĺ
ĠìĦ¸ë ĮĢ
Ġë¶Ģ ì¡±
ìĨĮ ëĵľ
ĠíĮĮ ë¦¬
Ġê±´ì¶ķ ë¬¼
ë²Ħ íĬ¸
ĠëĮĢë¶Ģë¶Ħ ìĿĺ
ê¾ ¸
an s
Ġë¸Ķ ëŀĻ
ĠêµŃ íļĮ
Ġp art
Ġë¶Ħ ìĦĿ
Ġë¡ľ ìĬ¤
ĠìŀĲ ì¹ĺ
ë°Ķ ìĿ´
íĸĪëĭ¤ ê³ł
Ġê³ Ħë
Ġìłľ íķľ
Ġì¡° ê±´
ìĤ¬ ìĿ¼
Ġê²Į ìĿ´
ëĲ ¨
ĠìļĶ ë¦¬
ĠëĨ Ģ
ìĨĮ ê°Ģ
ĠíĻ© ìłľ
Ð ¸
ëĮĢ ëĬĶ
Ġëª© íĳľ
ìĦ± ìĹĲ
Ġìĺģ ìĹħ
ìĿ´ ìĸ¸
Ġç Ķ
Ġì¢ħ ë£Į
Ġë°Ķ ëĭ¤
Ġìĸ´ë ł¤
ĠìľĮë¦¬ ìĹĦ
ìłķ ìĿ´
ë©Ķ ëĭ¬
Ġë¶Ħ ìķ¼
Ġê¹Ģ ìłķ
ĠíĥĢìĿ´ íĭĢ
Ġì§Ģ ëĥ
a f
íķľ êµŃ
Ġíı¬ë¥´ íĪ¬
ç ¸£
ĠìĤ ¼ë
Ġë©¤ ë²Ħ
ì¢ħ ìĿĺ
ı Ħë
Ġíĺ Ī
ìĭľíĤ¤ ëĬĶ
Ġìłľ ì¡°
Ġë¬¸íĻĶ ìŀ¬
Ġíĺ ¸ë¡ľ
Ġy ou
Ġíķ´ êµ°
ĠìĿ´ë ĵ
u g
ĠìĹ ĳ
Ġíıī íĻĶ
Ġk ë¦¬ê·¸
ĠëĤ¨ ë¶Ģ
Ġì¹ ¸
ë ī
Ġíķ© ê³Ħ
Ġìŀħ íķĻ
ĠëĦ¤ ìĿ´
ĠìĤ¬ ëĭ¨
é Ľ
« ĺ
ĠìĬ¤ íĬľ
ì¼ ľ
Ġv s
ìľĦ ìĹĲ
Ġìľł ìĤ¬
it e
Ġìĭł ìĦ¤
Ġë ¨¼
ĠëıĻ ìĥĿ
Ġëĭ¬ ëŁ¬
ĠìŀĦ ìĭľ
ĠëĤĺ ìĺ¨
íĺ¸ ëĬĶ
Ġå ¾
Ġë© ķìĭľì½Ķ
Ġìķ ¼ë
Ġë¯ ¿
íĬ¸ ëĬĶ
ĠìĺĪ ë¥¼
ëª °
ĠìļĶ ì½Ķ
ê³ Ħë¡ľ
Ġìŀ Ħë
ìĬ¤ ìĹĲ
ë¹ Ļ
ŀ Ĳ
Ġëª¨ìĬµ ìĿĦ
Ġëı Ī
Ġìĭľ ë¯¼
ĠìĿ´ë ¥´
n e
ĠëįĶ ìļ±
ëĮĢ ê°Ģ
ur e
ĠìĿ¼ ìĿĦ
Ġê³Ħ ìĹ´
Ġë ´
ìĺ ¹
ìķĦë ĬĶ
ic e
ìłģ ìĿ´
ĠìĦ¸ íı¬
ĠíĻĪ ëŁ°
ĠêµĲ ìŀ¥
ĠëĮĢ ìĤ¬ê´Ģ
íĬ¸ ìĽĮíģ¬
ĠìŀĪ ê²Į
ĠìĿ´ìľł ë¡ľ
ĠìĪĺ ìļ©
ë¶Ģ ë¥´íģ¬
ĠìłĦ ìĹĲ
Ġë ķħ
į ĺ
Ġë§ º
ĠëĶĶ ìŀĲìĿ¸
ĠíĶ ½
Ġë²ł ìĿ´ìĬ¤
Ġìĭľ íĭ°
ì» ¨
åľ ĭ
Ġí ľ
ìĨĮ ë¦¬
ìĸ´ ìĦľ
ĠëĬ ĺ
Ġê¹ ¨
ĠëĲĺ ìĹĪ
ë¡ Ń
ĠìĨĮ ë¹Ħ
ĠìĤ ´ë
Ġs m
Ġê¸° ìŀĲ
íķĺ ë§Ī
Ġêµ¬ ëĭ¨
Ġìĭ ¶
ë¬´ë Ŀ¼
ëĭ µ
ìĦł ìĿĺ
Ġë¯¸ë Ĥĺ
ìĽ łëĭ¤
Ġíģ´ë ŀĺ
ĠìĦł ìĸ¸
i i
Ġë°© ë¬¸
Ġìľł ëŀĺ
Ġìĭł ìĿ¸
ĠìĿ¸ ìłĳ
Ġë²ł ìĬ¤íĬ¸
ĠìĿ´ë ĵ¤
ëŀ «
íĺĦ ìĿĺ
Ġíĥľìĸ´ë Ĥ¬ëĭ¤
ìĭľ ìĺ¤
Ġë°Ķ ëŀĮ
ĠìĹĲíĶ¼ ìĨĮëĵľ
ìłģ ìĿĢ
ĠíķĺëĤĺ ìĿĺ
Ġê·¹ ìŀ¥
ĠìķĦ ì§ģ
ĠíĮĮ ìĿ´
Ġíĳľ ìĭľ
ĠìķĮ ê³ł
Ġê²½ ëĤ¨
Ġì¶ľ ìŀ¥
ìĨĮ ìĿĺ
ìķĦë ħ¸
íĤ¤ ëĬĶ
Ġì£¼ìĿ¸ ê³µ
Ġë³´ ìľł
Ġê¸° ì´Ī
æ Ļ
ìłĦ ìŀĲ
Ġë³´ ëĭ¤
íķľëĭ¤ ëĬĶ
ìľ Ī
Ġm us
ìĨĮ ìĨį
ë§ Īëĭ¤
Ġm a
ĠìłĲ ëł¹
ĠìĤ¬ìļ© íķĺëĬĶ
¶ Ħ
Ġê¸ Ģë¡ľ
ìĿĺ íļĮ
on d
Ġê´Ģ ê´ĳ
Ġì¹ ¼ë
ĠìĿ´ë¦Ħ ìľ¼ë¡ľ
ĠìľĦ íĹĺ
ì§Ģ ì§Ģ
Ġê ¾
ë¶Ģ ëĬĶ
is h
ĠìĽĢ ì§ģ
ëģ ¼
Ġ äº
Ġìĸ¸ ê¸ī
ë³ ´ë¥¼
ĠìĿ¼ ìĹĲëĬĶ
ë· °
ë¬ ´ë¥¼
Ġê°Ģ ë¬¸
ìĿ¸ ìľ¼ë¡ľ
ĠëĮĢ ìĪĺ
Ġê·¸ë Ł°
Ġëĵľ ëŀĺ
Ġë² ¤
ĠíļĮ ìŀ¥
ê·¸ë £¹
éĿ ¢
£ ¬
Ġm c
Ġê¸°ì¤Ģ ìľ¼ë¡ľ
íģ¬ ìĿĺ
Ġë²Ī ìĹŃ
ìĽĲ ìĹĲ
Ġp ar
ĠëĤĺíĥĢ ëĤ
Ġì§Ģ ë¦¬
ìĩ Ħ
ì¹ĺ ê³ł
íģ ¼
ĠíĶ¼ íķ´
Ġë§Į ëĤĺ
Ġìĺ¬ ëŀ
ìļ° ë¦¬
ëıĦ ìĭľ
Ġê±°ì£¼ íķľ
ĠíĹ Ŀ
íķĺ ëıĦë¡Ŀ
Ġë®¤ì§Ģ ì»¬
ë²ł ìĿ´
Ġíİ¸ ìŀħ
ĠíĺĦìŀ¬ ëĬĶ
Ġì§Ģ ìĨį
Ġìĭľ íĸī
Ġíķľ ëĤĺëĿ¼
Ġìŀīê¸Ģëŀľëĵľ ìĿĺ
Ġê²° ìĦ±
êµ¬ ë¥¼
Ġë© ľ
iv ers
ê ½ĥ
ëªħ ìĿĺ
Ġëª ĩ
Ġë¶Ī êµ¬
ìĦ¸ ìĿ´
ëª¨ ë¦¬
ĠìĦ± ìŀ¥
Ġê³µ ìŀĳ
íķĺ ìĿĺ
Ġë Ŀ
ĠìĤ¬ëŀĮ ìĿ´
ĠìĺģíĻĶ ìĿ´ëĭ¤
ìĻ Ķ
ĠìŀĪìĹĪ ëįĺ
ĠìĪ ¨
íķ¨ ìľ¼ë¡ľìį¨
Ġìľł ëĤĺìĿ´
ĠìĦ± ê²©
un g
ĠëĶ ¸
ĠëĿ¼ìĿ´ ë¸Į
Ġìŀħ ëĭ¨
ĠíĨµ ê³¼
ĠìĿ ½
íĮĮ íĬ¸
ĠìķĦ ì¹¨
m ent
Ġê³ ¤
íĸĪ ëĬĶëį°
ĠìķĦë ¦¬
Ġì§Ģìłķ ëĲĺìĹĪëĭ¤
ĠìĿ´ íķ´
ĠìĻ¸ êµĲ
ĠìĽ¹ ìĤ¬ìĿ´íĬ¸
ìŀĲ ëĵ¤ìĿĢ
on e
ĠìĿĮ ëł¥
ì½ ¤
æ ķ
Ġë°ķ ìĤ¬
Ġìĺ¤ë¥¸ ìª½
ëĭ¤ ê³ł
Ġë°Ŀ íĺĶëĭ¤
ìļĶ ìĭľ
ĠìĬ µ
į° ë¯¸
Ġìłķ íĻķ
ìłľ ëĬĶ
ë¦ ´ë
Ġëĵľ ëŁ¬
ĠìķĦë Ĥ´
ëĿ¼ ìĿ´ëĤĺ
Ġë¬´ë ĮĢ
Ġì´Ī ëĵ±íķĻêµĲ
í ľ´
ì£ ¼ë¡ľ
ìľ¼ë ¯Ģë¡ľ
Ġì¹ĺ ë£Į
è Ī
ĠìĿĺ ìĤ¬
ë²ł ë¥´
ĠìŀĲ ì£¼
ìĿ¼ë ³´
ì½Ķ ëĵľ
ĠìĦ¤ë¦½ ëĲľ
Ġê²¨ ìļ¸
Ġê²½ ìŁģ
ĠìķĪ ìłĦ
ìĬµ ëĭĪëĭ¤
Ġì§ĳ íķ©
é ĩ
Ġì¹´ë ĵľ
Ġê ¶¤
ë¹Ħ ìķĦ
ĠíĻ Ģ
Ġë¶Ģ ìĿ¸
ĠìĦ± ë¦½
ĠìĦľìļ ¸ëĮĢíķĻêµĲ
Ġìłľ ëıĦ
ë ´
ĠíĨµ ìĿ¼
Ī Ħ
° ķ
ĠìĿ´íĥĪë¦¬ìķĦ ìĿĺ
íķĻ ìĿĦ
Ġìłľ êµŃìĿĺ
ĠìĻ ľ
Ġê·¸ë ĵ¤ìĿĺ
ê³µ ìĽĲ
Ġì» ¬
¯ ¼ë
p s
Ġì£¼ ìĿĺ
İ ìĿĢ
ëĿ¼ ìĿ¸
ëĭĪ ìĸ´
Ġê²½ê¸° ìŀ¥
ìĿ¼ë Ł¬
i le
ê°ľ ë°ľ
æĸ ĩ
ĠìĿ´ë ¡ľ
ë ľ
Ġë¬¼ ì§Ī
Ġëģ Į
¶ Ī
Ġíİ¸ ì§ĳ
æ´ ŀ
é ĸ
Ġìłľ ìŀĦìĬ¤
ì§ ĵ
l y
å ¿
ĠìĿ´ë ©°
ĠìĪ ł
åħ ¬
Ġë°° ì¹ĺ
Ġë°ľ íĸī
Ġìŀ¥ ìĨĮ
ê¸Ī ìĿĦ
Ġìłķ ìĭĿ
Ġì°¨ ë¡Ģ
ê²½ ê¸°
êµ° ìĹĲ
ic al
Ġìĺ¤ëĬĺ ëĤł
» į
ìĿ¸ íĬ¸
Ġå Ĳ
íĮĮ ìĿ¼
Ġë° ¤
ĠìłĦ ì£¼
ĠìĤ¬ìĿ´ ìĿĺ
ĠëħĦ ê°Ħ
Ġíĥľ íıī
Ġë¶ĢìĤ° ê´ĳìĹŃìĭľ
t s
Ġf m
Ġin ter
ĠíļĮ ìĽĲ
Ġê²ĥ ìĿ´ëĿ¼ê³ł
ĠìĿ´ë ĵ¤ìĿĢ
ĠìĻķ êµŃ
íķĻ ìĿĺ
ë³ ¸ë¶Ģ
íķ µ
ëı Ī
ĠìľłëĤĺìĿ´ íĭ°ëĵľ
ëĭ¤ ìļ´
ìĤ° ë©´
Ġi m
ë¡ľ ìĿĺ
Ġê´ĳ ê³ł
å· Ŀ
Ł ¼
Ġê¸° ìĤ¬
Ġì¡° ìĦ±
êµ¬ ìĹĲ
ĠìĿ´ ìĭľ
Ġë³Ģ íĺ¸
ì¿ł ëĿ¼
Ñ ģ
ê²½ ìłľ
Ġíı¬ íķŃ
Ġm an
Ġìĭľ ê¸°
ëıĻ ìķĪ
Ġê²½ íĹĺ
Ġì ¤
Ġìľł ë¦¬
íĸĪ ìĿĦ
Ġê³ ¼ë
ĠêµŃ ë°©
ĠìĹĲ ëĵľ
ĠíĮ¨ ë°°
Ġë§Ĳ íĸĪëĭ¤
ĠìłĦëĿ¼ë¶ģ ëıĦ
ìĿ¸ë ĵ¤
ê³Ħ ìĹĲ
Ð µ
Ġíķ´ ìĦĿ
ìĭľ íĭ°
Ġëħ¸ë ł¥
ç Ľ
Ġ qu
Ġê·¸ë łĪ
é Ģ
ìŀĲ ëĵ¤ìĿ´
ìĹĨ ìĿ´
ì ¤
Ġf a
Ġíı¬íķ¨ íķľ
Ġê²° íķ©
ê° Ļ
Ġìħ °
ê´Ģ ìĿĢ
Ĩ į
Ġw w
å¯ º
Ġê°ĸ ê³ł
Ġíĺ ľ
Ġä ¹
Ġìĭľ íĹĺ
ĠìĬ¤ íĭ°
ĠìĿ¸ë ĶĶ
ì§Ģ ìħĺ
Ġì¤ĳ ìĹĲ
ìĿ¸ë į°
Ġìłľ ìĭľ
Ġê²ĥ ìĹĲ
ĠìľĪëıĦ ìļ°
Ġìľł ëĮĢ
³ Ħ
ì²ł ëıĦìĿĺ
ë¹ Ħë¥¼
í Ī
ĠìĿ´ ê³³
ĠìĬ¤ ìĬ¤ë¡ľ
Ġìĺģ ìĹŃ
Ġìłķ ëıĦë¡ľ
ì ´ī
Ġê²½ ë¶ģ
ì¶ľ ìĹ°
ĠëıĻ ë¶Ģ
in d
Ġë¶Ģ íĦ°
Ġê°ķ ëł¥
Ġs y
Ġëª¨ ë¦¬
Ġë¯ ¼ë
ĠìĽĲ ìŀĳ
Ġë°ĶëĢ Į
ĠìļĶ ì²Ń
ĠìĪĺ ìĺģ
ĠìĨĮ ëħĢ
Ġê°Ģ ìłķ
ĠìĽĶ ë¶ĢíĦ°
Ġëĵ Ģ
íĨµ ìĭł
Ġì§ĢìĹŃ ìĿĺ
ĠíļĮ ìĿĺ
¾ į
Ġíı¬ë¥´íĪ¬ ê°Ī
ĠíĶĦë¡ľëĵĢ ìĦľ
ìĭĿ ìĿ´
Ġê¿ Ī
ĠëĤĺ ëĬĶ
ìĥģ ìĹĲ
Ġìº ĺë¦¬
Ġê°ľ ì¹Ń
§ ¤
Ġë¶Īêµ¬ íķĺê³ł
Ġë¹Ħ íķ´
íĻĶ ê°Ģ
ê¸° ìĹħ
íĶ¼ ìķĦ
ê³łìĨį ëıĦë¡ľ
Ġëĵ± ë¡Ŀ
ĠìĹĲ ìĬ¤
ĠìĦł ìĥĿ
ëª ½
ĠìĦ¸ ìĽĮ
Ġë¨ ¸ë
ĠëĤ¨ ìª½
Ġì°¸ ì¡°
ì ¤Ħ
Ġì´Ŀ ìĦł
ĠìĤ¬ìĿ´ íĬ¸
ĠìľĦ ìĿĺ
Ġë§Ī ë²ķ
ĠíĽĪ ëł¨
ation al
ë©´ ìĹĲ
Ġë³µ ê·Ģ
ĠëĤĺ ë¨¸
Ġë¶Ī ë¦¬
Ġêµ° ìĿ¸
er t
Ġëĭ¬ ìĦ±
Ġìłľ ìķĪ
Ġë§Ī ìĵ°
ĠìĪĺ ì¤Ģ
Ġë¯¸ ìĥģ
is s
Ġì¡° ê°ģ
Ġì¸ ł
o ur
ì¤ĳ ìķĻ
ì§ ¸ë¡ľ
ìłķ ì±ħ
ë ®¤
ìĿ¸ë ¬¼
Ġç Ļ
Ġê° ¤
Ġëªħ ìĿĦ
Ġìŀ¬ íĮĲ
Ġê°Ģ ë¥´
ê²½ ì°°
å Į
Ġæ Ī
ç ¤
ĠíĨµ ìĭł
Ġìĺģ íĨł
Ġìµľê³ł ìĿĺ
Ġa g
ìĿ¸ ê°Ģ
ìĹĪ ëįĺ
Ġì² Ļ
ìĿ¸ ì§Ģ
ë¡ ¤
ĠíĬ¹ ìłķ
ëĵ¤ ëª©
Ñ Ģ
Ġê² ¸
ĠíĶĦë¡ľìłĿ íĬ¸
íı¬ ë¥´
ĠíĹĿ ê°Ģ
ĠíĿ ¡
Ġìĭ¤ ìłľë¡ľ
ac h
ĠíĦ° íĤ¤
Ġì§Ģ ëĤľ
Ġì²ĺ ë¦¬
ĠíķĺëĤĺ ìĿ´ëĭ¤
ĠíĶĦë¦¬ ë¯¸
Ġë§¡ ìķĺëĭ¤
Ġìī ½
ĠìĹ° ì¶ľ
ĠìłĦ ìĦ¤
ĠëĤĺ ëĵ¤ëª©
ĠíĬ¸ ë¦¬
ĠìĿĺ íķĺìĹ¬
Ġì¤ĳ ëĭ¨
ĠìĹĲìĦľ ëĬĶ
Ġìľłëªħ íķľ
ìķĦ ìĭľìķĦ
ĠìĻĦìłĦ íŀĪ
Ġë¶ģ ìª½
íıī ê°Ģ
Ġì ´ī
ĠìĹĨ ìĿĮ
Ġë°Ŀ íĺĢ
Ġìĺ¤ ëŀĺ
Ġë§Ī ì°¬
Ġì¡´ìŀ¬ íķľëĭ¤
Ġë¶Ģ ìłķ
Ġê°ĢëĬ¥ íķĺëĭ¤
å® Ĺ
å ¥
ëĭ¤ ìĿ´
ĠëĦ¤ íĬ¸ìĽĮíģ¬
ĠìĨĮìŀ¬ ë¡ľ
ct ion
ĠìĿĢ íĩ´
Ł Ń
Ġêµ¬ ë¶Ħ
Ġíİ ¼
Ġë§İ ëĭ¤
å İ
Ġê°ľ íĺģ
íı¬ ëĭĪìķĦ
Ġë³´ ìĪĺ
Ġìŀ¥ ìķł
Ġì°½ ìĽĲ
ê°Ħ ëĭ¤
ìĤ¬ ë¬´
Ġë¯¸ë ĶĶ
Ġìĥ Į
Ġíķĺ ëĬĺ
ĠìĦ¸ ê°Ģ
ĠìķĮëł¤ ì§Ħ
ĠëķĮ ê¹Įì§Ģ
Ġs ing
ìļ° ëĵľ
íı ´
oc k
ĠíĥĪ ëĿ½
ì²´ ëĬĶ
ê³ ĦëĬĶ
h z
ìĿĺ ìĽĲ
ĠëĤ¨ íİ¸
ìħĶ ëĦĲ
ĠìķĦì¹´ë į°ë¯¸
ĠëĽ° ìĸ´ë
Ġc r
è ¨
ì§Ģ ëıĦ
ë ¿
ìĸ´ë ¯¼ì£¼ëĭ¹
Ġê°ģ ë³¸
¬ ¼ë
ìĦł ìĪĺ
Ġíķ´ ê²°
ìĦľ íĬ¸
Ġíĺķ ìĤ¬
ĠìķĦë ¦Ħ
Ġë°ľ ëĭ¬
ĠìĿ´ë ¥
ìĤ° ìĿĦ
ĠëĤ¨ ìĦ±
ĠëĶ° ë¥¸
ĠìĿ´ëĵ ¬
ĠìĭĿ ë¯¼
ĠëŁ¬ìĭľìķĦ ìĿĺ
ìĦľ ìĿĺ
ĠìķĮëłī ìĤ°
íĺķ ìĿĦ
ĠìĽĶ ìĹĲëĬĶ
Ġëĭ¤ ëĭĪ
Ġì½Ķ ëĵľ
ĠìĬ¤íİĺ ìħľ
ĠëįĶë¶Ī ìĸ´ë¯¼ì£¼ëĭ¹
en ce
Ġì¹´ ìĿ´
Ġë¬´ ìĨĮìĨį
Ġê¼ ¬
ìķ Ħë¥¼
ìłĲ ìĿ´
ĠìĿ´ ìĻ¸
ìĥģ ìľ¼ë¡ľ
Ġíı¬ ì§Ģìħĺ
ĠíĻķ ìĿ¸
ë©Ķ ìĿ´
Ġëĵ± ê³¼
ê°Ĳ ìĿĦ
Ġë¨¼ ìłĢ
ĠëĭĪ ìĭľ
Ġì²´ ê²°
Ġê±° ëĳĲ
ë¬´ ìĽĲ
ĠìĹĶ íĦ°íħĮìĿ¸ë¨¼íĬ¸
ìĤ¬ ëł¹
ìĤ¼ ê±°ë¦¬
ĠìķĦë¥´ íĹ¨
Ġì° °
Ġê·¸ë ĵ¤ìĿĢ
¥ ¿
i re
ĠìĬ¤ íĮĮ
ĠëĤĺ ëī
íĻľ ëıĻ
ì£¼ êµ°
Ġë ĩĮ
Ġëĭ Ľ
Ġìŀĳ ìļ©
ìĥģ ìĿĢ
å ĭ
æ ²
Ġë¶ģ ë¶Ģ
ĮĢ íķĻêµĲ
Ġì§ §
ìłĦ ìĿĺ
Ġm o
êµ¬ ì¹ĺ
ĠìĦľ ë¶Ģ
Ġì¤ĳ ê°Ħ
at h
ìľ Ħë¡ľ
ĠìĹ° ëĮĢ
Ġë³´ ìĿ´
ê¸° ê°Ħ
ìĥĿ íĻľ
ĠìĦ¸ ëĬĶ
ìĭľ ë¦¬ì¦Ī
ä ¿
Ġìŀĳê³¡ ê°Ģ
ìĪ Ń
ì²´ êµŃ
ë¯¼ ì£¼ëĭ¹
ĠìĿ´ ì§ĳ
ĠìĿĺ íļĮ
ë§Ī ìĿĦ
Ġì²ľ íĻ©
ĠëıĻ ìª½
Ġê·¸ëħĢ ìĿĺ
Ġun ivers
Ġë§ĪìĿ´ íģ¬ë¡ľ
ĠìŀĪ ëıĦë¡Ŀ
ì§Ģ ìĹĲìĦľ
ë²ķ ìĿ¸
ĠìĻ¼ ìª½
íĶĦë łĪ
Ġê±° ë¦¬
ìķĦë Ĥĺ
y s
ê´Ģ ìĿĦ
Ġê³¨ ëĵł
ì§ģ ìĿĦ
êµŃ ìłľ
ìľł íĤ¤
ĠìłĦ ìĭľ
ìłĢ ìļ°
ĠìĬ¤ íĬ¸ë
Ġìĥģ ì§ķ
Ġê·¸ëĮĢ ë¡ľ
Ġíĳľ ê¸°
ĠëĮĢ ìĿĳ
Ġê±´ ê°ķ
íķĻ íļĮ
å £
ĠìķĪ ìłķ
ĠìĥĿ ìĦ±
Ġìŀ ĩ
Ġì¦ Ĳ
Ġe p
ìĤ° êµ°
Ġê·ľ ìłķ
Ġs ch
ĠìłĦ íķ´
íĭĢ ëŀľëĵľ
ìĭľ ë¡ľ
ĠëıĦ ì°©
ëĭ¨ ìĹĲ
ĠìĿ´ë ¥´ë
ëĭ ¥
v d
Ġëį´ë §Ī
Ð ½
Ġc ar
ĠëłĪ ëĵľ
ìķĦ ê°Ģ
Ġìĭ¤ ìłľ
Ġì¶Ķ ì§Ħ
Ġê¹Ģ ìĦ±
ëª »
Ġíķ© ë³ĳ
Ġê·¼ ì²ĺ
Ġëĭ¨ ìĪľ
ĠìĿ´ëĵ¬ íķ´
Ġwor ld
ĠíķĺëĤĺ ë¡ľ
ĠìĪĺ ë¹Ħ
ìĭĿ ìĿĺ
ĠìĤ¬ìļ© íķľëĭ¤
Ġëª» íĸĪëĭ¤
ĠêµĲ íĨł
Ġëĵ¤ìĸ´ ê°Ģ
Ġì ħĢ
ìļ ¸ë
Ġë ¦°
Ġê·¼ ê±°
ĠìĹ¬ ê²¨
Ġn h
ī ìĿĢ
Ġìłĳ ê·¼
ìĦł ìĿ´
Ġæ ĺ
ĠëķĮ ëĬĶ
ë ¸Ĳ
ìĻĢ ëĬĶ
æ ī
ê¸° íļį
Ġì¡° ìłķ
Ġë¶ ķ
ë§Ī ìĬ¤
ìĭľ ìĦ¤
ë¡ ¬
Ġë§ ¹
Ġìĥģ íĺ¸
íı ¼
ĠëĦ Ĳë¦¬
Ġë² ½
ëĿ¼ë ħ¸
ĠìķĬ ìķĦ
ĠëĤĺ ë¬´
ĠíķĢ ëŀĢëĵľ
Ġìĭľì²Ń ë¥ł
Ġê²½ìļ° ê°Ģ
Ġë§ĪìĿ´ íģ´
ĠëĮĢ ìĤ¬
Ġë°ľ ìĤ¬
Ġìºĺë¦¬ íı¬ëĭĪìķĦ
ëıĦ ìĹĲ
Ġë©ĶìĿ´ ìłĢ
Ġë¹Ħë¡¯ íķľ
ĠëĤ¨ ë¶ģ
Ġê¸Ī ì§Ģ
Ġê°ķ ìłĲ
Ġìĺ¤ íĶĪ
ĠëĮĢ ë¥Ļ
ĠêµŃ ìĻķ
er n
ĠìłĦë Ĥ¨
ĠëĨĴ ìĿ´
ëħ ¼
ì§Ģ ê²Į
ìĺ¤ ëĬĶ
Ġp c
Ġê° Ŀ
Ġë²ł ëĦ¤
ç¤ ¾
ê·ľ ëª¨
Ġëĭ¤ ë§Į
Ġì£¼ë ħĦ
ĠíĮĮ ê²¬
Ġê°Ģ ìł¸
ë ¨
ĥ Īëĭ¤
íķŃ ê³µ
Ġv ol
ĠëĪ Ħë
ĠìĥĿ ë¬¼
ª ¬
Ġì¹´ë ©Ķ
Ġìľ Ħë¡ľ
ìĭł ìĿĦ
æ ł
ol og
Ġê±° ë¶Ģ
ĠìĤ¬ëŀĮ ëĵ¤ìĿ´
íĽĦ ìĿĺ
Ġê¸° ìĹ¬
ìļ°ì£¼ ìĹ°ìĥģ
ëĲĺ ê¸°
Ġê°Ģ ìŀħ
Ġìĺ¤ ìĬ¤
ĠìĨĮ ëħĦ
Ġíķ´ ìķĪ
a h
ĠìłĦ ì²ł
ìŀĲ ëıĻ
ĵ ±
íĽ Ħë¡ľ
ĠìķĬ ëĭ¤
Ġì¤Ģ ê³µ
ĠìĿ¸ íķľ
Ġë°Ķ ë¥´
ìĿ¸ ê³¼
ĠìķĦë ŀ
Ġë¶Ħ íı¬
Ġë°Ķíĥķ ìľ¼ë¡ľ
ê°Ģ ë¥¼
Ġb ar
ĠìŀĪ ìľ¼ëĤĺ
Ġê³¼ìłķ ìĹĲìĦľ
Ġæ Ń
ê³µ ìĹħ
ĠìķĦë¥´íĹ¨ íĭ°ëĤĺ
ĠìĤ¼ êµŃ
ĠìĦľ ìª½
Ġê´Ģ ì¸¡
æ Ľ¸
ĠíĻľ ìļ©
ë§Į ìĿ´
ĠìĦ± ëĤ¨
Ġìĭł ë¬¸
ìĭľ ê°Ħ
Ġë°ķ ìłķ
ĠëıĻ ê³Ħ
ìĸ´ì§Ħ ëĭ¤
ìŀĲ íĤ¤
Ġë§¤ ì£¼
ìĿ¸ë¯¼ê³µ íĻĶêµŃìĿĺ
å ł
ĠìłĦ íĻĺ
ê°Ģ ì§Ģë¡ľ
ĠìĿ¼ë ĮĢ
ë§Į ìĿĦ
Ġì£½ ìĿĢ
Ġë°ĺ ëŀĢ
ìĭ ¸
it al
Ġë¦¬ê·¸ ìĿĺ
ic a
Ġë³´ ì»¬
íŀĪ ë¡ľ
Ġì£¼ë ıĦ
Ġì§Ģ ì§Ħ
ĠìĹ¬ê¸° ìĦľ
ë¶Ģ ê°Ģ
Ġìĸ´ë¦° ìĿ´
ĠìĿĮìķħ ê°Ģ
ë ĩĮ
Ġtv n
Ġì¶©ì²Ń ë¶ģëıĦ
ĠìłĦë °ĺ
ë£ ¬
ê ¿
Ġìĺ¬ íķ´ìĿĺ
ĠìĿ¸ ìĪĺ
ìĸ Ģ
ëĿ¼ë ¥¼
ĠíĥĦ ìĥĿ
ĠëĤ ©
ë¦ ¼ë
Ġì£¼ë §Ĳ
Ġë²Ķ ì£Ħ
Ġëª© ìłģìľ¼ë¡ľ
ë£¨ ìĬ¤
Ġë³ ¼ë
ëħ Ħë
ĠíĻ ĭ
Ġë¶Ģ ëª¨
Ġëĥ ī
Ġë¹ĦìĬ· íķľ
ì¦Ī ìĿĺ
ĠìĭľëĮĢ ìĿĺ
ëĭ¨ ìĿ´
íĬ¸ ê°Ģ
Ġë§Į ìĹĲ
ê²½ ìĿĦ
Ġìŀĳ ìłĦ
Ġìķ Ħë¥´ë
ĠìĦ± ìłģ
ë¡ ±
Ġíĺĳ ëł¥
ĠìĤ ¶
Ġê¸° ìĸµ
ĠëıĻ ë§¹
Ġì²Ń ìĨĮëħĦ
Ġëħ¸ ë¥´
ë¹Ħë ĵľ
ìļ° ëĬĶ
Ĳ ľëĭ¤
Ġìłģ ìĿ´
ë¬¸ íķĻ
Ġê¹Ģ ì¢ħ
ì§Ģ ìĻĢ
e p
Ĥ ¸
Ġë ¦
ìĦ¸ ë¥¼
ĠëĮĢíķĻ ìĽĲ
Ĳ ìĿĺ
² Ħë
ĠìĦłìĪĺ ìĿ´ëĭ¤
Ġë¶Ī ë¦¬ëĬĶ
ìľĦ ìĿĺ
ë¶ ķ
Ġíļ¨ ê³¼
Ġìŀ¬ ìľĦ
ìĤ° ë¦¬
ì£¼ êµĲ
ì ģ
ĠìĤ¬ìļ© íķł
Ġk t
ĠìľĦíķ´ ìĦľ
ĠìĨĮ ìŀ¥
ĠìĿ´ ìŀ¬
Ġê°Ģ ëĬĶ
íĻĶ ìĿĺ
Ġê²½ê¸° ìĹĲ
ëıĻ ìĥĿ
ĠìĿ´ ìĬ¬
ĠìķĦìĿ´ ëıĮ
ìľ ĦëĬĶ
¸ë ĵľ
§ ¨
ĮĢ íķĻ
ĠìĬ¤íĬľ ëĶĶìĺ¤
Ġëĭ¹ ìĽĲ
ì¹´ë ĵľ
ĠíĥĢ ì¹´
Ġê´Ģëł¨ ëĲľ
ì£¼ìĿĺ ìŀĲ
Ġìłľ ìĿ´
ĠìĬ¤ íĥ
Ġë¯¸ ìķ¼
ĠëĤĺ ì¹´
Ġëª¨ ìĬ¤íģ¬
ĠìĿ´ ì£¼
ĠìĻĦ ìĦ±
Ġìł ĬìĿĢ
Ġì§ĢìĹŃ ìĹĲ
Ġå ¼
ëĭ¨ ì²´
ìĿĮ ìķħ
ì¹´ìĿ´ ëıĦ
Ġë¹ ¨
Ġì¤ĳ íķĻêµĲ
Ġìĺ¤ìĬ¤íĬ¸ëłĪìĿ¼ë¦¬ ìķĦ
íį¼ë ĵľ
ĠìĨĶ ë¡ľ
íĭ° ìķĦ
Ġëĵ £
ĠíķľëĤĺëĿ¼ ëĭ¹
an ce
íĥĢ ë¡ľ
íķ¨ ìĿĦ
ç §
Ġcom p
Ġe bs
äº ĭ
ĠëĮĢíķ´ ìĦľ
Ġí Ĥ
ìłķ ì¹ĺ
ĠìĹĲ ê²Į
ĠìĻĦ ê³µ
Ġe m
Ġìĥģ ëĮĢë¡ľ
Ġp s
Ġë¬¸ ìŀĲ
ë© ¸
Ġíĺĳ íļĮ
è ĩ
Ġì²´ íı¬
ëĲĺìĹĪ ìľ¼ëĤĺ
ĠëĦ¤ìĿ´ ë²Ħ
ĠìĿ¼ ìĿ´
ìĤ° ëıĻ
ìľĦ ê°Ģ
Ġìĭľ ìĹĲ
ĠíĹ¤ ìĿ´
Ġë§Ī ëĵľë¦¬
Ġëį ĺ
ìĻ ¸ë
Ġê°ķ íķľ
ç «
ìĤ¬ ê±°ë¦¬
ĠìłĦë ¶ģ
Ġê¸° ê³Ħ
ĠìĿĢ íĸī
ĠìĹĲ ëıĦ
Ġë§Īì°¬ ê°Ģì§Ģë¡ľ
ĠëĮĢ ì²´
ç ļ
ĠíĬ¹ ì§ĳ
² ¤
Ġê·Ģ ì¡±
ìĺ¤ íĶĦ
ĠíŀĪ ëį°
ĠíĶĮ ëłĪ
ì» ´
Ġë°©ìĨ¡ êµŃ
Ġì²ľ ìķĪ
ic k
æ Ķ
Ġìļ°ìĬ¹ ìĿĦ
Ġë¨¸ ë¦¬
Ġä¸ ī
ë¯ ¹
Ġê°ľ ìłķ
ĠìĦłìĪĺ ë¡ľ
ìĨĮ ëĬĶ
ĠìłĦë ŀµ
íķĺëĭ¤ ê°Ģ
ĠíķĦìļĶ íķľ
Ġíĺ ¼ë
Ġê°ĢëĬ¥ íķľ
ì¦Ī íĤ¤
Ġì¶ľ ë°ľ
Ġì ª½
ĠìĿ´ë łĩê²Į
Ġì¹ ¼ë¦¬
ìĭ± íĦ´
ĠìłĦ ëĭ¬
ĠíĨµ ì¹ĺ
ĠìłĦ ì°¨
ĠìĤ Ń
Ġìī ¬
Ġê²½ê¸° ë¥¼
ë§ İìĿĢ
Ġë§Į ìķ½
ĠìķĪ ëıĻ
éĻ ½
Ġêµ¬ ì¶ķ
ĠíķŃ ìĥģ
Ń ī
ë³ĳ ìĽĲ
ê°Ĳ ëıħ
ìĬ¤ ìĹĲìĦľ
ĠìķĦ ìļ°
ëĭ Ĳ
Ġo st
Ġë ŀĺ
Ġíħ į
Ġíĺķíĥľ ë¡ľ
¡ ±
ìĭł ìĿĺ
Ġd vd
ĠìĹ ł
ë¶ Ħë
íĻĶ ëĲľ
Ġê°ľ íİ¸
l o
ìĹĲ ë¥´
a z
Ġë°Ľ ìķĦëĵ¤
ĠíķĦë¦¬ íķĢ
¶ Ļ
êµ¬ ê°Ģ
os t
ĠìĹĲ ëĬĶ
Ġå Ń
ĠìĻķ ì¡°
Ġì¤ĳ ìĹĲìĦľ
Ġd ig
Ġìµľ ìĨĮ
íĸĪëĭ¤ ëĬĶ
ãģ Ħ
ì¤Ģ ëĭ¤
Ġì½Ķ ì¹ĺ
p e
Ġê² ª
ìĸ´ë ıĦ
ë°° ìļ°
Ġê²ĥìĿ´ ìĹĪëĭ¤
ëĪ Ħë¦¬
Ġë°© ìĸ´
Ġìĭ¤ íĸī
Ġv er
¾ Į
á »
ĠíĥĢìĿ´ ìĻĦ
ê³ł ë¥¼
Ġë¶Ģ ë¥¸ëĭ¤
ĠìĤ¬ ëł¹
Ġíķ¨ ìĪĺ
ì² ©
íķľëĭ¤ ê³ł
ì§Ģ ë§Ī
íķĺê¸° ë¡ľ
éķ ĩ
Ġë¸Į ëŀľëĵľ
in k
Ġë³¸ë ŀĺ
Ġêµ° ì£¼
éĻ ¢
ì¼Ģ ìĿ´
Ġp ng
ìŀĲ ìĿ´
Ġë³´ë ³ĳ
Ġê° Ħë
Ġì¡¸ìĹħ ìĭĿ
Ġë§Ĳ ìĿĦ
Ġê²½ìļ° ìĹĲëĬĶ
ĠìłĦ ìļ©
Ġê²ĥ ê³¼
a w
ìĸĳ êµ°
Ġëª» íķľ
ĠìĨį íķĺëĬĶ
ìŀĲ ìĹĲ
ë³´ë ĵľ
ĠìĹ Ħë§Ī
ĠìĿ´ë¦Ħ ìĿ´
ĠìĪĺ ë§İìĿĢ
Ġht t
Ġê´ ´
ĠíĻĶ íķĻ
Ġë²łìĿ´ ì§ķ
Ġd r
Ġê³µ ê³µ
ĠìĿ¸ë ¯¼
êµ¬ ëĬĶ
Ġìłľ ê¸°
ìŀ¥ ê³¼
Ġê°ģ ì¢ħ
Ġìĺģ ìĥģ
ëı Ħë¥´
Ġê·¸ë łĩ
ìĭľ ëĬĶ
Ġëĭ¨ ê³Ħ
ĠìĿ´ ìłķ
ĠëģĿ ìĹĲ
c l
Ġê²Ģ ìĤ¬
ĠíĬ¸ë ŀĻ
ç ¦
ëĤĺ ê°Ģ
Ġì§Ģ ìłģ
Ġëĵ± ê¸ī
Ġê²½ ì£¼
íģ¬ ëĿ¼ìĿ´ëĤĺ
ì¶ķ êµ¬
ê´Ģ ìĿ´
ĠëĨį ìĹħ
ìĹ ĩ
ĠíĨł ë¡ł
¸ë ª¨
ĠìłĢ ìĦľ
ëĮĢ ìĹĲ
ĠëĤĺë¨¸ ì§Ģ
Ġë¡ľ ë²ĦíĬ¸
Ġë°Ķ ê¾¸
a i
ë¡ľ ê·¸
à ¸
Ġê³ł ëĵ±
ĠìĦ¤ ìłķ
íĦ° ë¦¬
ìĹŃ ìĿĦ
ĠíĻ© ê¸Ī
ĠìĿ´ íķĺ
Ġì¶© ëıĮ
ëĤĺëĿ¼ ìĿĺ
Ġë²¨ ê¸°ìĹĲ
ĠìĬ¤ì½Ķ íĭĢëŀľëĵľ
ĠíĶĮ ë¡ľ
è ª
Ġk bo
Ġíĺ Ħë
ĠìŀĲ ê²©
Ġì¼ Ħ
ìŀĳ ìļ©
Ġæ °
Ġìĺ ¹
Ġm f
Ġìĭł ëĿ¼
ĠëĮĢíĳľ ìłģìĿ¸
ëĥ ¥
Ġë¶Ī ëł
ic t
ĠìĪĺ ìłķ
Ġìĺ¤ ìłĦ
Ġì§Ģëĥ Īëĭ¤
Ġìľł íĤ¤
Ġê±´ êµŃ
ĠìĿ¸ ìĭĿ
Ġì§ĳ ëĭ¨
Ġê¸¸ ìĿ´
ĠìĹ° ìĺĪ
Ġê³¨ ìĿĦ
ë¥´ ìĿĺ
ĠìķĪ ìĹĲ
ìĹ°êµ¬ ìĨĮ
íİ ł
ĠìŀĪ ê¸°
ĠëĬ¥ ëł¥
ë¯¼ ì¡±
Ġìŀĳ ìĦ±
ì¡Į ê³ł
íĥ Ĳ
Ġê³µ íı¬
ĠìĤ¬ íĽĦ
Ġì² ´ë
ä¸ Ģ
Ġìłķ ìĥģ
¹ Ī
im e
ĠìĪĺ ìŀħ
ê°Ģ íĥĢ
Ġíĥľíıī ìĸĳ
Ġìĺ Ĩ
åĲ Ľ
or m
³´ ëĭ¤
Ġì¤Ģ ë¹Ħ
ëĿ¼ ìĹĺ
å ½
Ġê°Ħ ìĿĺ
ìĤ¬ ê±´
Ġíģ´ë Ŀ¼
ĠìķĦ ëĭĪëĭ¤
Ġì¦ī ìľĦ
Ġê³Ħ ìĤ°
Ġë³´ë ıĦ
ìĸ´ ìĬ¤
Ġë¶Ģ ìŀĦ
ĠìĿĺ íķĺë©´
ä¸ Ń
Ġê³Ħ ìĬ¹
ë¬ ¸ë
Ġìļ° íģ¬ëĿ¼ìĿ´ëĤĺ
Ġë¯¸ë ĵľ
Ġê·¼ë ¬´
Ġë§Īëĵľë¦¬ ëĵľ
Ġj r
ì¡° ìĦł
ìĻķ ìĿĺ
ĠëĤĺíĥĢ ëĤ´
íĺķ ìĿĺ
Ġì£¼ ê°Ħ
Ġì¶ľìĭł ìĿĺ
Ġêµ¬ìĦ± ëĲĺìĸ´
ĠëĤĺ ëĪ
ĠìĿ¸êµ¬ ëĬĶ
x t
Ġëĸł ëĤĺ
Ġê²ĥ ëıĦ
Ġëĭ¤ ë£¨
Ġìĭľ ê°ģ
Ġê²Ģ ìĿĢ
ĠìĹ° ë§¹
Ġìĭł ê²½
Ġëħ¹ ìĿĮ
Ġíıī ìĸĳ
Ġíĺ¸ íħĶ
Ġd f
Ġë ļ
ëĤ ¸
Ġê° Ĵ
ë¸Į ë¦¬
ìķĦë ©Ķë¦¬ì¹´
ĠìĿ¸ ìĤ¬
ìķĦ ìĿ´
ac t
Ġë¬ĺ ìĤ¬
Ġìĸ¼ êµ´
Ġë¯¸êµŃ ìĹĲìĦľ
h n
íķĺìĺĢ ëĬĶëį°
ë©´ ìĿĦ
ìĿ Ħë
ìłľ êµŃ
¥ íĦ°
ĠìŀĪ ì§Ģ
ĠëĮĢíķ´ ìĦľëĬĶ
ĠëıĻ ë£Į
Ġìłľ ê±°
è ¦
Ġìĭľ ëıĦ
ĠëĤ Ń
Ġìĥģ ìĹħ
Ġëª¨ìĬ¤íģ¬ ë°Ķ
Ġìĸ ¼ë§Ī
ĠëĤĺíĥĢ ëĤĺ
Ġå ·
ĠìĽĮ ìĭ±íĦ´
ĠìĿ¼ ìļĶìĿ¼
Ġë²Ī ì§¸ë¡ľ
íķĺ ëĤĺ
Ġê¸°ë¡Ŀ íĸĪëĭ¤
Ġë¶Ģ ë¥´
Ġsing le
ĠìķĦë ©Ķë¦¬ì¹´
Ġë ½
ĠìĿ´ ê³ł
Ġìłķ ë¦¬
ë¬¼ ìĿĺ
ìľ¼ë©´ ìĦľ
Ġë¯¸ ìĤ¬ìĿ¼
ĠìĿĢ íķĺ
ul t
Ġë² Ĺ
Ġìŀ¥ êµ°
å Ŀ
Ġé «ĺ
ìłĦ ìĿ´
Ġë²Ī ìĿĺ
ĠìľłìĿ¼ íķľ
ĠìĽĲ ìŀĲ
Ġg e
Ġì°¨ ìĽĲ
ê¸° ìĥģ
Ġì´Ŀ ë¦¬
ĠìĪ Ń
ìĦłê±° êµ¬
ĠìĿ´ìĬ¤ ëĿ¼ìĹĺ
ëį° ìĿ´
ĠëĤĺ ê³ł
ë¹ Ľ
ĠëĤ ³
d r
Ġfe at
Ġê¸° íĽĦ
Ġë¯¸ëĶĶ ìĸ´
ĠìķĪ íĥĢ
Ġìłľ ìłķ
Ġs s
ëĲĺ ê¸°ëıĦ
Ġì¡° ìĹ°
f f
ĠëĴ ·
ĠìĬ¹ ìłĲ
Ġåį Ĺ
ìķĪ êµ°
ĠìĿ¸ ì¡°
m s
Ġìĭľ ëĤĺ
ĠíĶĦë¦¬ë¯¸ ìĸ´
Ġä »
Ġíĥľ íĴį
Ġìµľ ëĭ¤
ìĹĲê²Į ëĬĶ
ĠíĬ¸ë łĪ
Ġë³´ë ¬¼
ë¯¼ êµŃ
æ º
ìĿ ¼ë¡ľ
Ġg u
Ġë ®
am e
ĠìĤ¬ íķŃ
ĠìĿĺ ê²¬
Ġëª» íķĺê³ł
ĠíĻķ ëĮĢ
ì£ ½
Ġë§Ī ë¦¬ìķĦ
ĠìĽĲ ëħĦ
å ¼
°© ìĨ¡
Ġì²´ ìľ¡
Ġíİĺ ë¥´
Ġìĭľ ìŀ¥
Ġê³ł êµ¬
ĠìĿ´ë Ĥĺ
Ġì¹ľ ìĿ¼
ĠìķĦëĤĺ ìļ´
íį¼ ìĬ¤
ĠíķĻ ìĤ¬
Ġíķĺ ê¸°
è Ń
ĠìĹĨ ìĸ´
ì¹ĺ ìĽĲ
i er
Ġê²½ ìľł
at a
Ġal l
ê³ ±
ê³¼ ìĹĲ
Ġë°ķ ë¬¼ê´Ģ
Ġë¬´ ìŀ¥
ë¥¼ë ¦°
ì» ·
ĠìĦľ ìĭĿ
ë²ķ ìĿĦ
ĠìĮ ĵ
Ġë£¨ ìĿ´
ĠìĤ¬ìļ© ëĲľëĭ¤
ĠíĶĦë ŀĢ
ĠìĬ¹ ì°¨
ëıĻ ìĹĲ
ĠìłĦ ìĤ¬
ĠìĪĺ íķĻ
Ŀ¼ ëĬĶ
Ġunivers ity
ĠìķĦ ìĺ¤
íķĺ ìĭľ
Ġíİ ł
Ġë¬¼ë ¡ł
Ġaf c
Ġå ¹
Ġe l
ĠíĮĢ ìĿĺ
çĶ °
Ġë ¡¤
ĠëĮ Ħ
å »
Ġê¹Ģ ëıĻ
° ±
å¹ ³
ì¹ĺ ìĿĺ
ĠëĴ¤ ìĹĲ
Ġë° ĳ
Ġj t
Ġëĵ±ìŀ¥ ìĿ¸ë¬¼
p l
ë§Ī íĬ¸
Ġê³µ ê¸ī
Ġæ ľ´
Ġê² Ĳ
± Ģ
ë¶Ģ ë¡ľ
Ġíĸī ë³µ
ĠìĻ Ķëĭ¤
ëªħ ìĿ´
Ġê³ł ìłķ
Ġëĭ¤ ë¥´
Ġë¬´ ê¸°
Ġæĸ °
Ġìĺ¤ íĨł
íķľêµŃ ëĭ¹
ĠìĪ «
ĠìĿ´ë ²Ī
ëª ĩ
Ġê²Į ìĬ¤íĬ¸
ìłĦ ìŁģ
ë°Ľ ìķĺëĭ¤
Ġìĭľìŀĳ íķĺìĺĢëĭ¤
Ġìĭľ ìĿ¸
å® ī
ìķĪ ìĿĦ
ëĮĢíķĻ ìĽĲ
ìķĺ ê³ł
Ġë¬¸ ìĦľ
Ġíĸī ìĤ¬
ĠìĿ´ìļ© íķĺìĹ¬
Ġíĸī ìĦ±
Ġc ent
Ġëªĩ ëªĩ
ì¢ħ íķ©
Ġì£¼ ìĭĿ
ĠìĬ¤ íģ¬
Ġì½ ©
ł ¸
ìĭľ ìĬ¤
Ġg re
ì¡° ìĤ¬
Ġë³´ë ©´
ĠæĿ ±
Ġm s
ìĬ¤ ëŁ¬
ĠìĿ´ ìĦ±
ĠëıĦ ìĦľê´Ģ
ĠëĤ® ìĿĢ
éĥ ¡
ì¿ ¨
ĠìŀĪìĹĪ ê³ł
Ġì£¼ ëĬĶ
ë©Ķ ëĭ¬ë¦¬ìĬ¤íĬ¸
ĠìłľìĻ¸ íķľ
ĠìĨĮ ë°©
Ġë³¸ë ªħ
ë´ ĩ
Ġìĺ¨ ëĿ¼ìĿ¸
Ġê°ķ ë¦ī
Ġì±ĶíĶ¼ìĸ¸ ìĬ¤
ĠëĭĪ ì½ľ
ìĬĪ íĥĢ
ĠíķŃ ëª©
t r
ĠìĿ¸ ê·¼
ĠìĹħ ë¬´
§ Īëĭ¤
íĶĦ ê°Ģ
Ġê º
ĠìĽĶ ê¹Įì§Ģ
Ġìĺ® ê²¨
ìĭľ ë¥¼
Ġê°Ģ ëĤĺ
ìĽ ł
ìŀ¥ ê´Ģ
ìĤ° ìĿĺ
ë°ķ ë¬¼ê´Ģ
Ġå® ī
ìłĲ ìĹĲìĦľ
Ġì§ĢìĹŃ ìĹĲìĦľ
Ġë ¥´ë
ĠìĤ¬ íĨł
ĠìĥĪ ëĪĦë¦¬
åº ľ
Ġë¡ľ ëĵľ
Ġê¸Ī ìľµ
ĠëħĦ ìĿĦ
Ñ Ĥ
ìĿ´ ê¸°
Ġìŀ¥ ê¸°
Ġë¬¸ìłľ ë¥¼
Ġë¬¸ìłľ ê°Ģ
ê°Ģ ë¡ľ
ìĿ¸ë ĵ¤ìĿ´
ĠíĮĮ ìĽĮ
Ġê³µ êµ°
ĠëĦĪ ë¬´
Ð º
Ġì½ĺ ìĦľíĬ¸
ĠíĶĦë Ŀ¼
ëĭ¨ ìĿĢ
ic s
Ġë¶ īìĿĢ
Ġa b
Ġê°ľìĹħ íķľ
ê° Ķ
ĠìķĦëĤĺìļ´ ìĦľ
Ġíķľ ìłķ
ĠíŀĪë¡ľ ìĭľë§Ī
Ġê·¸ë ł¤
ĠìĿ´ìĬ¬ ëŀĮ
ĠìĤ¬íļĮ ì£¼ìĿĺ
ĠíĦ° ë¯¸ëĦĲ
es e
Ġê°Ģê¹Į ìļ´
ĠìķĦëŀ į
ìĽĲ êµ°
å ³
Ġì£¼ë ¯¼
Ġì±ĶíĶ¼ìĸ¸ ìĭŃ
ç ī
Ġ er
Ġì§Ī ëŁī
Ġdig ital
Ġs er
Ġë²ķ ìłķ
ìĿ´ ìĤ¬
Ġë ī
ìĭľíĤ¤ ê³ł
ĠìĤ¬ ìŀ¥
Ġê´ ´ë
Ġë°° ê¸ī
ê´ Ħ
Ġìĸ´ëĸ »
æĿ ±
Ġê³³ ìĹĲ
ĠìĿ Ħ
Ġå º
ê´ ´ë
ì¶Ķ ìĸ´
Ġê´Ģ ê³Ħë¥¼
Ġh o
Ġëħ¸ë ²¨
ig n
ĠìĤ¬ëŀĮ ëĵ¤
ĠìĹĲ ìĸ´
Ġå ¯
s on
Ġê¸° ìŀ¬
ĠìĿ¸ ëıĦë
ê¶Į ìĿĺ
ĠìĬ¤íİĺ ìĿ¸ìĿĺ
Ġì±ħ ìŀĦ
ĠìłĢ ìŀ¥
Ġm on
Ġé Ħ
ĠíĹĪ ìļ©
ĠìĦ± ì§Ī
ĠìĿ¼ìĸ´ë Ĥľ
ì§Ģ ìĤ¬
Ġë³ Ħë
ìķ¤ ìł¤
ìķĦë ¦¬
ëĭ Ľ
ëĭĪ ë²ĦìĬ¤
Ġë¸Į ë¦¬
Ġì£¼ë ª©
ê¸° ëħĲ
ë¡Ń ê²Į
Ġë§Ī íģ¬
Ġê°Ĳëıħ ìĿĺ
Ġc f
ĠìŀĲ ìĿ´ìĸ¸
ĠìĤ¬ìĭ¤ ìĿĦ
Ġì·¨ ê¸ī
om e
ol d
Ġíķ© ë¥ĺ
ë¬ ¼ë¡ľ
ĠìĪĺ ê°Ģ
ĠìĦł ê³ł
íĶĮ ëłĪìĿ´
ĠìĿ´ë ŀĺ
ĠëĦĺ ìĸ´
Ġë¶Ħ ìŁģ
ìłĲ ìľ¼ë¡ľ
ĠìĦ¤ ê³Ħ
ĠìļĶì½Ķ íķĺë§Ī
Ġì¡°ìĦłë¯¼ì£¼ì£¼ìĿĺ ìĿ¸ë¯¼ê³µíĻĶêµŃ
ë Ĥ¬
Ġå ľ
å Ĭ
Ġin st
l and
ĠíļĮ ìłĦ
ëŀĺ íĶĦíĬ¸
Ġu p
Ġê·¼ë ĮĢ
êµĲ ìĿĺ
Ġk ore
s e
Ġë§Į ëĵľëĬĶ
Ġì¡°ìĦł ìĭľëĮĢ
Ġíĥĳ ìŀ¬
Ġë¡ľìĬ¤ ìķ¤ìł¤
ìĥģ ê³¼
ĠìĤ¬ìĿ´ ìĹĲìĦľ
íĸī ìłķ
ìĭĿ ìĿĢ
ëŁ¬ ë¦¬
Ġë²Ī íĺ¸
ĠëįĶë¶Ī ìĸ´
Ł ĵ
Ġê°ķ ëĤ¨
ĠìĬ¬ ë¡ľ
ĠìķĪ ìĸĳ
ĠìĤ¬ ëĬĶ
Ġê³ł ì¢ħ
Ġëª© ìłģ
Ġìłķë¶Ģ ëĬĶ
ĠìĹĲëĦĪ ì§Ģ
ŀ Ń
ë¡ľ ë¥¼
ìĦ¸ íı¬
ĠìĥĪëĪĦë¦¬ ëĭ¹
ëĭĪìķĦ ìĿĺ
Ġìľł ìĹĶ
ëĿ¼ë ©´
Ġëĳĺ ëŁ¬
Ġë§Ī ëł¨
ĠíıŃ ë°ľ
ìĸ´ë ĵ¤
s h
ĠíĽĦì¿ł ìĺ¤ì¹´
íĻĶ ëĭ¹
ê¸° ê³ł
ìŀĲ ìĿ´ëĭ¤
Ġìĺ¬ ë¦¬
ìĺĢ ê³ł
ìŀĲ ëĵ¤
ë© ´ë
Ġì§ĳ ì¤ĳ
Ġëĭ¨ íİ¸
ĠëĨį êµ¬
íķĻ ë¶Ģ
Ġì¶ľ ì²ĺ
Ġì§ģ íĽĦ
ĠìĿ¸ ìĥĿ
Ġëª½ ê³¨
Ġê°ľ ìĦł
t a
Ġë¬´ ìĹŃ
ë¦¬ ëĤĺ
íķ´ ì¡Įëĭ¤
as e
Ġìłķë¶Ģ ìĿĺ
ĠëĮĢ ìŀ¥
Ġê³ ½
Ġê°Ĳ ìĨĮ
Ġìłķì¹ĺ ìłģ
Ġå »
Ġê¹Į ì§Ģ
Ġìĸ´ëĸ» ê²Į
Ġä¸ Ń
Ġìķł íĶĮ
Ġëĭ¤ ìĦ¯
ĠíĺĦ ìĭ¤
Ġë¯¼ ê°Ħ
Ġì²´ ì½Ķ
ĠíĿ¬ ë§Ŀ
ì¹´ë ¥´
ĠëĤĺ ì¤ĳìĹĲ
ĠíĮĲ ëĭ¨
ł ī
ĠìłĢ íķŃ
an c
ĠëĿ¼ ìĿ¸
ĠìĥĿ ëªħ
ëŁ Ń
ĠìłĦ ê°ľ
Ġë§Įëĵ¤ ìĸ´ì§Ħ
ê³µ ìĿĺ
Ġê´Ģ ì°°
ìĦł ìĿĢ
Ġìŀ¬ ì§ģ
ä¹ ¡
ĠìĪĺ ëĬĶ
Ġì£¼ ìĸ´
ħ ¸ë
Ġì¹ ¼
ĠìľĦìĽĲ íļĮ
ĠìĿĺë¯¸ íķľëĭ¤
ì¦Ī ë¯¸
Ġë¶Ī ëŁ¬
Ġì ı
ç ¶
ĠëıĦ ìļĶ
Ġê±´ë ĦĪ
Ġë¶Ī ë¦°ëĭ¤
Ġíĺķ ìłľ
ĠìłĦë ł¥
ĠìĦ¸ ë¥´ë
æ ¨
Ġíľ ´ë
Ã ¡
Ĵ Į
ìłĦ íŀĪ
Ġì§ĢìĹŃ ìĿĦ
Ġëħ ¸ë¶Ģ
íĭ ¸
i um
æł ¡
Ġê¹Ģ íĥľ
ìķĦë ²Ħì§Ģ
Ġíķ´ë °©
ì¼ Ī
ĠìĤ¬ëŀĮ ìĿĢ
êµĲ ëıĦ
Ġìĭľ ì¹´
Ġê°ķ ì¡°
ê°Ģ ìĭľ
Ġm b
Ġd es
Ġë²ł ë¥¼ë¦°
ìĨĮ íĶĦíĬ¸
íĻĶ ìĹĲ
ìĹŃ ìľ¼ë¡ľ
Ġê³łêµ¬ ëł¤
ĠíĶ¼ ìķĦëħ¸
Ġê´Ģ ë£Į
ĠíĻĶ ìĦ±
ĠìĿĺ ë£Į
Ġê¸°ì¡´ ìĿĺ
Ġì°¨ ìĿ´
ĠìłĲ ìĿĦ
ì§Ģ ê¸°
ê³¼ ìłķ
Ġë £
Ġar t
Ġë¶Ģ ëĮĢ
å Ľ
ìĨĮ ìĹĲ
ĠìĪĺ ë¦½
Ġ q
Ġí Ĥ¬
ĠíĶĮ ëŀ«
Ġëį°ìĿ´ ë¹Ħëĵľ
Ġíķĺ ê²Į
Ġë°°ìļ° ìĿ´ëĭ¤
íķĺ ìĹĲ
Ġê¸°ëĬ¥ ìĿĦ
Ġm ed
ìĿĺ ìĿĺ
t on
ì¡° íķ©
Ġê²½ ìĦ±
ĠíĹ ¨ë¦¬
ìĬ ´
Ġë°ľë§¤ ìĿ¼
ê°ľ ìĿĺ
ĠëłĪ ì½Ķëĵľ
ĠíĥĢìĿ´ ê±°
Ġì£¼ ì°¨
ë¥´ë °Ķ
ìĭł ë¬¸
Ġë¶Ģ íĻľ
ĠìĽĲ ìłķ
Ġch r
Ġs w
Ġìķ¡ ìħĺ
íĥĢ ë§Ī
ĠíĬ¹ë³Ħ ì¶ľìĹ°
Ġì¶ľ ìŀħ
Ġì¤Ħ ê±°ë¦¬
Ġë§Įëĵ¤ ìĹĪëĭ¤
è Ģ
ìĤ¬ ìłĦ
ĠëĤĺê³ł ìķ¼
Ġìĩ ł
æ³ ķ
ĠìĿ¼ ìłķ
´ Ķ
ĠëĤł ì§ľ
Ġë¹Ħ íĬ¸
Ġë°ĸ ìĹĲ
íĨ ±
ĠíĬ Ģ
åİ Ł
ëªħ ìĿĢ
Ġëģ ¼
Ġìļ ķ
Ġìłģ ê·¹
v e
Ġl ive
u k
Ġé Ļ
ìĭł ìĿ´
ã Ĥ¤
ĠìĿ´ ì¤ĳ
æ ±
Ġì§Ģ ìĭĿ
į° ìĬ¤
Ġm in
Ġìŀ¬ ìłķ
íĭ° ë¸Į
Ġë°ĺ ë©´
Ġk e
ĠíĻĶ ë¬¼
Ġíķĺ ëĵľ
ìĹĪ ìľ¼ëĤĺ
Ġd i
ĠëĮĢ íĺķ
Ġê·¸ëŀĺ ìĦľ
Ġë³ ¸ë¶Ģ
æ ·
Ġê¹ Ĭ
ĠëĲĺ ìĹĪìľ¼ë©°
Ġì¦Ŀ ê±°
Ġê°ľ ìĭł
ĠìļĶ íķľ
Ġé Ŀ
Ġíķĺ ìŀĲ
ĠìŀĲìĭł ìĿĦ
ìŀĲ ëĵ¤ìĿĺ
ĠëĿ¼ íĭ´
Ġë§Ĳ ëłĪìĿ´
Ġê¹Ģ íķ´
ìłģìľ¼ë¡ľ ëĬĶ
íħ į
ĠìĿ¼ë³¸ êµŃ
å ĸ
ĠìºĲëĤĺëĭ¤ ìĿĺ
Ġê³ł íĸ¥
ĠìĬ¤ ë¯¸
Ġíŀĺ ìĿĦ
è ģ
Ġìĭł ìĦ±
ĠíĶĮëłĪìĿ´ ìĺ¤íĶĦ
ìłģ ìĿ´ê³ł
Ġëĸ¨ ìĸ´ì§Ħ
ĠíļĮ ì°¨
ê´Ģ ìľ¼ë¡ľ
ĠìĤ´ íķ´
ëĭ¹ ìĿĢ
ë¶ Ļ
ìĭľ ê°Ģ
Ġë¬´ë łµ
íģ¬ ëŀĺíĶĦíĬ¸
Ġof f
in a
ĠìľłëĭĪ ë²Ħ
Ġëĭ Į
ë¶Ģ ìĿ¸
è »į
Ġë¶Ģ ê·¼
am p
ĠìĿ¸ê°Ħ ìĿĺ
Ġst r
Ġæĸ ĩ
å¾ ·
ĠìĿ¼ë°ĺ ìłģìĿ¸
é ł
ĠëŁ¬ ë¸Į
ĠìĤ¬ìļ© íķĺìĹ¬
Ġë¶Ħ ê¸°
ëħ ģ
ĠìŀĪìĹĪ ì§Ģë§Į
íĮĮ ìĿĺ
ut h
ìĽĢ ìĿĦ
Ġa k
Ġì£¼ ìĹĪëĭ¤
ê¶Į ìĿ´
æŃ £
er e
Ġìĭ¬ ë¦¬
Ġìĭľ ìĥģ
Ġìľł ëıĦ
ĠìĤ¬ ìļ´ëĵľ
ìĹ° ë§¹
Ġì°¸ ìłĦ
ĠíĨµ íķĺìĹ¬
Ġjt bc
Ġê°Ģ ìĻĢ
ê¹ ¨
Ġì¸¡ ìłķ
êµ° ê³¼
Ġê³µ ë¦½
ë¥ ľ
Ġmus ic
ĠíĨł ìļĶìĿ¼
ìĦľ ë¡ľ
ìĺĢ ìľ¼ë©°
ĠíĨµ íķľ
Ġë¶Ģ ìŀĳ
ŀ Ĺ
ĠìĤ¬ëŀĮ ìĿĺ
ĠíĻķ ìłķ
ê²Į ìŀĦ
Ġê³µ ìĤ¬
ĠìĦ Ń
ĠíĪ¬ ëĭĪë²ĦìĬ¤
ëıĦ ìĦľê´Ģ
Ġë§¤ ìĿ¼
Ġi d
ĠìĹĳ ìĬ¤
Ġê³¨ ëĵľ
ìļ° ì²´êµŃ
ë¹ ł
Ġs up
ĠíĬ ¸ë¡ľ
ĠìĦľ ë¹Ħ
ur n
Ġìŀ¥ ì¹ĺ
ë¶Ħ ìĿĦ
å¤ ©
ìŀĲëıĻ ì°¨
Ġì§Ģê¸Ī ìĿĺ
êµ¬ ë¡ľ
ãĥ¼ ãĥ
Ġê²½ íĸ¥
Ŀ¼ ê³ł
Ġìī½ ê²Į
Ġë¡ľ ë§¨
Ġì´Ī ë°ĺ
ĠìĿ´ë ¯¼
Ġë°° ìĹŃ
ĠíĨµ ê³Ħ
¤ ¼
ĠìĿ¸íĦ° ë·°
Ġíĥ Ŀ
Ġì² ¨
Ġìłľìŀĳ ëĲľ
íĥĢ ìĿ´
ĠíĹĿê°Ģ ë¦¬
Ġìłķ ì°©
Ġì¤ĳ ê³Ħ
Ġìĥģ íķĺìĿ´
ìĨĮ ë¡ľ
íķĻ ìĽĲ
ĠìĿ´ ìĺģ
ëĭ¹ íķľ
Ġë¶Īê°Ģ ëĬ¥
Ġëŀ Ń
Ġì¡¸ìĹħ ìĥĿ
Ġíĥ ģ
ê·¹ ìŀ¥
ĠìĻĢ ìĿ´
¾ °
ĠëĵĿíĳľ ìľ¨
ë¿ Ĳ
Ġs l
ĠìĽĲ ì¹Ļ
Ġìĭľ ëĵľ
ĠìķĦ íĭ°
Ġê¸°ë¡Ŀ ìĿĦ
ĠìĪĺ ìĤ¬
íĪ¬ ìĬ¤
ìľĦìĽĲ ìŀ¥
ìĬ¤íĬ¸ë ¡ľ
Ġê³µê²© ìĿĦ
² Ķ
ë§Į ìĿĺ
Ġs n
ê° Ĵ
Ġì¤ĳ êµ¬
Ġd ay
id ae
ê´ĳìĹŃ ìĭľìĿĺ
ĠíĶĮ ëŀĺ
° Ľ
ìĹ ´ë
ĠìĤ¬íļĮ ìłģ
ĠëĤĺìĺ¤ ëĬĶ
ä¸ »
Ġìŀĺ ëª»
ĠìĿ´ ìłľ
Ġëĳ ¥
æ ĥ
ĠìłĢ ëħģ
Ġo s
ĠìĦĿ ìĤ¬
ìĿ¸ë ĵ¤ìĿĢ
ĠìĿ¸ì²ľ ê´ĳìĹŃìĭľ
ìĹ ¼ë
Ġìļ° ìĦł
ê³¼ë ĮĢíķĻ
Ġjo hn
Ġìłķ ë³´ë¥¼
ĠêµĲ ì²´
Ġëģ Ĭ
Ġë³´ ì¡°
Ġìŀ ĦëĮĢ
©Ķë¦¬ ì¹¸
Ġr ight
ĠìĬ¤ íĶ¼ë
ĠìĦľ êµ¬
ë§Ī ìĿ´
Ġì ´Į
Ġon e
ê°Ģ ê°Ģ
Ġìľłíĺķ ë¬¸íĻĶìŀ¬
ĠìĿ´ ì¢ħ
íĥ Ħë
ĠìĿ´íĽĦ ìĹĲ
Ġê°ķëł¥ íķľ
ìľł ëŁ½
Ġii i
ĠìĿ´ì§ĳ íĬ¸
Ġëĭ¨ ëıħ
Ġå Ī
Ġë¹ ¼
ë¦¬ ì¼Ģ
Ġëª© ìĨĮë¦¬
Ġì²Ń ì£¼
Ġh d
Ġëħ¼ë ¬¸
Ġìļ© ìĿ¸
ĸ ìĹĲ
ĠíħĮ ë§Ī
m a
ĠìłĦíĪ¬ ìĹĲìĦľ
ëĶĶ ìĽĢ
ĠìĿ¸ëıĦë Ħ¤
Ġìľł ìłĦ
Ġìĺ¬ëŀ Ĳëĭ¤
ëªħ íķľ
ëį ¤
ĠìĤ¬ìļ© íķľ
ìĬ¤ íĮħ
ëĭĪ ëĬĶ
Ġp er
Ġë³ĳ ìĽĲ
Ġë¦¬ ëįĶ
ëħ¸ë ¯¸
ĠíĶ¼ íĦ°
Ġë¿Ĳ ë§Į
Ġê³µ ìľł
é İ
ìķ Ĺ
ĠëĤĺ ìĿĺ
Ġê³µ ì£¼
íĸī ìĿĦ
Ġì°½ ë¦½
Ġë łĮ
ëĲ Ĳ
ĠìĨĮ ìĪĺ
Ġëĵ±ìŀ¥ íķĺëĬĶ
Ġëĭ µ
Ġë³Ģíĺ¸ ìĤ¬
Ġì´¬ìĺģ íķľ
Ġç ¾
Ġì¶© ë¶Ħ
ëĶ ĺ
Ġë¿ Į
ĠëĬĲ ëĤ
it ion
ì§ Ĳ
Ã £
ç¾ ©
Ġìĭľì¹´ ê³ł
íħĮ ëĦ¤
ĠìĿ´ ì¹ĺ
Ġíķ´ ìĦ¤
íĬ¹ë³Ħ ìŀĲì¹ĺ
ä ¼
Ġì į¼
Ġê· ł
Ġfl ag
ëĤ¨ ëıĦìĿĺ
Ġin d
ê³Ħ ê°Ģ
an k
¬ ¼ë¡ľ
Ħ ¡
Ġíı¬ ì¼ĵ
ĠìĤ¬ìļ© ëĲĺëĬĶ
Ġë²ł ë¥´ë
ł ¨
Ġd o
ëŁī ìĿĦ
Ġëĭ¹ìĭľ ìĿĺ
íķĦë ĵľ
ìĦ± ìľ¼ë¡ľ
Ġë³´ ì¡´
ĠíĶĦë ¦°
ĠìĤ ½
Ġè ¥¿
ĠìĤ´ ìĿ¸
Ġìłķ ì°¨
¶ Ĳ
Ġì¡° ê¸Ī
ĠìĬ¤ íĨł
ë ®
ĠìľĦì¹ĺ íķĺê³ł
ìĹĲ ë§Į
Ġìĸ´ ìĽĮëĵľ
ìľ ĦëĮĢ
ê¾ ¼
ê²½ ìĿĺ
Ġíķ´ ìĸĳ
is c
Ġh ist
ëĤĺ ì¹´
Ġê³Ħ ê¸ī
ë¦¬ìķĦ ìĿĺ
Ġé ģ
ì¹ ¼
ĠìĿ¸ ê°Ģ
Ġp d
ç Ĳ
ĠíĶĮ ëĿ¼
Ġíİĺ ë¥´ë
Ġìĺ¤ íİĺ
æĺ İ
Ġê¹Ģ íĺĦ
ìĻ ľ
ĠìľĦ íĺĳ
Ĳĺ ëĬĶ
ì¼ Ħ
n et
ìĹĪ ëĬĶëį°
Ġê¸Ģë¡ľ ë²Į
į ¸
åħ ĥ
Ġì²Ń ëħĦ
t o
Ġê°Ģ ë¡ľ
Ġw ar
ĠìĦ± ìĿ¸
p r
ĠìĹ¬ ìłĦíŀĪ
Ġìŀł ìĭľ
Ġ ic
Ġp e
Ġë§Į ì¡±
ìħ °
ëĵ¤ ë¡ľ
Ġnh k
ĠíĥĢ ê³ł
ëł ¸
ë¦¬ ë¡ľ
ĠëķĮ ìĹĲëĬĶ
h y
å¤ «
ç ľ
ĠëĤĺ íı
æľ ¬
ì¡° ë¥¼
ê´Ģ ê´ĳ
Ġë¶Ħ íķł
ëĭĪ ìĿĺ
Ġìļ´ ìļ©
Ġì±Ħ íĥĿ
ê°Ģ ìĿ´ëĭ¤
Ġëĭ¤ íģĲ
íĤ¤ ìķĦ
ìĿ´ ëįĺ
ëı ¼
ì° Į
ĠëĮĢêµ¬ ê´ĳìĹŃìĭľ
ĠìķĦ ìĬ¤
Ġíķĺ ë©´ìĦľ
ëıĦ ìĻĢ
Ġê¹Ģ ë¯¼
ë¦¬ íĬ¸
ë¦¬ ê¸°
ĠìĿ´ë£¨ìĸ´ ìł¸
ìĤ¬ë¬´ ìĨĮ
éĥ ¨
ë¡ľ ê°Ģ
Ġìĥģ íĸī
ìĭ¤ ìĿĦ
ì²´ ìĬ¤íĦ°
Ġìŀ¥ ì°©
ëĦ¤ ìĬ¤
Ġì§ģ ìĹħ
ëĶĶ ìħĺ
ìĭľ ìĻĢ
Ġìĺ¤ ìĺ¤
Ġë§Ī ì¸ł
Ġê²½ìļ° ëıĦ
Ġì¤ĳíĻĶ ìĿ¸ë¯¼ê³µíĻĶêµŃ
ä ¾
æ Ģ
ĠíļĮ ë³µ
Ġf re
ë Į
Ġì¦Ŀ ëªħ
as h
ĠìĿ´ íĽĦë¡ľ
íĤ¤ ìĬ¤íĥĦ
Ġì£¼ë ¯¼ë
ì¡Į ìľ¼ë©°
Ġê·Ģ êµŃ
ow n
Ĩ ĵ
Ġíģ´ëŀĺ ìĭĿ
Ġì£¼ êµĲ
ĠìŀĲ ë³¸
æĪ Ĳ
ĠìĤ¬ ë¦½
ê´Ģ ìĿĺ
Ġëĵ± ìĿĢ
Ġìķ¼ ìĬ¤
ëĮĢ ë¬¸
ë¨¼ íĬ¸
Ġëªħ ìľ¼ë¡ľ
Ġë£¨ ìĿ´ìĬ¤
ìĤ¬ ëĭ¨
or k
Ġíķ© ê²©
íĶĦë ĬĶ
íģ¬ ìĬ¤
ëĬ Ħ
al e
Ġì¡ ±
Ġc an
ĠëĮĢ ìĦ±
ìķĦ íĮĮíĬ¸
ĠìĿ´ ê¸°
¥ ¬
Ġìľ µ
ìĹ° ëĮĢ
ëĲĺìĹĪ ëįĺ
Ġì°½ ìĦ¤
ĠìĪĺ ìĹ¬
ĠíĥĢ ìĽĮ
Ġê¹Ģ ëĮĢ
ĠíĽĦ ê¸°
å ĥ
ì²´ ìĹĲ
ĠìĿ¼ë³¸ ìĸ´
ĠìłĦ ìĹŃ
ĠìĬ¤ìľĦ ìĬ¤
Ġf o
Ġì¡° íķ©
Ġë°Ľ ëĬĶ
Ġêµ¬ì¡° ë¥¼
Ġíļ ¡
ĠìĹ° ìĦ
ĠìĿ¸ íķĺìĹ¬
ĠíĮĲ íĥĢ
ĠìĥĿíĻľ ìĿĦ
ĠìĿĺíķ´ ìĦľ
ĠìľĦì¹ĺ íķ´
un t
Ġë¬ »
ĠëıĻ ìŀĳ
Ġs u
ĠíĶĮëŀ« íı¼
íİ Ļ
b a
Ł ´
ê³¡ ë¦¬
ĠëĽ°ìĸ´ë Ĥľ
f m
ĠìĦ ¸ë¶Ģ
ĠíĮĲ ê²°
Ġë½ ĳ
ë²Ī ì§¸
Ġë§¤ ëħĦ
ë°± ì§Ī
Ġê°Ģ ìĿĦ
íķĺëł¤ ëĬĶ
ëĳĲ ê³ł
ĠëĮĢ ê¸°
Ġìķ½ ìĨį
Ġë§ Ľ
Ġì°¸ ìĦĿ
ìĸ ¸ë
Ġì§ ĵ
ê³Ħ íļį
ĠìĿ¸ëıĦëĦ¤ ìĭľìķĦ
Ġì¢ħ ë¡ľ
ĠëłĪ ìĺ¤
ĠëĮĢíļĮ ìĹĲìĦľ
è «
ê°Ļ ìĿĢ
ĠìĹ¬ê°Ŀ ì²łëıĦ
ë©Ķëĭ¬ ìĿĦ
Ġë³´ ìĿ´ëĬĶ
ĠìĿ´ ìĪĺ
Ġë¬´ ìĹĩ
ëĳ Ķ
ĠìķĦë¦Ħ ëĭ¤ìļ´
íĶĦ ìĿĺ
ì§Ħ ìĿĦ
ĠëıĦìĽĢ ìĿĦ
ì¡± ìĿĺ
ê¹Įì§Ģ ìĿĺ
ëĲĺ ìŀĲ
ĠìķĦë Ŀ¼
ë¨¸ ìĬ¤
íĨµ íķ©
ë¹Ħ ê°Ģ
Ġst ar
į ¤
Ġë¯¸ ìĬ¤íĦ°
Ġê³ł ìłĦ
íĮ ©
ë²Ħ ê·¸
Ġë¸Į ë£¨
Ġë°± ìŀĳ
ĠëıĻ ìĿ¼ë³¸
Ġì§ĳ íĸī
ĠëĤĺ ì¹´ë
Ġì§ķ ìĹŃ
ĠìĿ´ ì§Ģ
Ġf w
Ġì¤ĳ ìĿĺ
ĠëıĦ ì¿ł
íķĺëĭ¤ ê³ł
ìĹĪ ì§Ģë§Į
ĠìĤ¬ ë¡Ģ
Ġíķ´ ë¦¬
ĠìķĬ ìĿĦ
ĠìŀĦ ì§Ħ
Ġëĭ¤ ì¼Ģ
ĠìĨį ìĹĲ
ĠëĮĢ ë¦½
ëŁī ìĿ´
ëıĻ ìĿĦ
Ġé Ľ
ëĬ ¬
Ġì§Ħ ìŀħ
ĠéĦ Ń
ĠìŀĲ ë¦¬ë¥¼
ĠíĬ¸ë ŀľ
Ġíĥľìĸ´ë Ĥľ
b r
Ġë¹Ħ ìļ©
ìŀĲ ìĹĲê²Į
Ġê·¸ ê³³
Ġìĸĳ ìĦ±
ìĿ¼ ìĿĺ
Ġe c
Ġíģ Ĳ
ĠìĬ¹ ë¦¬ë¥¼
Ġì¶© ëĤ¨
ìĹĲ ìĿ´
ĠëħĦëĮĢ ìĹĲ
ì§Ī ëŀľëĵľ
ub l
Ġìĭľ ê¸°ìĹĲ
Ġë°©ìĭĿ ìľ¼ë¡ľ
Ġê·¹ìŀ¥ íĮĲ
Ð¾ Ð
ìĹŃ ìĿ´ëĭ¤
ĠìĪĺë¡Ŀ ê³¡
ĳ Ķ
or n
ĠìĨį ìĹĲìĦľ
ĠìĬ¤íĥ ł
ĠìłĪ ëĮĢ
ëĭ¹ ìĿĦ
ĠìŀĲìĿ´ìĸ¸ ì¸ł
Ġë¡ľìĬ¤ìķ¤ìł¤ ëłĪìĬ¤
ë¦¬ ëĭ¤
íĹ ¬
Ġìŀ¥ ë©´
Ġëĵ± ìĹĲìĦľ
m e
Ġìĺ¤ íĶĦ
ĠìĿ¸ ìĽĲ
ì°¨ ë¥¼
Ġê°Ģ ê²©
êµĲ ìĪĺ
ĠìłĦ íĺĢ
Ġë³´ ìķĪ
ĠìĤ¬ëŀĮ ëĵ¤ìĿĢ
Ġë³´ ìŀī
Ġíķľ ìŀĲ
Ġìĺ¤ ë¥´
Ġìĭľìŀĳ íķľ
Ġë³ĳ ìĤ¬
Ġp ol
ĠìĤ¬ëŀĮ ìĿĦ
a u
ìĿ¼ ìĿĦ
Ġëĭ¨ ì§Ģ
ê·¸ë łĪ
ìŀĲ ìľł
ëĵ ¯
ĠëĤĺ ëĪĦ
Ġê·¸ íķ´
Ġì²ł íķĻ
ê³ł ê¸°
Ġë¦¬ ì²ĺ
ê·¸ë ¡ľ
ĠíĽĦ ìĨĲ
ĠëĤĺ ìĻĢ
Ġì±ĶíĶ¼ìĸ¸ìĬ¤ ë¦¬ê·¸
ĠìŀĲ ìĦ¸
ìķ½ ìĿĦ
ĠìĬ¤íĥĢ ëĶĶìĽĢ
Ġê³µ ìĽĲ
ë¬¼ ìĿ´
« ĵ
Ġì¢ħ ì¢ħ
ĠíĶĦë¦¬ë¯¸ìĸ´ ë¦¬ê·¸
ĠëıĻ ëĤ¨
é ļ
Ġê¶Į íķľ
ĠìĿ´ë£¨ ìĸ´ì§Ħ
Ġå¤ ©
g r
íĶ¼ ìĬ¤
Ġíĸīìłķ êµ¬ìĹŃ
ĠìĿ¼ë³¸êµŃ ìľł
ĠêµŃ ë¬´
Ġg en
Ġëħ¹ ìĥī
p er
Ġíĺ ĲìĿĺ
l es
ĠìĦľ ìĸĳ
d er
ĠìĿ¸ ê³µ
íķ´ë ıĦ
Ġk n
Ġëį´ë§Ī íģ¬
p t
ĠìĦ¸ ìļ´
©´ ìĦľ
ìĥģ ìĹĲìĦľ
ĠëıĻ êµ¬
ĠìĻ¸ ìĹĲëıĦ
Ġëī´ ì§Īëŀľëĵľ
ìĭľ íĹĺ
ĠìķĦë ²Ħ
Ġê°ľ ì¡°
ĠìĿ´ê²ĥ ìĿ´
ĠëıĦì¿ ĦëıĦ
íļĮ ìŀ¥
Ġìĭľê°Ħ ìĿ´
Ġm v
ĠëıĻ ìķĦ
Ġë¹Ħ ìľ¨
Ġëħ ¼ë¦¬
Ġê´Ģ ìĭ¬ìĿĦ
ĥ Ī
Ġì¹¨ ê³µ
ĠíĮĮ ê´´
ìķ¼ ìĭľ
ĠìĤ¬ ë²ķ
ìłĦë ¬¸
æµ ·
Ġå Į
ë²Ī íĺ¸
ĠìķĮ íĮĮ
ĠìķĦ ì£¼
ìŀħ ëĭĪëĭ¤
ë¡ľ ìĬ¤
íķ´ ì§Ħ
Ġa ir
Ġëĵľëŀĺ ê³¤
ĠíķľêµŃ ë°©ìĨ¡
¹ Ħë
ĠíĻĭ ì¹´ìĿ´ëıĦ
Ġë³´ ëĬĶ
ĠìĤ¼ ê°ģ
Ġ es
ĠìľĦìĽĲ ìŀ¥
Ġê¸ī ìłľ
Ġìĺģ ìĽħ
Ġìľ ¨
ĠìĿĮ ìĭĿ
ìº ł
Ġíķľ ë²Ī
ĠíĮĢ ìĿ´
Ġë¯¸ëĵľ íķĦë
ë¥ĺ ìĿĺ
êµŃ ìĿ´
Ġìŀ¥ ìĪĺ
ĠëĿ¼ìĿ´ ìĺ¨
ĠìĦł ì¡°
ëĭ¹ ìĿ´
ê³ł ëĵ±
Ġê³Ħìķ½ ìĿĦ
ĠìĿ´ë ªħ
Ġë³´ ê¸ī
Ġì° į
ĠíĴ ĭ
Ġëıħë¦½ ìļ´ëıĻ
p ort
Ġíİĺ ìĿ´ì§Ģ
ìĽĮ ì¦Ī
ĠíĪ¬ ìŀĲ
ìķĺ ìľ¼ë©°
ë¦¬ íŀĪ
Ġìłĳ ìĨį
Ġë³µ ìŀ¡
Ġê³µ ë¶Ģ
ĠìĤ¬ìĭ¤ ìĥģ
ĠìĹ´ë ĮĢ
í ĳ
Ġíıī ìĿ¼
Ġíķľëĭ¤ ëĬĶ
Ġg l
ĠíķĻ ìĪł
Ġì¤Ģ ê²°
Ġì§§ ìĿĢ
ĠìĪĺ ì¶ľ
Ġë²ķ ì¹Ļ
ĠêµĲ ìĤ¬
Ġê·¸ë ¡ľ
Ġì¤ĳíĻĶ ë¯¼êµŃ
ìĬ¤ ì»µ
Ġëĸ¨ìĸ´ ìł¸
ĠìĤ¬ ìľł
ĠìĹ° ìŀ¬
Ġêµ¬ ì²´
Ġë¶Ī ê³¼
Ġì½Ķ ë¦¬ìķĦ
ë¡ł ê°Ģ
è ³
Ġë¯¸ëĵľíķĦë įĶ
ì° į
Ġíķĺ íĸī
Ġë°ľíĳľ íĸĪëĭ¤
ĠíĿ ĺ
ë¬¸ ìĹĲ
ĠëĤ´ ìĹĲìĦľ
ìŀĲ ê¸°
ê· ¼ë
ĠíĻķ ë³´
ĠìĿĺ ìłķë¶Ģ
Ġì¹´ë ¥¼
ĠìłĲ ì°¨
ìĹĨ ëĬĶ
Ġê¹Ģ ìļ©
Ġì²´ ìłľ
ħ ¶
ĠëĳĲ ìĤ°
Ġê¹Ģ ìĿ¼
ĠëĤ´ìļ© ìĿĦ
ì£¼ ìĹĲìĦľ
ĠìŀĲ ìĤ´
íĥĢ ìļ´
Ġìº Ķ
Ġê¹Ģ ì§Ģ
Ġëª© íı¬
Ġìŀ Ń
ĠëĮĢ íķŃ
ìĺ¤ ë¦¬
Ġê°ľ ìĦ¤
ìĺ¤ ìĬ¤
Ġì½Ķ ëĦĪ
Ġë³µ íķ©
ìķ Ħë¡ľ
ì£¼ ê°Ģ
Ġì§ģ ìĽĲ
s s
Ġí ŀĲ
ìĸ´ ìĻĢ
èĪ Ī
ĠìĬ¤ íĤ¤
Ġëĭ ¥íĦ°
ĠìĽ ħ
ë¦Ń ìĬ¤
Ġê²°ìĬ¹ ìłĦ
ëĤ ©
is e
Ġìĭł íĻĶ
ĠìĤ´ ê³ł
Ġìłķ ëıĦìĿĺ
Ġì§Ħ íĻĶ
í ŀĲ
Ġå Ĭ
íĤ¨ ëĭ¤
ìķĪ ìĿĺ
ĠëĮĢ ê·ľëª¨
ĠìĽ ĥ
Ġé »
Ġè ¶Ļ
ĠìĿĳ ìļ©
ä½ ¿
ìĦ¸ ê³Ħ
é Ĥ
od e
Ġìĭľìŀĳ ëĲĺìĹĪëĭ¤
ëĦ ¬
Ġì£¼ìŀ¥ íĸĪëĭ¤
ìĽ °
ª¨ íĨł
åį Ĺ
æ Ľ
ì£¼ ê³ł
ĠìĦ¸ê¸° ìĹĲ
Ġê¸° íĺ¸
Ġíĥľìĸ´ë Ĥĺ
ìĿ´ ìĻĢ
Ġìĭł íĺ¸
ìĶ ¬
ĠíĸĪ ì§Ģë§Į
ëĵľ ìĿĺ
ìķ¼ êµ¬
ĠëĤ´ ê°Ģ
ĠìĿ´ëģ ĦëĬĶ
Ġì¤ĳ ë¶Ģ
ĠëĲĺ ì§Ģ
íħĲ ì¸ł
ĠìłĦë ıĻ
ìļ° ì¹ĺ
íĸĪ ê¸°
á º
ãĤ ¹
Ġì§Ģ ëĤ´
Ġí ĳ
Ġæ Ļ
ìĭ¬ ìĿ´
an n
Ġíķĺ ìľĦ
ĠìķĶ ìĤ´
å ĳ
Ġíı¬ì¼ĵ ëª¬
ĠìĺĪ ìĤ°
ĠíĨµ ìĥģ
Ġp o
Ġì¤ Ħë¦¬
ìķĦ íĤ¤
ê° ĦëĮĢ
ìķĦ ìĦľ
Ġê°ķ ìłľ
Ġë¶Ī ëªħ
ĠëķĮ ìĹĲ
ĠëĤĺëī ĺ
´ë łĪ
ĠìĹŃ ìĿĦ
Ġp a
ëŁ ¼ë
ĠëĮĢìĥģ ìľ¼ë¡ľ
ëį ¸ë
Ġíģ ´ë¦¬
Ġs f
ĠìĹĨ ê³ł
Ġê°Ģ ìļĶ
if e
re am
ĠìłĦ ê³µ
ĠìľĦë °ĺ
ëĵ¤ ëıĦ
ìĤ¬ ìĹĲìĦľ
p a
Ġë§Į íģ¼
è Ĺ
ìĤ Ń
Ġë¹Ħë ¡Ģ
Ġë³¸ ê´ĢìĿĢ
Ġëħ¸ ìĺĪ
ê¹Įì§Ģ ëĬĶ
ìļ° ëĿ¼
Ġê¸° ì¢ħ
Ġë¬´ íļ¨
Ġå¼ µ
Ġê³ł ìľł
Ġê°ĸ ì¶Ķ
ĠëĤĺ ìĦľ
Ġg ro
ĠìĿ´ìłĦ ìĹĲ
Ġb est
Ġë°© ì¶ľ
ĠíĺĦ íĻ©
ìĤ¬ ìĬ¤
r i
ĠíĶĦë¡ľ ìĦ¸
ìĿ´ ìĹĲ
Ĳĺ ê³ł
íĴĪ ìĿĦ
Ġì¤ĳ ë³µ
Ġì·¨ ëĵĿ
ĠëĭĽ íı°
ì¹´ ìĿĺ
Ġíķ© ìĿĺ
Ġë² ¡
ĠíħĮ ìĿ´
Ġíĺķíĥľ ìĿĺ
ĠìĿ¸ ê¸°
Ġë³¸ ê²©
ë ±ħ
Ġíģ´ë ¡ľ
Ġëĭ¨ ìĿ¼
ëĭĺ ìĿĺ
Ġì¶ľ ë§Ī
ĠìľĦ ìĦ±
íĸī ìľĦ
é Į
íĺķ ìĿ´
íħĮ ìĿ´ìħĺ
Ġê°ĸ ì¶ĺ
ìĹ°êµ¬ ìĽĲ
ĠìĨĲ ìŀĲ
Ġa v
ëł ´
Ħ ·
Ġìĺ¤ íŀĪ
Ġë§Ī ì¼Ģ
íķĺê³ł ìŀĲ
ìĤ¬ ëŀĳ
ĠìķĦìĤ¬ íŀĪ
íĦ° ë¯¸ëĦĲ
ĠíĥĪ ì¶ľ
ĠìĿ´ ëĭĿ
Ġê¹Ģ ìŀ¬
ê³ł ë¡ľ
íĥĢ ë¥´
Ġê³ł ë¬¸
at t
ë¹Ħ ì¹ĺ
ìĿ¸ë ĵ¤ìĿĺ
ê³ ¼ë¡ľ
ì£¼ë ¯¼
Ġcom m
Ġì°½ ì¡°
ĠìķĦë ¬´ë
ĠìĿ¸ ê¸°ë¥¼
ĠìļĶ ë¯¸
ĠëĤ¨ ëıĻ
ĠëıĦ ìłĦ
Ġë©Ķ ìĿ´ì§Ģ
ĠëĮĢ ê³µ
ë³ Ħë
ĠíĽĦë ³
Ġìĺ¬ ìĬ¤íĥĢ
Ġê³Ħ íĨµ
Ġë ¡Ŀ
íı¬ ë¡ľ
Ġê°ľ ê´Ģ
ë¬ ¸ëĮĢ
ìĹ¬ ê°Ŀ
ak e
Ġì§ĢëıĦ ìŀĲ
in t
Ġë¹ Ļ
ĠíĪ¬ ìĸ´
çĶ Ł
Ġë¯¸ ì¹ĺ
å® ¶
ìĹ° ìĨį
Ġì¤ĳ ìĦ¸
Ġë ·
ĠíĪ¬ ìŀħ
ĠìĺĪ ë¹Ħ
íĻĺ ê²½
Ġì§Ģ ìĸ´
ìĦĿ ìĿĦ
ĠìĦ¤ì¹ĺ ëĲĺìĸ´
ìĬ¤ëŁ¬ ìļ´
íĻĶ ë¡ľ
Ġë³´ ìĬ¤
Ġìĺ ·
Ġíķľëĭ¤ ê³ł
ëĤĺ ìĻĢ
ĠëıĦ ì¤ĳ
ĩ ¨
ĠìķĦ ìĿ´ìĬ¤
ìĪĺ ìĻĢ
Ġn ot
ĠìĻ¸ ìĹĲ
Ġê²Ģ ì°°
ĠëĴ¤ ë¥¼
Ġë°ĺ ë³µ
êµŃ ìĿĢ
ĠëĤ¨ ìĸĳ
êµŃ ê°Ģ
ìļ° ìĿĺ
Ġë¸Į ëłĪ
olog y
íķ¨ ìĹĲ
ê³ ½
ëħ¸ ìĬ¤
åħ ī
Ġì¼ Ī
Ġìłķ ì§Ģ
Ġh er
íĮ ¬
ĠëģĿ ëĤĺ
Ġìĭ± ê°Ģ
ĠìĻ Ķ
ì§Ģ êµ¬
Ġë® Į
ì Į
ìļ° ê³ł
ìŀ¬ íĮĲ
ar e
Ġíģ °
Ġë¸Į ë¡ľ
ë¬´ë ¶Ģ
ĠêµŃ ê²½
ĠìĦ ¸ë¡ľ
Ġë© ¸ë
Ġìķ µ
ëł¤ ê³ł
ìłĲ ìĹĲ
ĠìŀĪìĹĪ ìľ¼ëĤĺ
ëĵ ¬
Ġë¬¸ ìĭł
Ġë¹ĦêµĲ ìłģ
Ġíķĺ ëĬĶëį°
Ġæ ²
ĠíĿĶ íŀĪ
ê³µ íķĻ
Ġìłģ ìĿĢ
Ġíģ¬ë¡ľ ìķĦ
ī ¯
ê² Ķ
Ġr ec
y l
Ġì¤ĳ ë°ĺ
Ġn et
ĠíĶĦë¡ľê·¸ë ŀĺ
è ²
ĠìĿ´ë §Ī
ĠìĿ¼ ì¢ħ
Ġëĭ¨ ë°±ì§Ī
Ġå ¿
Ġíı¬ íĬ¸
ĠìĭľëĮĢ ìĹĲ
íĸ Ħ
ë²ł ìĿ´ìĬ¤
Ã ¼
Ġê±´ ë¦½
Ġx Ã£
ĠíĮĢ ìĿĢ
Ġé ĸ
Ġê·¸ ìĹĲ
ìķ¼ ìĪĺ
ĠíĬ¹ë³Ħ íķľ
ĠíĿ °
ĠìłĢ ì§Ģ
Ġì¸¡ ë©´
íĽĪ ìŀ¥
Ġë £Į
Ġê°ķìłĲ ê¸°ìĿĺ
ê ¶¤
íĶĦë Ŀ¼
Ġë¹Ħë Ĥľ
ë¦¬ ì½Ķ
Ġëį ®
ĠëĲĺ ë©´ìĦľ
ĠíĸĪ ìľ¼ëĤĺ
ìĬ¤ ëŁ½
ĠìłĢ ìŀĳ
ĠìĿ´ë £¬
ĠìŀĲ ë§¤
Ġìĭľ ìĤ¬
ê·¸ë ŀ¨
Ġê¹Ģ ìĥģ
ĠìķĮ ë°Ķ
Ġìłķ ê¸°
Ġë¬´ íķľ
Ġíķľ ìĸĳ
ëĤ ľëĭ¤
íĨł ëĭĪ
ĠëıĻìĿ¼ íķľ
ĠëĤ´ ìĹĲ
ëłĪìĿ´ ìħĺ
Ġêµ¬ìĦ± ëĲľ
ĠíĿ¡ ìĪĺ
Ġìĭł ìķĻ
Ġê³¼ ìłķìĿĦ
ĠëıĻ íķ´
ëĮĢ ìĭł
Ġå° ¹
Ġë²ł ë¥´
íķĺëł¤ ê³ł
ĠíħĮ ëŁ¬
Ġë ŀľ
ĠëħĦ ê³¼
Ġì½Ķ íĮĮ
Ġìļ© ìĸ´
Ġor g
ĠìĤ¬ ìļ°
ì¹ ¼ë
Ġì§Ģë°© ìĿĺ
d u
ĠìĪĺ ìĨ¡
ĠìĦ¸ ìĽłëĭ¤
Ġìļ° ìĹĲ
Ġa w
ĠëĦ ¥
ìĭľ íĤ¬
ë¦¬ ì¦ĺ
ĠíĶĦë ŀŃ
ĠìĤ¬ìļ© ëĲĺìĹĪëĭ¤
ĠìĬ¤íĥĢ íģ¬ëŀĺíĶĦíĬ¸
Ġë§Ī ìĤ°
å ĵ
ìķĺ ëįĺ
ĠëıĻ ë°©
ìĹ¬ìŀĲ ê³łëĵ±íķĻêµĲ
¼ Ī
Ġì§Ħ ì£¼
Ġë£¨ ë§Ī
ëĲĺìĹĪ ëĬĶëį°
Ġíķľ ëķĮ
Ġë©Ķ ìĿ¸
ëĵľ ëłĪ
Ġæ µ
Ġì²ľ ìĹ°
Ġìĭľê°Ħ ìĿĦ
ì£¼ ìĹĪëĭ¤
Ġíı¬ ìľł
Ġêµ¬ ë¯¸
ã Ĩį
ĠëįĶ ë¸Ķ
Ġìŀ¥ ëĤ¨
ĠìĿ´ìļ© íķľ
ĠëĲ Ĳëĭ¤
£ ¡
ìĦľ ìĹĲ
æ ¼
Ġì§Ģ ë°Ķ
ĠëĤ´ ìħĶëĦĲ
ĠìĥĿ ëħĦ
ê²łëĭ¤ ê³ł
Ġëĵľ ëĿ¼ìĿ´
ëĭ¤ ë©´
ĠìĦ¸ íĬ¸
Ġë³ Ħëªħ
ĠìŀĪìĹĪ ìľ¼ë©°
ê ¶Ĳ
Ġæ ·
ĠíŀĪ ìĸ´ë¡ľ
Ġê·ľ ì¹Ļ
ĠìĬ¤ íĨłë¦¬
ĠìĨĮë¹Ħ ìĹĲ
Ġm et
Ġê³ł ìļ©
Ġë§Į ì£¼
ĠìĥĿ ì¡´
ì¹´ë ¯¸
Ġë¡ľ ë´ĩ
Ġê°Ģ ìĿ´
Ġå ´Ķ
å ¦
ĠìĦľ ìĿ¼ë³¸
Ġìłķ ë³µ
ì²ĺ ìĬ¤
ĠíķŃ ë³µ
Ġë°ĺ ëıĦ
Ġíķľ ìĭł
ĠëĪĦ êµ¬
Ġê¹Ģ ìĶ¨
åľ °
Ġë¸ĮëĿ¼ ìļ´
ĠíĤ ¹
Ġë¶Ī ë²ķ
íģ¬ ëĬĶ
íŀĪ ì½Ķ
Ġìĸ¸ ìłľ
¹ ł
ê²½ ìĺģ
ĠìĪĺëıĦ ê¶Į
ĠëıĦë §Ŀ
ë¯¼ì£¼ ìĹ°íķ©
ì½Ķ ìĬ¤
ê³ ĦëĮĢ
Ġëĭ¤ ë¦¬
Ġíĥľ êµŃ
ìķĦë Ŀ¼
ë¡ł ìĿĦ
ë¯ ¸ë¡ľ
ĠìĨĮëł¨ ìĿĺ
ĠìļĶ ìĨĮ
Ġíķľ íĻĶ
Ġì§Ģë°© ëıĦ
Ġíķµ ìĭ¬
Ġê°ķ ìĿĺ
ĠíĻķ ìĭ¤
Ġm hz
ĠìĦ¸ê³Ħ ìĹĲìĦľ
Ġë¬¼ë Ł¬
Ġë§¡ ê³ł
ì§Ģ ë©´ìĦľ
ì§Ħ íĿ¥
Ġì¹´ë ¥
Ġë©¸ë §Ŀ
Ġê°Ī ëĵ±
Ġì°¸ìĹ¬ íķĺìĺĢëĭ¤
è ı
ëĿ¼ë ¦¬
ìłģ ìĿ´ëĭ¤
Ġëª¨ íĹĺ
ëŁī ìĿĺ
ĠëĮĢ ìĽĲ
ĠëıĻ ìĿĺ
us e
ĠìĬ¤ ë§ĪíĬ¸
¼ë ĵľ
Ġëªħ ëĭ¨
ĠìĿĺ íķĻ
ĠëħĦ ê²½
Ĥ ´ë
Ġíķľ ê¸Ģ
ĠìķĮ ê²Į
ĠìŀĪ ìĿĮ
ë¯¸ ìĪł
ëįĶ ëĿ¼ëıĦ
Ġë¬´ë į¤
Ġë°© ìĤ¬
ĠìĿ¼ë³¸ ìĹĲìĦľ
ë³´ëĭ¤ ëĬĶ
ĠìĻĦë £Į
Ġëª¨ ë°Ķ
Ġë¶ģ êµ¬
ë¡ľ ëĤĺ
Ġíķľ ë°ĺ
ìħ Ī
ĠìĿ´ìļ© íķ´
łĪ ìĬ¤
ê² ł
Ġê¸Ī ìĨį
Ġê³µ íĻĶêµŃìĿĺ
ìĹħ ìĿĦ
ëĭ¤ ë¥¸
ìĭľ ì²Ń
a il
Ġì°° ìĬ¤
b e
Ġìłľ ì¶ľ
ĠìĹŃ ìľ¼ë¡ľ
Ġìĺ¤ ëŀľ
ë¹Ħ ìĿĺ
ĠíķĻ ë¬¸
Ġìĸĳ ìŀĲ
Ġìĭł ì²Ń
ìķĦë Ĥ´
ì ´
Ġë¯¸ ìĵ°
Ġíı¬ ê¸°
Ġì¶Ķ ì¸¡
Ġê±° ëĮĢíķľ
Ġë¶Ģ íķĺ
Ġin f
Ġê²½ ê³Ħ
ĠìŀĲ ëĬĶ
Ġë¯¸ëĭĪ ìĭľë¦¬ì¦Ī
ë°Ģ ë¦¬
ĠìĺĪ ìĥģ
łĪ ìĿ´ìħĺ
å ĴĮ
ĠìĿ´ ìĿµ
ĠíķĻ ìĬµ
Ġíķ´ ìĦľ
ìķĦë ĵľ
Ġê¹Ģ ìĪĺ
i el
Ġíķĺ ë©´
ëŁ ´
Ġíģ¬ ëłĪ
Ġì į¨
ìĭľ ìĬ¤íħľ
Ġì§Ģ ëĭĮ
Ġìĸ´ë ĶĶ
ì² ¨
ĠëıĻ ìĸĳ
Ġë¦¬ì²ĺ ëĵľ
Ġæ ´
Ġì§Ģ ëĭĪ
ĠìĽĶ íĻĶ
Ġë¶Ģ ìĥģ
ĠìķĪ ëĵľë¡ľ
ìĿ´ ëŀĢ
ìħ ī
ì°½ êµ°
ìĦł ìĹĲ
Ġe t
ê°ľ íĺģ
Ġêµ¬ ìĨį
a x
Ġc p
ĠìĥĿ ê¸´
ĠìĺĪ ëĬ¥
êµŃë¯¼ íķĻêµĲ
ĠìĦ¸ ë¦¬ìĹĲ
ãģ ª
Ġìĭľì¦Į ìĿĦ
Ġì§ĢìĹŃ ìĿĢ
ë¯¸ íĦ°
ĠíĮĮ ëĿ¼
Ġì½ ¤
Ġìĭ¤ ìłĲ
ĠíĻķ ìĿ¸ë
¬´ë Ŀ¼
Ġì½Ķ ìĬ¤
ãĥ «
Ġê±° ìłĪ
ĠìłĢ ìĪł
Ġë§ĪìĿ´íģ¬ë¡ľ ìĨĮíĶĦíĬ¸
Ġìĺ¤íŀĪ ëł¤
ĠíĶĦëŀĳ íģ¬
ìĿ´ìĹĪ ìľ¼ëĤĺ
ĠìĹŃìĤ¬ ìĥģ
Ġê°Ģ ìĬ¤
ä¸ ī
ë ļ
Ġ ent
ìĪĺ ë¡Ŀ
Ġê¹Ģ ì§Ħ
ow er
Ġíķ ĳ
Ġe v
ĠìĥĿ ê²¨
ĠíĮ¨ ìħĺ
ë®¤ ëĭĪ
ĠìĹ¬ ìĪĺ
Ġpr ess
ìĿĺ ìłķ
ĠìŀĦëªħ ëĲĺìĹĪëĭ¤
ê±° ìļ´
ë¯¸ ìĿĺ
Ġìŀ¡ ì§Ģ
íĦ° ìĬ¤
ëł¥ ìĿĢ
¸ë Ĥĺ
ĠíĻĶ ìŀ¥
Ġj ap
Ġìĺ¤ ë¦¬ì§Ģ
² ½
ëĳ ĳ
ĠìºĲ ìĬ¤íĮħ
Ġìķŀ ìĦľ
íģ´ ë¦¬
Ġëħ¼ ìŁģ
ìĹĲ ë¥¸
íĥĢ ëĤĺ
ê¸° ë¡Ŀ
Ġìľł íķľ
ì¡° ê°Ģ
in al
Ġd j
Ġê¹Ģ ê²½
ĠíĸĪ ê³ł
ĠìĹ°ìĦ ¸ëĮĢíķĻêµĲ
Ġíģ´ë łĪ
è¡ Į
ĠêµĲ ë¥ĺ
íĮĮ íģ¬
ìĭľ íĥĢ
Ġchr ist
éĸ Ģ
ì± Ħë
ĠìĪĺ íĽĪ
ë¶ģ ëıĦìĿĺ
Ġë¹ħ íĨł
ĠìĬ¤íĭ° ë¸Ĳ
ĠëĲĺ ë©´
ë¡ľ ë¡ľ
Ġì§Ģ ê¸ī
ĠëĮĢ ë¦¬
ĠìļĶ ìĥĪ
Ġì²´ ê³Ħ
ìļ© ìľ¼ë¡ľ
å ²
Ġìĺ¤ ì¹´
Ġìĸ´ë łµ
s k
ĠìĽĲ ìĨĮ
Ġëħ¸ ìĬ¤
Ġtr ans
Ġcon c
ìĹ¬ ìĦľ
Ġì£¼ ê³ł
æľ ĥ
Ġìłķë¶Ģ ê°Ģ
ëĲĺìĹĪ ì§Ģë§Į
ĠìĹ° ìĤ°
Ġä ½
ìĦ¸ ìļĶ
Ġì¡°ìĦłë¯¼ì£¼ì£¼ìĿĺ ìĿ¸ë¯¼ê³µíĻĶêµŃìĿĺ
ĠëĤ¨ êµ¬
å¸ Ŀ
ĠëĤĺ ì¹ĺ
Ġíĳľ ë©´
ìĸ¸ ìĿĦ
Ġìķ½ ê°Ħ
íħ ľ
¸ë Ł¬
Ġhtt p
ìĬ¬ ë§ģ
Ġìļ´ íķŃ
ĠíĻĶ ê°Ģ
ĠìĤ° ë§¥
ìĻķ íĽĦ
ëĿ¼ ê°Ģ
ĠëķĮ ìĿĺ
ĠëĿ¼ ìĿ´íĬ¸
ĠìĭĿë¯¼ ì§Ģ
ĠëłĪ ìķĮ
æ ¥
ëĭ¹ ìĹĲ
ĠíĮĮ íģ¬
Ġë°ľìĥĿ íķľ
Ġn g
ë°Ľ ìĿĢ
ìĹĲê²Į ìĦľ
ëĵľ ìĭľ
Ġë¯¸ íĦ°
Ġìĭ¬ ê°ģ
Ġì¡° ì¢ħ
ĠëĮĢ ëĮĢ
êµŃ ìŀ¥
ëı Ħë¦¬
ĠëĿ ł
Ġìĺ¤ íĤ¤
ìłľ ìĹĲ
ä¸ ĸ
m er
íĢ ´
ĠìĿ´ë ²¤
ì¸ł íĤ¤
ë¨¸ ëĭĪ
Ġëľ ¨
ì§Ħ ìĿĺ
Ġh y
Ġì²ľ ë¬¸
Ġb ro
³ ¼
ĠìĦł êµĲ
Ġë®Į íĹ¨
íĶ Ħë¥¼
ie w
ìłķ ìĿĢ
ìĺ Į
ĠìĿ¸ ê¶Į
ì¶ °
ĠìĿ´ìķ¼ ê¸°ë¥¼
ë¦¬ ìĭľ
ç Ł³
Ġë§Ī ì¹ĺ
Ġå Ľ
ĠêµŃ ë¯¼ë
ĠíĽ ¨
Ġíķ´ëĭ¹ íķĺëĬĶ
ìĿ¸ ìĹĲ
ë²Ħë ĵľ
ĠëĮĢ ëŀµ
íĥĢ ì¹´
Ġì£¼ ê´Ģ
ĠëıĦ íĺ¸
ĠìľłëŁ½ ìĿĺ
os e
Ġì£¼ ëĭĪìĸ´
Ġìłľ ìĿ¼
ì¡° íĮĲ
ì£¼ ìĹĲ
Ġì¡° ë³Ħ
Ġíķľ ìĦ±
Ġt bs
ĠíĻĶ ìĿ´íĬ¸
ĠìłĦë ¶Ģ
íİĺ ìĿ´
ìħ Ģë¡ľ
c o
Ġc j
ê´Ģ ê³Ħ
è §
ĠìŀĲìľł íķľêµŃëĭ¹
Ġê·¸ë ĵ¤
ìłľ ìŀĳ
ìłĲ ìĿĢ
Ġë©Ķ ìĭľ
ĠíĺĦìŀ¬ ê¹Įì§Ģ
ì¡ ´ë
Ġê³łëł¤ ëĮĢíķĻêµĲ
ç ´
ê²Ģ ì°°
ĠìķĦë ıĻ
Ġë°ķ ìĺģ
çļ ĩ
ĠëıĻ ìĽĲ
ìĿ´ìĹĪ ê³ł
Ġì¡° ìŀĳ
Ġë¡ľ ì¼ĵ
Ġì¤Ģê²° ìĬ¹
Ġê³µ ìĹħ
ĠëĦĵ ìĿĢ
Ġì·¨ ìĨĮ
ìŀĲ ëĵ¤ìĿĦ
ĠíĿ ī
íıī êµ°
ĠìłĲ ìĹĲìĦľ
Ġë¸ĮëĿ¼ì§Ī ìĿĺ
ëŀ Ħ
ê±´ ìĦ¤
ĠíĻĺ ìĬ¹
Ġìķŀ ìĹĲ
i et
Ġë¦¬ ë²Ħ
Ġë³Ģ íĻĺ
Ġê°ĢëĬ¥ ìĦ±ìĿ´
ĠåĮ Ĺ
ĠìĹ° ìķł
ì²ľ ë©´
íķĺëĭ¤ ëĬĶ
Ġë§¨ ì²´ìĬ¤íĦ°
íĿ ¡
Ġêµ¬ ë¡ľ
Ġë©Ķ ëĭ¬
Ġíģ¬ ëĿ¼
Ġì§Ħë ³´
Ġë²łìĿ´ìĬ¤ ë³¼
Ġíıī íĥĿ
ëĶ °
ìĬ¤íĬ¸ë Ŀ¼
Ġë¬´ ìĤ¬
ĠìŀĪìĹĪ ëĬĶëį°
is m
ĠíĽ¨ ìĶ¬
ĠìŀĲ ëħĢ
ê¼ ¬
Ġìľłëªħ íķĺëĭ¤
ì´Ŀ ë¦¬
ëĨ Ģ
Ġre v
íı¬ ìĬ¤
ĠêµĲ íĻĺ
Ġê³łìĨį ëıĦë¡ľ
ëĭĪ ì¹ĺ
Ġë©Ķ ëª¨ë¦¬
ad e
ĠëĮĢíĳľ íĮĢ
íĺķ ìĿĢ
Ġìĥģëĭ¹ íŀĪ
Ġæ ±
Ġen g
íĪ °
Ġì «ĵ
ìĭł ìĿĢ
ëł Ĳ
Ġíķ´ ìĤ°
Ġë§Ī ì¹¨
ìķĪ ìĹĲ
Ġì£¼ ìŀ¬
Ġíİĺ ìĿ´
ĠëĬ¥ ëł¥ìĿĦ
ìłģ ìĿĺ
ĠêµŃê°Ģ ìĿĺ
Ġê·¸ê²ĥ ìĿĦ
Ġíķ© ìĦ±
ĠìĨĮ ë¦¬
Ġê¹Ģ ê¸°
Ġë¹ł ë¥¸
Ġê°ľë´ī íķľ
ì´Ŀ ëıħ
ì¼ °ëĭ¤
Ġwe b
Ġíĺ¸ìĦł ê³¼
ĠìĹ¬ê°Ŀ ì²łëıĦìĿĺ
Ġëī ´ë
ĠìĤ¬ ë§Ī
ir l
Ġ Î
ĠëĤł ê°ľ
ĠìĿ´ ìĶ¨
Ġìĸ» ìĹĪëĭ¤
Ġh ar
Ġìĭ±ê°Ģ íı¬ë¥´
Ġê°Ħ ëĭ¨
ĠìĤ¬ìļ© íķĺê³ł
il d
ìłĦ ìľ¼ë¡ľ
Ġê·¸ëŀĺ íĶ½
Ġìĺ¤ë¦¬ì§Ģ ëĦĲ
ìļ° ì¡°
Ġê·¸ê²ĥ ìĿĢ
Ġt ime
Ġìŀ¥ ìĭĿ
ë¹Ħ ìĭľ
Ġç ¥
Ġíģ¬ë¡ľ ìĬ¤
Ġì¶© ë¶ģ
ĠëıĻ ìĦ±
Ġê¸°ë°ĺ ìľ¼ë¡ľ
æ Ħ
Ġì£ Ħ
Ġëĭ ´ë
ìĪĺ ìĹĲ
Ġìłķ ìĽĲ
ĠìŀĲ ì²´
Ġw ill
ĠíĻľ ë°ľ
Ġhe l
Ġin t
ìĤ¬ ìĿ¸
ĠìłĦ íĽĦ
ĠìĨĮë¹ĦìĹĲ íĬ¸
ìĿ¸ ìłĢ
ìŀ¥ êµ°
ë¥´ íĥĢ
Ġëª¨ íĨł
ĠëĬ ¦
Ġíħį ìĤ¬ìĬ¤
ĠíĻĶ ìĤ°
Ġìĺ¤ëŀĺ ëĲľ
íĭĢ ëŁ¬
Ġìĥģ ìĬ¹
ĠëķĮ ë¶ĢíĦ°
Ġì°¨ ìĿ´ê°Ģ
ĠìķĮ ë¦¬
Ġì¶Ķìłķ ëĲľëĭ¤
Ġê±° ëŀĺ
ation s
Ġìħ ĭ
Ġê¸°ìŀ¬ ëĲľ
ĠëĮĢ ê²°
ĠìĬ¤ ì¹´ìĿ´
Ġë²Į ìĸ´
Ġë¯¸ëĤĺ ë¯¸
ħ Ĳ
ë²ł ìĬ¤
ĠìĤ¬ëŀĳ ìĿĺ
íĬ¸ë ŀĻ
ĠìĤ¬ê±´ ìĿĦ
Ġë°° ì¶ľ
Ġs ec
ĠìĿ¸ ì¢ħ
ëģ Ķ
ĠìĿ´íĽĦ ìĹĲëĬĶ
Ġì²Ń ëĤĺëĿ¼
ĠìĦ± ëĬ¥
Ġëıħ ìŀĲ
Ġê±´ ì¡°
Ġte xt
Ġë¹Ħ ìĥģ
ĠìĿ´ìľł ëĬĶ
ĠíĿ¬ ìĥĿ
Ġëª¨ ëĵľ
ëħ¸ ëıĻ
Ġêµ ´
Ġg b
j ect
ĠìĬ¤ ì¼Ģ
Ġì§Ģ ëĤ¸
íĺ¸ ìĿĺ
Ġê°ľìµľ ëĲľ
Ġëª¨ë°Ķ ìĿ¼
Ġë°©íĸ¥ ìľ¼ë¡ľ
Ġë§ĲëłĪìĿ´ ìĭľìķĦ
ĠíķĺìĺĢ ê³ł
Ġinter n
ĠíĥĢ ìŀĦ
Ġww w
Ġë§Ī ìĬ¤íĦ°
Ġç ¦
ç Ľ¸
Ġìļ© ìĤ°
ì§ Ŀ
Ġë³´ ìĺĢëĭ¤
Ġê°Ĳ ìĤ¬
ìłĦ ìĿĢ
ëŁī ìĿĢ
Ð »
Ġìĺ¤ ëĭ¤
ê¶Į ìĿĢ
ĠìĿ´ íĨł
ĠìĬ¤ íĬ¸ë¦¬
ìĦľ ê°Ģ
ë¹ ĦëĬĶ
ĠíĻĶ ìŀ¬
ĠìĿ¸ ê¸°ê°Ģ
Ġìłľ ìĸ´
Ġv al
íĻĶ ëĬĶ
Ġìĭł ì¶ķ
Ġç İĭ
Ġê¸°ìĹħ ìĿ¸
ĠìĹĦ ì²Ń
ìĽĶ ëĵľ
ìĿ¼ ìĿĢ
ìľł ìĤ°
ìĥĿ ë¬¼
ë¹Ħë ĶĶìĺ¤
ĠëĮĢ ìĿĺ
ĠìĿ´ ìĿĢ
ìģ ľ
Ġë°ĶìĿ´ ìĹĲë¥¸
Ġì¢ħë¥ĺ ìĿĺ
Ġíģ¬ ë£¨
ĠíĨµíķ´ ìĦľ
Ġam er
ĠìĪĺ ì§ĳ
Ġì²ĺìĿĮ ìĹĲëĬĶ
Ġëĵ±ìŀ¥ íķľëĭ¤
Ġìĭľ ìĿĺ
ëĭ¹ íĸĪëĭ¤
ĠìŀĦ ìĿĺìĿĺ
Ġê·¸ ìĹĲê²Į
ĠíĸĪ ìľ¼ë©°
Ġìĺ¤íİĺ ëĿ¼
ìľ Ļ
Ġìĭł ìĤ¬
ì½Ķ ìĿĺ
Ġê²° ê³¼ë¥¼
ë°Ľ ìķĦ
ä¹ ĭ
ĠíĨłë¡ł íĨł
Ġë¯¸ ìĬ¤
Ġë°ĺ ëĵľìĭľ
ĠìĻķ êµŃìĿĺ
ëĭ¨ ìľ¼ë¡ľ
Ġë¬´ ìĿ¸
Ġê³Ħíļį ìĿĦ
ãĥ ©
ĠìĿ´ëģĮ ê³ł
Ġìļ° ë¦¬ëĬĶ
ë°Ķ ëĿ¼
° ·
è Ļ
åŃ¸ æł¡
ë¦ Ħë
Ġkore a
ìŀ ł
ĠêµŃ ê¸°
ë³µ ì§Ģ
ĠìķĦë ¬´
ĠíĮĲíĥĢ ì§Ģ
Ġíģ¬ ê¸°
Ġì±Ħ ìļ©
Ġì§Ī ë³ĳ
ĠëıĦ ìĻĢ
íĬ¸ë ĦĪ
Ġì§Ģ ë¶ķ
Ġè ¾
Ġì¤ĳ ìĿ¸
Ġë ŀĢ
ìĦł ìľ¼ë¡ľ
ì¡° ì§ģ
ĠìĬ¤íħĮ ìĿ´ì§Ģ
Ġìĭ¬ ìĤ¬
ë¥´ë ĵľ
ìĿ¼ë ĵľ
ëł Ľ
Ġë© ¸
ĠìĺĪ ìĪĺ
ĠìĹĲëĵľ ìĽĮëĵľ
Ġå¤ ª
ĠìĹ°ê¸° ëĮĢìĥģ
Ġìľł íĬľ
ìĭľíĤ¨ ëĭ¤
ìĪł ìĿĦ
Ġê±° ì§ĵ
ĠìĤ¬ëŀĳ ìĿĦ
Ġì§Ģ íĤ¤
Ġê¹Ģ íı¬
ê³¡ ëıĻ
ĠíĨµ ìłľ
Ġë¶Ģ ìŀ¥
Ġë³´ ìŀ¥
f c
Ġë¶ģ ìĦľ
Ġì½ĺ ìĬ¤íĥĦ
ĠíĻį ë³´
Ġì ¾Į
ĠìĦ¸ê³Ħ ìĿĺ
ìĬ¬ ëŁ¬
ber t
ìĨĮ ìĦ¤
Ġìĺ¤ ìĿ´
Ġæ Ĺ
ĠìĿĺ ìĥģ
Ġê¾ ¸
Ġìĥģ íĴĪ
ìĥī ìĿĦ
Ġë¬ µ
Ġê³µ íĨµ
Ġå ±
è ĭ
Ġë°ľë§¤ ëĲĺìĹĪëĭ¤
Ġk o
Ġìļ´ ìłĦ
Ġt w
íļĮ ê°Ģ
ê²Ģì°° ì²Ń
ëĦ ¨
íİĺ ìĿ´ìĬ¤
Ġìķ¤ ëĵľ
Ġì§ Ĳ
ëĤĺ ìĿĺ
ĠíĽ Ĺ
ì°¨ ê°Ģ
æĶ ¿
Ġì ĵ
ìĬ¤íĭ° ë²Į
ĠëĮĦ ìĬ¤
ì¦Ī ì¹´
Ġìĭł ë¢°
ĠìłĦ íĮĮ
Ġìĥģ ë¥Ļ
ĠìŀĦ ê¸°
åĲ İ
Ġê·¸ëŁ° ëį°
ê°Ħ ìĹĲ
Ġy e
ìĩ ł
ì§Ģ ë©°
ol l
ãĤ ĭ
Ġy o
Ġë¶Ģ ì²ľ
Ġì£¼ë ĳĶ
ĠëĵĿíĳľ ìĪĺ
ĠëĿ¼ê³ł ëıĦ
Ġìŀ¬ ê°ľ
Ġíı¬ì§Ģìħĺ ìĿĢ
Ġì§ĢìĽĲ ìĿĦ
ĠìľĦíķ´ ìĦľëĬĶ
Ġê°ľ ë§ī
Ġìŀ¥ êµĲ
íİĺ ë¥´
Ġë³´ ìķĦ
Ġë°ĺ ìĺģ
Ġë³Ģê²½ ëĲĺìĹĪëĭ¤
Ġt op
Ġëį §
íŀĪ ëĬĶ
Ġé ĥ
ĠìĹ° ë£Į
ç ©
ĠíĶĮëłĪ ìĿ´ìĬ¤
ë£ ©
ĠìĹ¬ ìĻķ
Ġë°Ľ ì§Ģ
ĠìķĦë ¯¸
Ġë¶Ļ ìĹ¬
æ ģ
Ġìĺģ ìŀħ
ĠìĿ´ìłĦ ìĿĺ
h er
ar k
ĠìļĶë¯¸ ìļ°ë¦¬
ì¦Ŀ ìĿĦ
on t
Ġëªħ ìĿ´ëĭ¤
ĠìĬ¹ ê°Ŀ
Ġë°ľíĳľ íķľ
Ġr es
Ġs oc
ìĺ¤ ìĿĺ
ìĬ¨ ìĿĢ
y e
ç µ
Ġar ch
Ġë »
Ġìľ ĦëĮĢ
en g
Ġp op
o od
ĠìĦľ ë²Ħ
ĠçĻ ½
ìķ Ħë¥´
Ġë²¡ íĦ°
ìļ´ íĬ¸
ĠìĭĿ íĴĪ
ì»¤ ìĬ¤
an a
Ġìľł ìĦ±
ĠìĪ ²
Ġé Łĵ
Ġê¹ ĬìĿĢ
ìĪĺ ìĤ°
Ġì§Ģ ì¼ľ
íĮĲ ìĿĦ
Ġìĺģ ê´ĳ
Ġìļ° ìłķ
æ° ´
êµŃ ìĿĦ
Ġë¸Į ëĿ¼ë
le y
Ġë¯¸ êµ°
Ġê°Ī ëĿ¼
Ġë¶Ģ ìĨį
ìĹ°ìĨį ê·¹
Ġì¶ľ ë²Ķ
Ġì£¼ ìłľê°Ģ
Ġê°¤ ëŁŃ
ĠëıĦ ëĭ¬
Ġë¬´ ìĭł
Ġê¸° ìĥģ
ĠìĿ¼ë³¸ ìĹĲ
ì¿ł ìĬ¤
Ġì ³
ĠëĤ¨ ìĿĢ
Ġëį ´
Ġíİ¸ ìĿĺ
Ġìłķ ìĪĺ
Ġìĵ° ëĬĶ
Ġíı¬ìľł ë¥ĺ
f t
ë° ¥
ìĭľì¼ °
ĠìĪĺ ìĦĿ
ìļ° ìĹĲ
ĠíĽĦ ìĹĲëĬĶ
ä» ģ
ĠëĤ¨ ìĦľ
ĠìĽ¨ ìĬ¤íĬ¸
Ġé ķ
ĠìĤ¬ ê°Ģ
Ġëĳĺ ì§¸
Ġê° Ķëĭ¤
ĠìĤ¬ ìļ°ìĬ¤
Ġë¹Ħë ¡Ŀ
Ġê³ł ìĭľ
Ġê²½ìļ° ëĬĶ
Ġê¸° êµ¬
è ©
ĠìķĦë łĪ
íİ ¸ë
Ġìĭľ ëª¨
Ġê³ł ë²ł
Ġcol or
Ð ¹
Ġê³µ ìĿĦ
Ġë°± ìłľ
Ġê± ¸ë
Ġmv p
Ġëĭ¨ ìľĦ
ĠíĽĦ ìĨį
æĺ Į
i us
ëĮĢ ìĻĢ
ĠìĤ¬ íĥľ
ĠìĿ´ê²ĥ ìĿĦ
ĠíĦ ¸
Ġíģ¬ ë¦¬
ì¡° ëĬĶ
è ¼
íı¬ êµ¬
m l
Ġm ag
Ġd s
ì¶ľ íĮĲ
Ġêµ¬ìĦ± ìĽĲ
ì¦Ī ëĭĪ
ĠëłĪìĿ´ ë¸Ķ
Ġíķĺ ìļ°ìĬ¤
ĠìĥĪ ìłķì¹ĺ
íĨ ¡
Ġë©´ ìłģìĿĢ
Ġíĺ¼ë ŀĢ
ı ħ
Ġíİĺ ìĿ´ìĬ¤
ĠìĿ´ìĤ¬ ìŀ¥
Ġìĭľ ê²Į
Ġíķ´ ìłľ
Ġë¬´ ê²Į
ë° ĸìĹĲ
Ġë°ľ ìĿĮ
ìķ¼ ìĿĺ
ìĬ¬ ëĿ¼ë
ut e
¯ Ķ
ĠìłĦë ©´
ìĥģ íĥľ
Ġìłľ ëĮĢë¡ľ
ĠìłĦìŁģ ìĿĦ
Ġë§Ī íĭ´
ĠìĦľìļ¸íĬ¹ë³Ħ ìĭľìĿĺ
ìĭĿ ìľ¼ë¡ľ
ë¥´ë ©°
Ġì²ł íķĻìŀĲ
Ġjap an
Ġm at
Ġë®¤ì§ģ ë¹ĦëĶĶìĺ¤
Ġì´Ŀ ëıħ
ĠìłĦìŁģ ìĿ´
ĠìĿ´ë¥´ ëĬĶ
ĠìĪĺ ëª©
Ġå ¥
ĠìĬ¤ íĶĦë
Ġê³³ ìĹĲìĦľ
ê°Ģ ìĬ¤
ĠíĮĢ ìĿĦ
ë¦¬ ìĸ´
¸ë Ŀ¼
ĠìĦľìļ¸ ìĭľ
Ġíĸ¥ ìĥģ
Ġt ill
Ġç Ľ
ĠìķĦë ©Ķë¦¬ì¹¸
Ġì²ľ ë¬¸ëĮĢ
f er
Ġëľ» íķľëĭ¤
ê¸° ìķķ
ĠìĹĨëĭ¤ ê³ł
Ġl ife
Ġëľ» ìĿĦ
ĠìķĦìĿ´ ëĶĶ
ìļ°ì¡° ìĹ°ìĥģ
Ġæ ³
ĠíĨł ëª¨
Ġìłľ ì£¼ë
Ġìŀ¬ ë£Į
íģ´ë łĪ
ë¥´ë §Į
ëĮĢ ìłĦ
ë¶Ģ ìĻĢ
Ġë¹¼ ìķĹ
ç Ļ
Ġch ar
ç ķ
ìĿ´ ë¡ľ
Ġíı¬íķ¨ ëĲĺìĸ´
ĠìĿ¼ ìĿ¼
Ġìŀ¥ ìķħ
íĺķ ìľ¼ë¡ľ
ë°Ľ ê³ł
Ġìĭľ ê°Ģ
Ġst e
ìĭľ ìĬ¤ì½Ķ
ĠìķĦ íħĮëĦ¤
Ġë°©ë²ķ ìĿĦ
Ġíķ´ ìĥģ
Ġç Ħ¡
ĠíĦ° ëĦĲ
ì²ľ ë¦¬
Ġë¶Ģ ë¥´ëĬĶ
Ġëĭ¤ë¥´ ëĭ¤
Ġë°Ķ ê¿
ì¢ħ ìĿ´
ì¹ĺ ë¡ľ
Ġê¸Ī ìļĶìĿ¼
Ġst ud
ìŀĲ ìĽĲ
íĺ¸ ê°Ģ
ìĻľ ëŀĢ
ĠëĮĢ ë¹Ħ
Ġêµ° ìĿĺ
ë§ ·
i en
ìľ¼ë ł¤
ëıĻ ìĿĺ
Ġê²ĥ ì²ĺëŁ¼
Ġë³´ ê´Ģ
Ġíıī ìķĪ
Ġíļ¨ ìľ¨
ĠìĨį ìĿĺ
Ġê²° ë°©
ĠìĤ¬ë§Ŀ íķĺìĺĢëĭ¤
Ġí ŀĻ
Ġt y
íĭ° ìĬ¤
Ġì£¼ ìĦĿ
Ġê¸°ìĪł ìĿĦ
ĠíĥĲ ìĤ¬
Ġìĭł ìĿĺ
Ġìĭ± ìĸ´
ĠìĦ¸ë¥´ë ¹ĦìķĦ
Ġc a
Ġn ational
ħ ìĬ¤
ê°Ģ ëĿ½
ìŀ¥ ìķł
íĨł ìĬ¤
Ġn c
í Ĥ´
ĠìķĦë ¹ł
ĠëĤ¨ ìļ°ì£¼ìĹ°ìĥģ
Ġì¶Ķ ì²ľ
ĠíķŃ ìĦ±
í į
ı Ħë¡ľ
ĠëĳĲ ìĹĪëĭ¤
ĠìĿĺ íĺ¹
ì§Ģ ìŀĲ
Ġìĸ´ëĸ ł
Ġê´ĳ ë³µ
Ġíģ ´
ëĭ¤ ë¦¬
e k
ĠíĽĹ ëĤł
ł Ģëĭ¤
Ġé Ģ
ìĨĮ ìĹĲìĦľ
ëł¥ ìĿĺ
ëĵ Ń
ì¹´ íĥĢ
Ġëĭ¤ ëĭ¤
Ġëħ¸ë¥´ ìĽ¨ìĿ´
ĠìĺĪ ì¸¡
Ġë¶ģ ëıĻ
ł ĺ
ĠëħĦ ìĹĲìĦľ
Ġë§¤ ëĭĪ
ë²ķ ìĹĲ
ìŀ İ
ĠìĤ¬ ëĥ¥
íķľ ìĿĺ
Ġg irl
ĠêµŃ íĨł
ĠìŀĦì§Ħ ìĻľëŀĢ
ìĦ± íĻĶ
Ġëĭ¹ ì´Ī
Ġê·¸ë¦¬ ìĬ¤ìĿĺ
Ġê°ģê°ģ ìĿĺ
Ġintern ational
Ġë³´ë Ĥ¸
ĠëĤ´ ìĿĺ
Ġê¸°ë¡Ŀ íķĺìĺĢëĭ¤
ë§Ī ìĿĺ
ĠìĤ¬ê±´ ìĿ´
Ġëªħ ëªħ
he l
Ġë°ĺ ë°ľ
Ġìķŀ ëĳĲê³ł
Ġm ac
Ġìĭł íķĻ
ĠìĭľëĤĺ ë¦¬ìĺ¤
Ġëĵ± íĮĲ
ĠìĨĮìŀ¬ ì§Ģ
Ġì»¤ ë®¤ëĭĪ
Ġd u
Ġc b
Ġë³´ë ĥĪëĭ¤
ĠìĦł ë³´
ĠìĺģíĻĶ ìłľ
Ġì°¨ ê´Ģ
Ġë¶Ħë į°ìĬ¤
æī Ģ
Ġf il
ãģ Ł
ĠìĽ¨ ìĿ¼
Ġê¸° ëĮĢ
ĠìĬ¤íĶ¼ë ĵľ
ĠíĺĦ ì§Ģ
ĠìķĦíĭ° ìĬ¤íĬ¸
ĠìĦ¸ ìĿ¸íĬ¸
ê³µ ì£¼
ĠêµŃë¯¼ ìĿĺ
ë¬¸ ìĿ´
ìĺģ ìĥģ
Ġk r
Ġì¡°ìĦł ì´Ŀëıħ
Ġìŀł ìĪĺ
ê² ¸
ĠìĿĺ ìĭĿ
ëıĻ ìľ¼ë¡ľ
Ġë¶ķ ê´´
ë¯¼ ëĭ¹
ĠìĿ´ ìĽĲ
Ġëĭ¬ ëĿ¼
Ġë°©ìĨ¡ ìĿ¼
Ġr em
ãĤ Ĭ
ëĭĪ ì¹´
Ġì¹´ë Ŀ¼
Ġë¶Ħëį°ìĬ¤ ë¦¬ê°Ģ
ĠìĹ¬ ìļ°ì£¼ìĹ°ìĥģ
Ġê°Ģ ê²Į
ëĭī ìĬ¤
Ġas s
ëªħ ìľ¼ë¡ľ
Ġì°¨ì§Ģ íĸĪëĭ¤
ìĺĢ ìľ¼ëĤĺ
Ġê¶¤ ëıĦ
ĠëĮĢ ëıĻ
Ġë¸Į ëłĪìĿ´
ê³¨ ìĿĦ
Ġë´ Ħ
å³ ¶
ì¦ Ĳ
Ġêµ° ëĭ¨
Ġì°½ ëĭ¨
Ł ¥
Ġê¸°ë¡Ŀ íķľ
ìĺģ ìĿĺ
ĠìĪľ íĻĺ
Ġì£¼ ìµľ
ĠìĿ´ ê²½
Ġbl ack
ĠìĥĪ ë²½
Ġê³łëł¤ ìĿĺ
¡ Ń
ĠìĦ¸ ê³ĦëĮĢ
Ġê·¸ëŁ¬ íķľ
Ġww e
ĠëĤ¨ìķĦ íĶĦë¦¬ì¹´
Ġë§ŀ ìĿ´
ĠìĿ¼ ìŀĲ
Ġë°Ľ ê²Į
íĨł ìĭľ
Ġëĭ¤ ìĪĺ
ìĤ ¼ë
Ġe le
Ġì¡´ìŀ¬ íķĺëĬĶ
Ġë© ĺ
ìľ¼ ëĭĪ
éķ ·
ĠìĿ¼ ìĭľ
Ġíĺ¼ íķ©
ĠìĿĺ ë¬´
ĠìĬ¤ ì¹´
Ġìĺ¤ìĬ¤ ë§Į
ì ©
ëĤ´ë ²ĦìĬ¤
ĠëĶĶ ìĬ¤íģ¬
ĠëıĦë ª¨
ĠëıĮìķĦ ê°Ģ
Ġì½Ķ ë¯¹
Ġë°Ľ ëĬĶëĭ¤
Ġì¶ľìĹ° ìŀĳ
Ġìľł ê¸°
íĬ¸ ë¦Ń
Ġì£¼ íĥĿ
Ġd a
Ġíı ´ë¦¬
ëģ ¼ë¦¬
ì² ¸
ê±° ëŀĺ
ç ¯
êµ¬ ìĻĢ
ĠíĺĦ ìĥģ
ĠëłĪ ì§Ģ
ĠëĦĺ ëĬĶ
ĠìŀĲ ìłĦ
Ġì ¥Ĳ
Ġä¹ Ŀ
ul l
Ġê³Ħ ê¸°ë¡ľ
Ġìľ ¨ë¦¬
Ġëį ¸
ĠíĬ¹ ìĿ´
Ġê°¤ëŁŃ ìĭľ
Ġê·¸ë ķĮ
æ ®
ëĳ ĺ
ì¹´ ë¦¬
íķĺ ë£¨
ĠìĿ´ ìĹĪëĭ¤
Ġì§Ħ ìķķ
ìĶ¨ ìĿĺ
ĠëĤĺìĺ¨ ëĭ¤
Ġi r
ĠíĸĪ ëįĺ
ë¥´ ê¸°
Ġê·¸ ìĻĢ
ãĥ ª
ĠíĨł ëĦĪ
ĠìĿ¸ ìļ©
² Į
ì£ ł
Ġë¸Ķ ë¡ľê·¸
ë©ĺ íĦ°ë¦¬
é ¾į
ç¶ ĵ
íĬ¸ ìĻĢ
Ġéķ ·
ëĭ¨ ì§Ģ
ĠìĦłìĪĺ ê°Ģ
Ġì¡° ì¹´
Ġë°Ķë¥´ ìħĢë¡ľ
Ġê°Ģ ê³ł
Ġìĭ¤ ì§Ī
ĠìĿ´ íĻĶ
Ġì²ľ ì²´
ë¯¸ ë¥¼
ãĥ ĥ
ĠìĪľ ìĪĺ
on s
Ġëħ¼ ìĿĺ
Ĭ ±
ĠëħĦ ìĿ´
Ġê·¸ë łĪìĿ´
ìľ¼ë¡ľ ëıĦ
Ġì¹´ë¥ ¼ë¡ľ
ĠíĴĭ ë³¼
Ġj e
ìĹ° íŀĪ
ĠíĶ¼ íķ´ë¥¼
íĥĢ ìĿĺ
ĠíĶ½ ì²ĺìĬ¤
Ġëį°ìĿ´íĦ° ë²łìĿ´ìĬ¤
ë© į
Ġê³µìĤ° ì£¼ìĿĺ
Ġê°Ģ ìĦľ
ĠìĤ¬ë§Ŀ íĸĪëĭ¤
Ġíľ´ë ĮĢ
ê¶Į ìĹĲ
ì¹´ë Ŀ¼
íĥ ±
ì¦Ī ëĬĶ
Ġe ver
ĠìłĦ íĻĶ
Ġìĵ° ìĿ¸ëĭ¤
Ġìĵ° ê³ł
ĠìĪľ ì²ľ
ing s
Ġd na
ĠìĿ´ íĺ¼
ìĿ¼ë °ĺ
ĠìĪĺ ë¦¬
Ġä¸ Ĭ
it t
Ġë¡ľ ëłĮ
st em
ĠíĺĦ ìĹŃ
ìĿ´ìĹĪ ìľ¼ë©°
ì§Ģë°© ëıĦ
ëī´ ìĬ¤
Ġëħ¼ëŀĢ ìĿ´
Ġì½ľ ë¡¬
ĠìĤ¬ ìłĦ
Ġíķľ ìĿ¼
Ġìĺ¤ìĬ¤íĬ¸ëłĪìĿ¼ë¦¬ ìķĦìĿĺ
ì§Ħ ìĿ´
ĠìĥĿ íĥľ
ìĻĢ ìĿ´
ic an
o ol
ìķ ¨
è °·
ì¿ Ħ
ĠíĥĢ ìľ¨
Ġs a
ëł¹ ìĿĦ
ê·¸ë ŀĺ
ĠìĹ¬ ê¸°ìĹĲ
Ġc or
ĠìĨĮìĨį ìľ¼ë¡ľ
y n
ĠìĤ¬ íĺķ
Ġê°ľ ë¥¼
Ġå¹ ³
Ġê³µ ì¤ĳ
ĠìŀĳíĴĪ ìĿĦ
Ġë¶Ī ìķĪ
Ã ¶
ê³ł ê°Ģ
Ġì¶ķ ìłľ
ìĹŃ ìĿ´
Ġìĭľìĥģ ìĭĿ
Ġê°Ģ ì¹ĺ
Ġi v
ìĿ´ ìĦ¼
ĠìĦ± ê·ł
Ġíı¬ ë§·
ãĤ ĵ
ë¥´ë Ĥĺ
ĠëĮĢ ìļ°
Ġc ro
r ap
Ġë°Ľ ìĿĦ
ĠíŀĪ ê°Ģìĭľ
ĠíĶĦë¡ľê·¸ëŀ¨ ìĿĦ
ĳ ¤
ĠìĤ¬ìļ© ìŀĲ
Ġì¹ł ëłĪ
ĠìľłìĤ¬ íķľ
c d
ĠêµĲ íĸ¥
ĠëĤĺíĥĢëĤ´ ëĬĶ
Ġëĭ «
ĠìķĪ ëĤ´
íĥĢ ëĭĪ
íĻĶ íķľ
ìĨĮ ëħĢ
Ġd ream
ì¹´ë Ĥĺ
ì½ ķ
ìłĦ ê³µ
ì§Ī ìĿĦ
å® ĺ
ĠìĿ´ë¯¸ ì§Ģ
åł Ĥ
ë¶Ģ ìŀ¥
Ġì²Ń ì¶ĺ
ë°ķ ìĬ¤
Ġìŀĩ ëĬĶ
Ġìŀ¬ ëĭ¨
Ġê²½ê¸° ëıĦìĿĺ
íķĺ ìļ°ìĬ¤
Ġìľł íĸī
ĠìĹŃìĤ¬ ìłģ
ìľł ìĿĺ
ĠìĪľ ìĦľ
ëĦ¤ ìĿ´
ìĤ¬ ì¹´
Ġê³µ ìŀ¥
ĠìĹ¬ ëıĻìĥĿ
ĠìĬ¤ìĽ¨ëį´ ìĿĺ
ëľ ¨
ë¯¸ ê°Ģ
ĠìĿ´ë °Ķ
ãģ ¨
Ġì°½ ìŀĳ
Ġìĭľìŀĳ ìľ¼ë¡ľ
Ġë¬ ¶
ĠìłĦ ìĽĲ
Ġë°ľê²¬ ëĲľ
ëıĻ ìĿ´
ä¸ Ĭ
Ġìĺ Ľ
ĠëĨĴ ìķĦ
ĠíĮ ½
ìłķ ë¦¬
ìłķ ìĽĲ
Ġìĭ¤ ìĤ¬
ĠëıĦë ¯¸
ĠíĽ Į
Ġí į¼ë
ĠëĮĢíĨµëł¹ ìĿ´
Ġì¤ĳ ìĿ´ëĭ¤
Ġë§Īì§Ģë§ī ìľ¼ë¡ľ
Ġíĸ¥ íķ´
ìĸ¸ ìĬ¤
Ġë°ľíĳľ íķĺìĺĢëĭ¤
Ġìĭł ë¶Ħ
Ġì¹´ë Ĥĺ
Ġcol le
ĠíĶĦë¡ľê·¸ëŀĺ ë°į
ë©´ ìĿĺ
Ġì£¼ ìłľ
Ġë¦¬ ëĵľ
Ġìŀ¬ ìĤ°
Ġê¸ī íĸī
ë§Ī ë¥´
ĠìĨĮ ìĨ¡
ĠìĿ´íĽĦ ìĿĺ
ê°Ģ ìĹĲ
s c
Ġìĸ´ëĸł íķľ
ĠëĮĢ íĻĶ
Ġê°ķ ìłĦ
Ġíı ´
ĠëĤĺíĥĢëĤ ľëĭ¤
åı ²
ç ĩ
ĵ¤ ê³¼
ìĭ¤ ìĿĺ
ĠìĿ´ë¦Ħ ìĿĺ
Ġê¹ ĥ
ì½ §
Ġë°Ģ ìĸĳ
ĠëĤĺ ìĻĶëĭ¤
ĠëģĿ ëĤľ
Ġë°ķìłķ íĿ¬
Ġìĺ¤íĶĦ ëĭĿ
Ġì¡° ìłĪ
Ġì¶ķêµ¬ ëĭ¨
ë¡ľìĦľ ìĿĺ
ì§Ģë°© ë²ķìĽĲ
ĠìļĶ ê¸Ī
Ġë§Ī ë¥´íģ¬
ĠëĲĺ ë©°
Ġê³µìĭĿ ìłģìľ¼ë¡ľ
å §
íģ´ë Ł½
ĠìĹĺë¦¬ ìŀĲ
ĠìĿµ ìĬ¤
Ġì¶ľ ëł¥
Ġo ut
èĩ £
¨ ìĿĦ
Ġä¸ ģ
Ġìĭ «
Ġê°ľ ëªħ
Ġì£½ ìĹĪëĭ¤
b le
ìĿ´ ë©´
Ġê²½ê¸° ëĬĶ
ĠìĪĺ íķĻìŀĲ
êµŃ ìĹĲ
¡ ¬
Ġëĵľ ë¦¼
Ġì¹´ë ¥´
Ġm ov
ì¹ĺ ìĺ¤
ĠìķĬ ìľ¼ë©°
ĠìĿ¼ ìĿĺ
ĠëıĻ ìĭľ
íħĮ ë¥´
ĠëĮĢìłĦ ê´ĳìĹŃìĭľ
Ġìĭľ ê°ĦëĮĢ
ĠëĲĺ ìŀĲ
ìĦĿ ìĿ´
è¨ ĺ
ëŀ Ĳëĭ¤
ì¹ĺ ìķĦ
íļĮ ìĹĲìĦľ
ĠìłľìĻ¸ íķĺê³ł
Ġê²¸ ìŀĦ
ìĸ´ ìł¸
í ĩ
Ġìĺģ ìĽĲ
Ġhist ory
§Į ìĹĲ
Ġê´ĳ ìĹŃ
ìĿ¸ ìĿ´ëĭ¤
Ġì¢ĭìķĦ íķĺëĬĶ
ĠìķĦëĵ¤ ë¡ľ
ĠíĬ¸ ìľĪ
ĠíĮĮ ìķħ
Ġë¬¸ë ªħ
Ġê·¸ë §Į
ëĤ Ļ
êµŃ ëĮĢíķĻêµĲ
Ġsp ec
Ġêº ¾
ĠìĿ¼ ì¹ĺ
ĠìľĦëĮĢ íķľ
Ġì¢ ģ
êµ¬ ì¡°
ë¶Ģ ìĹĲìĦľ
Ġê³¼ íķĻìŀĲ
íļĮ ê´Ģ
Ġê°Ħ íĸī
ĠìĿ´ë ĵ¤ìĿĺ
Ġê°Ģ ë§Ī
ĠìĽĶ ê°Ħ
ĠìĿ´ëĿ¼ê³ł ëıĦ
Ġìļ´ëıĻ ìĿĦ
p le
Ġëª©íĳľ ë¡ľ
Ġê°ľìĭł êµĲ
Ġm od
ìŀĳ ê°Ģ
Ġë¬´ ìĭľ
å¤ ª
Ġë¶Ħë ħ¸
ĠíŀĻ íķ©
Ġë¶Ħ ìľĦ
Ġíı¬ ëıĦ
ëĿ¼ ìĿ´íĦ°
ëł¤ ëĬĶ
Ġë©Ģ ë¦¬
Ġb bc
íħ ĶëłĪ
Ġìľł íļ¨
Ġë³´ ê±´
ĠìŀĦ ê¸Ī
íħĮ ìĵ°
Ġë¬¸íĻĶìŀ¬ ìŀĲë£Į
ç ¿
¸ë °Ķ
Ġì§ Ŀ
ĠíĻķ ë¥ł
ãģ Ĺ
ĠìĽ °
Ġëª¨ ìĹ¬
en n
³ æĹ¥
ãģ ĭ
íķ´ êµ°
å¸ Ĥ
in c
ìĮ į
ìĹ° ê¸°ìĥģ
Ġíħ Ĳ
ëħ¸ë¯¸ ìķ¼
Ġì§Ģ ìĿĢ
ĠìĹĲ ë¦Ń
Ġë§Į ìĽĲ
Ġë©Ķ ë¦¬
ĠçĶ ²
Ġìĥģ ìľĦ
Ġíĺ¸ ëĬĶ
Ġìĭľìŀĳ íķĺìĹ¬
íĺģ ëªħ
Ġì¶ĺ ì²ľ
Ġs ong
ĠìĪľ ê°Ħ
ĠìĿ´ ì§Ħ
ĠíĮĮ ê´´ë
ĠìĿ¼ë ¦¬
ìłķ ìľ¼ë¡ľ
Ġë¬´ë £Į
ĠìĿ¸ ë¥ĺ
ê²łëĭ¤ ëĬĶ
ĠìĨĮìĦ¤ ê°Ģ
ĠìĪĺíĽĪ ìŀĲ
ìĤ¬ ìļ°
íĭ° ëħ¸
ĠíĺĪ ìķ¡
ë°Ķ ìĭľ
Ġn or
ĠìĻķ ìŀĲ
éĥ ½
ĠëĤ¨ ëħĢ
Ġê³ł êµĲ
ĠìĬ¹ ìĿ¸
æĿ ĳ
ê³ł ë¦¬
Ġê²ĥ ìĿ´ë©°
Ġê³ §
ì²Ń ìŀ¥
Ġì¡°ì§Ģ ìķĦ
ë¦¬ ì¹´
ĠìłĦ ì§ģ
ĠìľłíĬľ ë¸Į
ìĤ° íĻĶ
ĠëĶĶ ìĬ¤
ĠíķĺëĤĺ ëĬĶ
ĠìĥĪ ê²¨
ìĸ´ë ²Ħë
ĠìķĦë²Ħ ì§ĢëĬĶ
Ġê²½ìļ° ìĹĲ
ìľ¼ë¡ľìĦľ ìĿĺ
ĠìĦľë¹Ħ ìĬ¤ë¥¼
Ġë°ķ ì§Ģ
Ġë³Ģ íĺķ
ì§Ģ ë©´
ĠìķĬìķĺ ê³ł
ĠìĿ´ ê¸Ģ
Ġìĺ¬ ëł¤
íķĺìĺĢ ì§Ģë§Į
ë§Ī ì¹ĺ
Ġì§Ģê¸Ī ìĿĢ
ĠìĹ ¼ë
íĮ ¡
Ġi b
ĠìĤ¬ìļ© ëĲĺê³ł
ĠíĥĢ ê²©
Ġê°ĸ ëĬĶ
Ġë¹ł ë¥´ê²Į
ìĹĲ ìĦł
ëĲĺ ë©´
ĠëĤĻ ìĦł
ê¸° êµ¬
Ġë³´ ìĬ¤íĦ´
ê³µ ìĭł
Ġìº ¡
Ġìĥģ ë¬´
Ġë¶Īëł Ģëĭ¤
ĠíĽĪ ìŀ¥
Ġë§Ĳ ìķĺëĭ¤
Ġê·¸ë ŀľëĵľ
Ġë§Ŀ ëªħ
ê¸° ìĹĲëĬĶ
Ġë¶Ģ ëıĻ
Ñ ĥ
Ġê°Ģ ì§Ħëĭ¤
ĠìĦ± ê²½
Ġê³¡ ìĿĦ
ìĬ¤ íı¬ì¸ł
Ġìļ° ëł¤
Ġë¬¸ ìŀ¥
é ¤
ĠìĿ´ ìĽĥ
Ġë¯¼ ì¤ĳ
ĠìĪĺìĥģ íĸĪëĭ¤
įĶ ìĬ¤
Ġì¹´ ì¦Ī
ĠìľłìĿ¼ íķĺê²Į
íĻ Ī
Ġëĭ¤ ìĪĺìĿĺ
Ġì£¼ ê¸°
Ġìŀ¬ ëĬ¥
ì²ľ ëıĻ
Ġì½Ķ ëĤľ
Ã Ń
ë¦¬ ê²Į
Ġìĭľ ëĤ´
ĠìĦľìļ ¸ë
Ġíĺķíĥľ ë¥¼
ê±´ ìĿĦ
Ġç Ł³
ìĬ¤ì¼Ģ ìĿ´
íı¬ íĬ¸
Ġëıħ íĬ¹
ĠíĻį ë³´ë
ëĮĢ ë¶Ģ
Ġë°ľ ëªħ
ĠìĬ¤íĮĮ ìĿ´
Ġc al
ĠìłĦìŁģ ìĿĺ
íĶĦë ŀĢ
æ ¬
ĠìķĦë ²ł
ë²ł ë¦¬
Ġì½ľ ë¡ľ
ĠìķĮ ëłĪ
Ġìĺģ ëıĻ
ĠìķĦ íĭĢ
ìĹĲìĦľ ë§Į
Ġë¯¸ë Ħ¤
ĠìłĦ ìĭł
Ġë¬¸ìłľ ë¡ľ
Ġn at
ĠìĬ¹ ë¶Ģ
Ġìĸ´ë ĵľ
ĠìĿ¼ ì°į
ê°ķ ìĿĺ
Ġë°ĺ ëĮĢë¡ľ
ĠìĽĶ ìļĶìĿ¼
Ġì¤Ģ ëĭ¤
Ġí Ī
íķ© ëĭĪëĭ¤
ê³ł ìĿĺ
ë¬´ë ĮĢ
ìŀ¬ ëĭ¨
ĠíĽĦ ìĽĲ
ĠìĹŃ ìĿ´
ĠìłķíĻķ íķľ
Ġê°Ģ ìĬ´
Ġë¹Į ë³´ëĵľ
ĠëĦ¤ëįľëŀĢëĵľ ìĿĺ
ë¦¬ ëħ¸
ë¬ µ
ìĪŃ ìĿ´
Ġìĩ ¼ë
ĠìĿ´ë£¬ ëĭ¤
in s
Ġê´ĳì£¼ ê´ĳìĹŃìĭľ
ìķĦ ëĭĪìķĦ
Ġê°ľ ìĽĲ
ê³Ħ ìĹ´
Ġì¶ľìĭł ìľ¼ë¡ľ
Ġl ink
Ġp re
Ġë©Ģ íĭ°
Ġê·¸ë łĩê²Į
Ġsy stem
ĠìĪĻ ì¢ħ
ĠìĿĺ ì¡´
ĠíķĺìĺĢ ìľ¼ëĤĺ
ĠìĪĺ íĺ¸
Ġì¦ Ī
Ġc he
Ġë°© ìłķ
Ġê°ķ ëĵ±
Ġìĭ¬ íĮĲ
ĠìĹĶ ëĶ©
Ġíĭ Ģ
ĠìķĪ ìĤ°
ĠëŁ¬ ìĭľ
Ġëĳ Ķ
Ġíĺ¼ ìŀĲ
ìĿĮ ìĹĲëıĦ
ì§Ģ ìłķ
ì§Ģ ìĿ¸
ĠìĦ± ìĶ¨
ĠìĬ¹ ì§Ħ
ëĵľ ëĿ¼
ĠìĹ° ìĬµ
Ġc e
ĠíĥĢ ì¼Ģ
¬ ´ë¥¼
Ġê¸¸ ìĿĦ
ìłĦ ê³¼
íĻĶ ìĻĢ
ìĸ´ë Ĥ´
Ġp ubl
Ġì²ł ìĪĺ
Ġë¶ Ħëªħ
ëħ¸ ìĿ´
Ã ¤
Ġì²ĺ íĺķ
Ġì²ľ ë§Į
ĠìłĦ ëĭ¹
Ġëĭ¹ìĭľ ìĹĲëĬĶ
ĠëĿ¼ìĿ´ íĶĦ
Ġíķł ìķĦë²Ħì§Ģ
ĠìĿ¼ë ¡ľ
Ġìº Ħ
Ġìĭľìŀĳ íķľëĭ¤
ê³Ħ ìķ½
ãĥ Ī
Ġê·¸ë ĵ¤ìĿ´
ëĿ¼ë ĶĶ
ë¹ Ħë¡ľ
Ġíĳ¸ ë¥¸
ĠëıĻ ìĦľ
Ġp et
ĠìĹĲ ìĸ´ë
Ġl o
am es
ĠìĤ¬ ìŀĦ
Ġìĭľ ì¡°
ĠìĤ ¿
ì¹ĺ ê¸°
Ġë² Ħë¦¬
Ġê°ľë°ľ íķľ
Ġìķŀ ìĹĲìĦľ
Â ²
ĠíĮ ĶëłĪ
Ġal b
Ġìĭ¸ ìĽĢ
íĨµ ìĿĦ
Ġëĭ¬ ëł¤
Ġíı¬íķ¨ íķľëĭ¤
Ġr ad
Ġê°Ģ ì¡Įëĭ¤
ìŀ¬ ë¥¼
ar s
æ ŀĹ
Ġë°ķ ê·¼
Ġíķ´ë ³ĳ
ìĨĮ ìĻĢ
ëł¥ ìľ¼ë¡ľ
ìĥī ìĿĺ
íĺ ¸ë¡ľ
ë¦´ë Ł¬
ê³ł ëĬĶ
ĠìĦ¸ ìĥģìĿĦ
Ġn ight
ĠìĹŃìŀĦ íĸĪëĭ¤
Ġë¯¸ ë¦¬
ĠìĿ´ëĿ¼ íģ¬
Ġsup er
ì¹ ľëĭ¤
ë¡ľ ìļ°
ëĳ¥ ìĿ´
íĪ¬ íĳľ
ìļ´ë ¡ľ
ĠìĽĶíĻĶ ëĵľëĿ¼ë§Ī
ĠíĴį ë¶Ģ
éİ Ń
ê²½ì°° ìĦľ
ĠëıĻ ë¶ģ
ìĨĮ ìĪĺ
ĠìłĲ ìĪĺ
æŃ ¦
Ġëª¨ìĸĳ ìĿĺ
Ġì£¼ìĭĿ íļĮìĤ¬
ëĮĢ êµĲ
Ġê¸Ģ ìĿĦ
ĠìĺĪìłķ ìĿ´ëĭ¤
ĠìĦł ë°ķ
Ġìĭł ìŀ¥
ĠìķĪ ëħķ
Ġìĺ¤ë¦¬ ì½ĺ
Ĥ ³
Ġåħ ĥ
ĠìĦľ ë¸Į
Ġë£¨ íĥĢ
Ġìļ ¸ë
Ġê¸° ë³ĳ
ĠíĶĮëłĪìĿ´ìĬ¤ íħĮìĿ´ìħĺ
ìĤ¬ëł¹ ë¶Ģ
ìĦľ êµ¬
Ġì²łëıĦìĹŃ ìĿ´ëĭ¤
ĠìķĦ ìĽĥ
Ġì¹´ íİĺ
ĠìĦ±ê·ł ê´Ģ
e e
Ã ³
ıĻ ìķĪ
ìķ µ
êµ¬ ë¦¬
êµŃ ìľ¼ë¡ľ
ĠëĤĺíĥĢëĤ ¸ëĭ¤
ç ı
ĠëıĮìķĦ ìĺ¨
ĠíķĦë ¦½
Ġê¸ ¸ë
ĠìĿ´ íĺĦ
ĠêµĲ êµ¬
Ġë¬¸íĻĶ ë°©ìĨ¡
Ġê¸° ëıĻ
Ġíķ´ ìĹĲ
ë¦¬ íķĻ
ê³µ ë¦½
ĠìĦ± ìĿĦ
ĠìĨį ëıĦ
ê¹ Ķ
ë°Ķ ë¡ľ
Ġíıīê°Ģ ë¥¼
ìĦł ê³¼
Ġê°ľ ê°Ģ
Ġëĺ ĳ
Ġê·¸ë ŀĳ
ĠíĶĦë¦¬ ëĵľë¦¬
em ent
Ġë©Ķ íĬ¸ë¡ľ
ĠìĿ¼ë¶Ģ ë¥¼
ê¸° ì§Ģ
Ġìĺģ ëĵ±
¬¸ íĻĶ
íĬ¸ë ¹Ħ
ë¶Ģ ëĮĢ
Ġíĺ¸ë Ĥ¨
Ġì¶ ¤
ĠìĹĨ ìľ¼ë©°
ìłĪ íķľ
ç¥ ĸ
ëł¥ ê³¼
ĠìķĬ ê²Į
Ġd on
c a
ĠìĿ´ ìĪľ
um b
íı´ ë¦¬ìĬ¤
íĻ© íĽĦ
Ġê³¨ íĤ¤
Ġìĭľ íĿ¥
Ġë°Ķ ëĿ¼ë
Ġë°ĶëĢĮ ìĹĪëĭ¤
ìĻķ ìĿ´
ĠìĹ´ë ł¸ëĭ¤
ëĦ Į
ĠìĦ¼ íĬ¸ë
ut ion
Ġê°Ģ ìĥģ
ĠíķĺìĺĢ ìľ¼ë©°
ĠìĿ¸ ì¹ĺ
Ġìĭľ ë§Ī
Ġë¬´ë ĦĪ
Ġë¯¼ì£¼ ì£¼ìĿĺ
é «ĺ
íħĮ ìĿ´
Ġë¸ĮëĿ¼ ìĿ´ìĸ¸
é º
ì¹ľ êµ¬
Ġíķĺ ì°¨
ĠìĨį íķľëĭ¤
ĠíĢ ¸
ê¸° ê²½
ĠìķĦ ê°Ģ
ĠìĬ¤ ë¦´ëŁ¬
Ġìĭ±ìĸ´ ìĨ¡
ĠìĤ¬ ì§ģ
ĠìķĦ íĮĮíĬ¸
Ġìĥģ ì£¼
ĠëģĿ ëĤ´
Ġê°Ģì§Ģ ëĬĶ
¦ ¼
Ġíĳľ ì°½
Ġê´Ģê³Ħ ê°Ģ
Ġìłľì£¼ íĬ¹ë³ĦìŀĲì¹ĺ
Ġì¡° ëªħ
ĠíĶ Ħ
¨ ¹
w ay
Ġê²½ìĥģ ëĤ¨ëıĦìĿĺ
Ġìĺ¤ ìĦ¸
Ġm r
ë Ĵ
Ġê°Ģ ê³µìĿĺ
ĠìķĮëł¤ ì¡Įëĭ¤
Ġê°Ģë¦¬ íĤ¨ëĭ¤
Ġr ed
Ġë¡ľ ë¹Ī
Ġë¬´ë ¹Ħ
ìĦ¤ ìĿĦ
ì¡° ìłķ
Ġë°ķ ìĦ±
ĠìĻķ ìĿĺ
Ġëĭ¤íģĲ ë©ĺíĦ°ë¦¬
Ġíķ© ì³Ĳ
ĠìĿ´ ìĦ¸
å£ «
ĠìĿ¸ ì§Ģ
Ġíİ¸ ì°¬
Ġë¹Į ëĶ©
ĠìĹ° ê´Ģ
Ġêµ° ëĮĢë¥¼
ĠìłĲ ìłĲ
Ġìĭł íķľ
ë® ¬
Ġëı ķ
Ġëļ ľ
v el
Ġì¹´ ìŀĲ
Ġìŀħ ìŀ¥
Ġäº Ķ
ìłķ ëĭ¹
Ġê°Ģë¬¸ ìĿĺ
ĠìķĦ ìķ¼
ĠëĦ ·
ĠìĹ° ê°Ħ
Ġì¹¨ ëŀµ
ĠìŀŃ ìĬ¨
ĠíĶ¼ë ¶Ģ
h a
Ġì°¨ ë³Ħ
Ġè¾ Ľ
ĠíĶĦë¡ľ ìĿ´ìĦ¼
Ġëĵ¤ ê³ł
ĠëĳĺëŁ¬ ìĭ¸
ĠìķĪ ìĦ±
ĠíĥĢ ìŀħ
Ġë ©°
´ ëĭ¤
ĠëĤĺíı ´ëłĪ
ĠëıĻ ê²½
Ġìĸĳ ìĤ°
Ġìĭľ ë¦¬ìķĦ
íĨł ìĿĺ
Ġë¯¸êµŃ ìĹĲ
Ġêµ¬ ë§Ī
ë¥ ¸ë
ìĽĲ ê³¼
ĠìĻ¸ ê³Ħ
ĠíıŃ ìĬ¤
ĠìĿĮ ìĦ±
Ġìĭ±ìĸ´ìĨ¡ ëĿ¼ìĿ´íĦ°
¢ ¨
éĻ µ
n er
ĠìĿ´ ìŀĲ
ĠìĤ¬ ìĸĳ
Ġëĵ ¯
Ġìľł ìłģ
Ġê¼ Ń
ìĬ¬ ë¡ľ
íĺĳ ìĿĺíļĮ
è ·
Ġë§Ī ë¬´
ĠìŀĳíĴĪ ìĿ´ëĭ¤
ĠíķĺëĤĺ ìĿ¸
Ġd el
ìĦł ìĥĿ
Ġë¶Ģ íĥģ
ë ĸ
Ġë§Ī ìĿĮìĿĦ
Ġì¤ĳ ì¶Ķ
Ġë§Ĳ íķĺëĬĶ
k e
Ġì§Ģê¸Ī ê¹Įì§Ģ
Ġt ra
Ġë¯¸ íĤ¤
Ġê°Ĳ ìĹ¼
ë¬ ´ë¡ľ
Ġæ ī
ĠìĿ¼ë¶Ģ ëĬĶ
Ġë°©ë²ķ ìľ¼ë¡ľ
Ġíİĺë¥´ ìĭľìķĦ
åĸ Ħ
ĠëĮĢ ê°ľ
Ġh igh
ĠìĤ¬ ê²©
íķĻ ìĹĲìĦľ
Ġëªħ íĻķ
Ġíĳľ íĺĦë
Ġíĸī ìľĦ
Ġêµ¬ ê¸Ģ
Ġê¹Ģ ìĬ¹
ë°© íĸ¥
Ġìĸ´ ê¹¨
Ġë£¨ ìĪĺ
Ġå° ı
ìĤ¬ ëŀĮ
i am
ĠíĽĦë³ ´ë¡ľ
íĤ ·
ĠëĤ¨ ê·¹
ê¹ ¥
Ġm as
ç Ńī
íķ´ ê°Ģ
íĨł ë¯¸
ĠìĹĨëĭ¤ ëĬĶ
ìŀħ êµ¬
ĳ ł
ì½Ķ íĶĦ
åĮ ĸ
ĠìĭĿë¬¼ ìĥģ
ì£¼ ì¿ł
at ed
Ġë²Ī ì£¼
ëŀ Ń
Ġë©Ķ ê°Ģ
ĠìĿ´ë ¤Ħ
ĠìŀĪ ìĿĮìĿĦ
Ġì£¼ë ¬¸
Ø §
Ġì ¥¬
Ġìľł ëĭĽ
Ġì´Ī ìĥģ
åĥ ı
Ġì²ĺ ë²Į
Ġëª» íķĺëĬĶ
ìłķ ëıĻ
ì±ħ ìĿĦ
Ġìłĳ ì´ī
Ġë Ń
Ġd av
Ġë³ĳ íķ©
Ġíķĺ ëĬĲ
ĠíĶĦë¡ľ ë¦¬ê·¸
ĠìĤ¬ìļ© ëĲľ
Ġëĭ¤ ìĬ¤
ĠëłĪ ë²¨
ĠìĦ¸ ìĽĶ
Ġë°Ķ ëĳĳ
ĠìķĪ ìĹĲìĦľ
Ġê¸°ë¡Ŀ ìĿ´
ĠìĽĲ ìĿ¸
Ġíıī ë¡łê°Ģ
ë© ľ
Ġst ation
Ġëĵľ ëŁ¼
Ġë°Ķ ê¹¥
Ġë§Ĳ ìĹĲ
c y
ìĽĲ ìĹĲìĦľ
ĠìĿ¸ ëıĦìĿĺ
Ġë§Īì¹¨ ëĤ´
Ġìĭł ëıĻ
Ġì²ł ëıĦìĿĺ
ìĭĿ íĴĪ
ë³´ ìĿ´
ê°Ģ ëĬ¥
ê³µ ìĤ°
Ġk ia
Ġíĸī ëł¬
Ġìĭľì¦Į ìĹĲ
Ġê¸¸ ìĿ´ëĬĶ
ìĽĲ êµ¬
Ġíĥľ ì¡°
Ġb u
ĠìĦľ ê¸°
Ġp p
å ¡
ab le
¬ ĺ
ĠìĿ´ë ³ĳ
íĭ° ìĺ¤
Ġë¹Ħ íıīê°Ģ
ë¦¬ íĥĢ
Ġìŀ¬ ë°°
ĠëĤ´ìļ© ìĿĢ
Ġíģ¬ë¦¬ìĬ¤ íĭ°
Ġëĵ£ ê³ł
Ġgo od
Ġo b
Ġëĵ¤ìĸ´ ìĦľ
ëĵ¤ ìĸ´
ìĿ´ìĹĪ ì§Ģë§Į
ĠëĬĲ ëģ¼
ê¸° ê¹Įì§Ģ
Ġä¸ Ļ
Ġê±° ìłľ
ĠíĺĲìĿĺ ë¡ľ
en a
ë³´ íĨµ
Ġìļ´ë ªħ
Ġìłķì±ħ ìĿĦ
íĹ¤ ìĿ´
Ġan g
Ġì¹¨ ìŀħ
¶Ģ ë¥´íģ¬
ĠëĮĢ ì¡°
ëĭĪ ê¹Į
ĠìĹ° íĺ¸
íı ´ë¦¬
ĠìĦ¸ ìĹĲ
ìĦ¸ ê°Ģ
ar ch
Ġìĺ¤ ëŀ«
ĠëıĪ ìĿĦ
ĠìĬ¤ ì¦ĪíĤ¤
ì§Ħ êµ°
ìĿ´ ë¯Ģë¡ľ
Ġì§ ľ
ĠëĮĢíķĻêµĲ ìĹĲìĦľ
Ġen d
ç İ
ĠíĨ ¤
Ġìĭł ì²´
Ġì¿ł ëį°
Ġæ° ¸
ĠìĤ½ ìŀħ
ı Į
Ġì§ĳ ìķĪ
Ġè Ī
ĠìĤ¬ íĩ´
ë²ł ë¥´íģ¬
Ġê´Ģëł¨ ìŀĲ
Ġìĺ¤ íĥĢ
Ġc ap
ĠëıĦ ìĦľ
Ġë¶Ī ì°¸
Ġë§¡ ìķĦ
ĠìĤ¬ ì¿łëĿ¼
Ġì į
Ġìłľìŀĳ íķľ
ëĮĢ ìŀ¥
ĠëĬ ĳ
Ġìĥģ ìĦ¸
Ġy our
ìĿĮ ìĿ´
ĠíĺĦ ìŀ¥
Ġë°± ë§Į
êµĲìľ¡ ì²Ń
Ġìį¼ ëĭ¤
Ġìĥģ ìĨį
Ġìĵ° ìĿ´ëĬĶ
ĠìĬ¹ ëł¤
Ġë°ľë§¤ ëĲľ
Ġë³´ íĹĺ
ĠìĤ¬ëŀĮ ëĵ¤ìĿĺ
ìķł ëĤĺ
ot t
Ġë¯¸ ì¦Ī
ĮĢ ìĤ¬
Ġê³µê²© ìĪĺ
ì¹¸ ìĦ¼
ĠíĮĮ íĭ°
Ġë¹¨ ê°Ħ
Ġb i
ëł¥ ìĹĲ
ĠíĬ¹ ê¸ī
ĠíĿĺ ëŁ¬
Ġëĭ¤ ë£¬
ĠìĹ°êµ¬ ë¥¼
ĠìľĦì¹ĺ íķľëĭ¤
Ġì£¼ìĹ° ìľ¼ë¡ľ
ĠìķĦ ìĹŃ
ĠìķĦ ì¼Ģ
Ġíķ¨ ëĿ½
ê³ł ì§Ģ
ê³Ħ ìĹĲìĦľ
ìĭ¤ ìĿĢ
ĠëıĻ íĻĶ
Ġíİ¼ ì³Ĳ
ĠìĹĦì²Ń ëĤľ
ëį° ìĬ¤
ìĺģíĻĶ ìłľ
ĠëĶ° ë¡ľ
Ġå± ±
Ġë§Ī ì²ľ
Ġì¤ĳíĻĶ ìĿ¸ë¯¼ê³µíĻĶêµŃìĿĺ
an e
ĠìĿĺë¯¸ ë¥¼
ĠìĿ´ ìľ¤
Ġëĭ¤ ë¥´ê²Į
ëĿ¼ë ¡ľ
ìĦ¸ ìĬ¤
Ġìĺ¤ëŀ« ëıĻìķĪ
ĠìĦ± íĸ¥
Ġíķ© ëıĻ
Ġê¸Ī ê°ķ
ç ·
ĠìĦ ŀ
Ġf t
Ġë°Ľìķĺ ê³ł
ê¸° ìĹĲìĦľ
Ġìĥ ĺ
Ġíİľ ìĭ±
Ġê¸° ìļ¸
ĠìķĦ ì¹´
ĠìĿ¸ ì¦Ŀ
ĠìĬ¤íģ¬ ë¦°
Ġre g
Ġíĺ¸ ìĨĮ
Ġì²Ń ì£¼ìĭľ
æ° ĳ
Ġìĸ´ëł¤ ìļ´
íķĺìĺĢëĭ¤ ê³ł
Ġìľł ê³ł
ĠëĤĺìĿ´ ë¡ľ
ìĭľíĤ¤ ê¸°
ĠíĮĮ íĬ¸ëĦĪ
ĠìĤ¬ìĿ´ íĥĢë§Ī
Ġì§Ģ ìĭľ
Ġr et
ĠìłĲ ìĿ´
ìŀĲë¡ľ ìĦľ
ĠëıĦíĺ¸ ì¿ł
ĠìĦł ìłĦ
Ġê°ķ ëıĻ
ëŁ¼ë ¹ĦìķĦ
ë¯¸ ìķ¼
ë ¤¼
ë¬¸ ìłľ
ãĤ ¯
Ġm p
ĠìĿ´ë ħ¸
Ġë³µ ìĽĲ
ĠìĹ°êµ¬ ìĨĮ
Ġê¸Ģ ìĶ¨
um ent
Ġë¹Ħë¡Ģ ëĮĢíĳľ
Ġê·ľ ìĬĪ
ëĭĪ ê°Ģ
Ġë§Ī ë£¨
Ġb s
ë°© ìĿĦ
ar a
Ġë°ľ ë°ľ
Ġê¼ ½
Ġíĥľ ì¢ħ
ĠìĽ¨ ìĿ´
Ġì§Ģëĥ Ī
ìĬ¹ ìĿĦ
ĠêµŃ ìŀ¥
ĠìĦ¸ ìĻĢ
ĠìĥģíĻ© ìĹĲìĦľ
Ġìŀ İ
ëĭĪ ìĬ¤íĬ¸
ĠíĬ¹ ìĦ±
Ġë©Ķ íĥĪ
Ġêµ¬ ìŀħ
Ġíĺ¸ ì£¼
ëıħ ë¦½
Ġ ut
Ġê²° ìĦł
ĠìĬ¤íĥĢ ìĿ¼
Ġê°Ģ ìĤ¬
Ġì¤ĳ ëıĻ
ĠëĤ¨ ìĽĲ
ĠìĽĲ ëįĶ
Ġä¹ Ļ
ĠëĮĢ ìĦł
Ġìĺ µ
Ġr ock
Ġíķ¨ ê²½
Ġìłľê³µ íķľëĭ¤
ĠìĪĺë¹Ħ ìĪĺ
Ġìŀ¬ ìŀĦ
ĠíĨłëĦĪ ë¨¼íĬ¸
ëĭĪ ìĬ¤íĥĦ
Ġì§ĳ ìĹĲ
Ġo c
Ġë°ķ ìĥģ
ĠíĨł ë§ĪìĬ¤
ĠìĽĲ ì£¼
Ġíķ´ ì²´
Ġë³Ģ ìĭł
Ġto ur
å° ĩ
Ġì¤ĳ ì§Ģ
ë¹Ħ ìĹĲ
ī ģ
Ġë¶Ģ ì¹ľ
ĠìłĦ íĺķ
Ġê¸ į
Ġìĥģíĥľ ë¡ľ
íĮĮ ìĿ´
Ġí ŀĮ
ĠíĥĢ ìłĲ
ĠíĸīëıĻ ìĿĦ
Ġë¶Ģ ìĥģìĿĦ
ĠëĳĲ ëł¤
ĠíıŃ íĥĦ
íĽĪ ëł¨
ĠíĶĦë¦¬ëĵľë¦¬ íŀĪ
ë°ľ ìłĦ
ĠìķĮê³ł ë¦¬ì¦ĺ
Ġíķ´ ì²´ë
ìĸ´ ìķ¼
ĠìĨį íķľ
ĠíĢ ĺ
é ħ
Ġf ir
ĠëıĦë £¨
Ġë°©ìĨ¡ ìĤ¬
Ġë°ľ ëłĮ
ëĿ¼ë ĵľ
Ġê²Ģ ìĥī
Ġì¿ł ë°Ķ
Ġëħ¸ëŀĺ ë¥¼
ĠìķĦë²Ħì§Ģ ìĿĺ
Ġëľ» íķĺëĬĶ
Ġì½Ķ ìĸ´
ëĭ ·
ĠìĺģíĻĶ ëĬĶ
Ġê°ľ ìŀħ
Ġìŀ¬ ìĥĿ
ê·¸ë Ŀ¼ë
Ġìĭł ì¹¸ìĦ¼
ĠìłĦ ìĨ¡
íĺ Ķ
Ġìĥģëĭ¹ íķľ
ĠìĥĪ ë¡Ńê²Į
ìĬ¤íĦ° ë¯¸ëĦĲ
Ġìĸ» ìĿĢ
ĠëĮĢë¶Ģë¶Ħ ìĿĢ
Ġê°ľ ì°°
êµ° ìľ¼ë¡ľ
Ġëĭ¤ ìļ´ë¡ľ
êµĲ ë¥¼
íģ´ ë¦°
ĠìłĦíĨµ ìłģìĿ¸
Ġë³´ìľł íķĺê³ł
ĠìľĦ íĤ¤
å® ®
ĠíķŃê³µ ê¸°
ĠìĭŃ ìŀĲ
Ġê³ ±
íĻĶ ëĲĺìĸ´
ìĹ° ìĿĺ
Ġg s
ĠíĥĪ íĩ´
ìĦĿ ìĿĢ
ĠíķŃ ìĿĺ
Ġì§Ħ ìĺģ
Ġë°ľ ëłĪ
Ġëį ©
íģ¬ ë¥¼
ĠìĻĦë ²½
ìĹĪ ìĿĦ
ĠëĤĺëĿ¼ ìĿĺ
ìļ´ ìĺģ
Ġêµ¬ ìŀ¥
ìŀĦ ìĿ´
Ġë²Ī ì§Ģ
ĠìŀĳíĴĪ ìĿĢ
Ġíķ´ ìķ¼
Ġë¶Ħ ìĹĲ
ìĭ¬ ìĿĺ
Ġìļ¸ìĤ° ê´ĳìĹŃìĭľ
å¸ «
ëĥ Īëĭ¤
ĠìĦ ¹
ìĺĢ ì§Ģë§Į
ëĤ Ń
ìĹ´ ì°¨
Ġëı ¼
ìĪĺ ë¦¬
ë§Ī ë£¨
ìļ´ë ĮĢ
ëĶ ķ
Ġìĭľ ë¡ľ
Ġíģ¬ë¡ľìķĦ íĭ°ìķĦ
Ġc c
ĠíķĻ ìĽĲ
æ ¿
Ġê² ¹
ĵ¤ ìĹĲê²Į
Ġì¹ľ ìĦł
Ġs am
íļĮ ëĬĶ
Ġìļ° ëĿ¼
Ġë¡ľ ì¦Ī
Ġë· °
Ġê²½ìłľ ìłģ
ê º
in o
ìĭľëĮĢ ìĿĺ
ë² Ħë¡ľ
ĠìŀĲìĭł ëĵ¤ìĿĺ
ì¤ĳ ìĿ¸
Ġë¡ľë§Ī ìĿĺ
Ġëĭ¤ìĿ´ ë¬ĺ
k o
ìļ° ê°Ģ
ë¶Ħ ìĹĲ
op e
ìĥī ìľ¼ë¡ľ
ĠìĿĮìķħ ìĿĦ
æ ĩ
Ġì§Ģ ìłĲ
Ġê°ĳ ìŀĲê¸°
ç Ī
ë¯¸ ë¥´
ĠëĦ¤ ìĿ´ìħĺ
Ġí ĵ¨
ëĭ ´ë
Ġìĺ¤ ë¥ĺ
íķĺìĺĢ ëįĺ
ĶĶ ìķĦ
ìķĪ ìłĦ
Ġì²ľ ì£¼êµĲ
Ġë°ĶìĿ´ ìĺ¬
ĠìĪĺ ìĿĺ
Ġê²ĥ ìĿ´ëĿ¼ëĬĶ
qu e
íķ´ ìł¸
ĠíĮĮ ëŀĢ
Ġëª¨ ìķĦ
ĠíĻĶ ëł¤
Ġê¸° ëĳ¥
Ġë©ľ ë¡ľ
ë²ł ë¥´íĬ¸
íĦ° ëĦĲ
Ġak b
Ġê¾ ¸ë
Ĳ ģ
ìħ ĭ
ìĨĮ ë°©
íĬ¸ë £¨
ĠíĿĲ ë¦Ħ
ê´Ģ ìĹĲ
Ġì¢ħ ìĿ´
Ġê·¸ë Ŀ¼
Ġê¸° ëĭ¤
ë§¥ ìĬ¤
ĠìĿ´ ì¼Ģ
Ġíķĺ ìĿ¸
Ġëª¨ ë¡ľ
Ġìĭľ ì¦Ī
Ġê¸° ìĥĿ
Ġíķ´ëĭ¹ íķľëĭ¤
Ġê²½ íĿ¬
Ġb er
ĠíĻķ ë¦½
v a
Ġd c
ĠëĤĺ ëĤĺ
Ġê¹Ģ ë³ĳ
Ġë³ ĦëıĦ
Ġv ers
ĠíĻľëıĻ íĸĪëĭ¤
ë ±Ģ
ĠíŀĪ íĬ¸
Ġå £¬
ë£ ¸
Ġë§İ ìķĦ
Ġìľł íĨµ
ĠêµĲìľ¡ ìĿĦ
Ġsch ool
ĠíķĦë ¦Ħ
ĠìķĪëĵľë¡ľ ìĿ´ëĵľ
ìĦ °ëĭ¤
ĠìŀĳìĹħ ìĿĦ
os s
Ġìĺ¤ ì§ģ
us s
Ġìĭł íĿ¥
Ġê±° ëĵŃ
ì¹´ ìĬ¤
Ġìŀ¬ íķĻ
å Ģ
íİ Ģ
ê³¡ ë©´
Ġë¶Ģë¶Ħ ìĿĦ
ĠëĬĲëĤ Į
Ġë°° íı¬
Ġ ã
Ġêµ¬ íĺĦ
Ġæ Ł³
Ġì£¼ íĮĮ
ĠëĤĺ ìĿ´íĬ¸
Ġë°Ģ ëĿ¼ëħ¸
ç Ĩ
Ġì²Ń êµ¬
íķ¨ ê³¼
Ġä ¿
ĠìŀĲ ìĽĲ
ĠëĮĢ ë²ķìĽĲ
Ġb re
Ġíİĺ ìĬ¤íĭ°ë²Į
ĠíĬ¸ ìľĦ
Ġw in
ìĹ¬ìŀĲ ëĮĢíķĻêµĲ
ë³´íĨµ íķĻêµĲ
Ġì¡´ìŀ¬ íķĺì§Ģ
ìļ´ëıĻ ìŀ¥
ìĬ¤ëŁ½ ê²Į
Ġê³µ íĹĮ
Ġíİ¸ ìĿ´ëĭ¤
Ġì£¼ ìĨĮ
Ġëĭ¤ìĿĮ ëĤł
Ġíı¬íķ¨ íķĺìĹ¬
Ġìĺģ ìĸĳ
Ġìĭł ìļ©
ĠìĿ¼ìĸ´ë Ĥ¬ëĭ¤
ĠìĿ´ ìĺ¨
ë¥´ ì§Ģ
Ġë¹Ħ ê³µ
Ġë°Ķ ëĭ¥
ê¹ Ŀ
Ġar m
Ġì¢ħë¡ľ êµ¬
ĠìĿ¼ë³¸êµŃìľł ì²łëıĦìĿĺ
Ġì¹´ ìļ´
Ġê³ł ê°Ŀ
ĠìĥĿ ëª°
ê°ģ ìĿĦ
ĠíķĦë ĵľ
ĠíĶ½ ìħĢ
¬ ¸ëĮĢ
Ġíķ´ë ıĦ
ĠìĦľìļ ¸ëĮĢ
Ġë²Ĺ ìĸ´ëĤĺ
Ġë¡ľë§¨ ìĬ¤
çĲ Ĩ
Ġë¸Ķ ë¡Ŀ
Ġì¢Į ìļ°
ĠìĹ°ì£¼ ìŀĲ
ĠìĤ¬ìĭ¤ ìĿ´
ĠìľĦ ìĥģ
ìĦ± ë©´
ë¥´ë §Ī
ìłľ ëıĦ
Ġb c
ĠìľĦ ìĹĲìĦľ
Ġì§ĳ ê¶Į
ĠíħĮ ìĬ¤íĬ¸
Ġê·ľëª¨ ìĿĺ
ìĽ¨ ìĿ´íĬ¸
h o
Ġë§Į ëĭ¤
ë¬¼ ìĿĢ
ĠìĿ¼ ìĿĢ
Ġìļ° ë£¨
åı ¸
ìĤ° ìĿ´
Ġa ct
íķĺ ë¯Ģë¡ľ
ë²ķ ìĿĢ
ë¶Ħ ìĿ´
¥ ¸
Ġê¸° ê°ĳ
ĠëıĦë įķ
å ĩ
ìĿĮ ìĿĢ
ł¥ ìĿĦ
ĠìĹŃ ìĿĢ
Ġì´Ī ì²Ń
Ġë§¡ ìĿĢ
ĠìĿ´ë²¤ íĬ¸
ĠìĹ¬ ìĿĺ
Ġè ²
ĠìĿ¼ìľ¼ íĤ¤
ë¶Ģ ìĤ¬
Ġv o
Ġi p
Ġëĭ¤ìļ´ë¡ľ ëĵľ
Ġë§Įëĵ¤ìĸ´ ì¡Įëĭ¤
Ġë£¨ë§Ī ëĭĪìķĦ
ĠìĹŃ ëªħ
æ ¸
ĠìĿ´ìĬ¹ ë§Į
Ġìĭ¤ ëĤ´
Ñģ Ðº
ìĭ ¼
Ġìĭľ ë¯¼ë
Ġìľł ì¹ĺìĽĲ
Ġg k
ëĵľ ëŁ¬
ìĿ¸ ìĹĲê²Į
ì° ¾
ĠíĨł ëĭĪ
ìķ ŀ
Ġì¡° ìļ©
Ġìķ¼ ì¿ł
ĠíĻľëıĻ íķĺìĺĢëĭ¤
Ġìłķ ë¬´
Ġa re
ìĸ´ ìļĶ
ìĥĿ ëªħ
Ġëħ¸ ì¶ľ
å¯ ħ
ĠìĿ´ë¥´ë Ł¬
ĠìĿ´ íĥľ
ĠìĿ´ ê´ĳ
Ġd er
ĠíĨł ì§Ģ
ê³¼íķĻ ê¸°ìĪł
Ġcent er
Ġì£¼ìŀ¥ íķĺìĺĢëĭ¤
ĠíĶĮë¡ľ ë¦¬ëĭ¤
Ġìłķ ë¹Ħ
Ġs ol
ĠëĭĮ íħĲ
ëĭĪ ìĭľ
Ġëªħì¹Ń ìĿĢ
ĠëĨĵ ê³ł
ìĬ¤ íĨ¤
Ġs um
íĺĳ ëł¥
ìłĦ ìĤ¬
ê³µ ëĭ¨
Ġì°½ìĽĲ ìĭľ
Ġë¶ģ ìķĦë©Ķë¦¬ì¹´
Ġì§Ħíĸī ìŀĲ
é ¡
ĠëıĻ ëŀĺ
Ġìļ° ë¦¬ê°Ģ
íĮ ½
Ġë°° êµ¬
ĠíĶĦë¡ľ íĨł
Ġìłģ íķ©
ĠìķĦëłĪ ëĤĺ
ëĭĪ ì¦ĺ
ë¡ľ ëıĦ
ëħ ¸ë¶Ģ
ìĭĿ ìĹĲ
Ġè ¨
Ġå §
Ġìŀ¥ ë¹Ħ
ĠìĿ´ë£¨ìĸ´ ì¡Įëĭ¤
og rap
Ġê°Ģë¦¬ íĤ¤ëĬĶ
Ġëħ¸ë ¬´
Ġê°Ģ ëĭ´
Ġë© ´ë
Ġë°ľ ìĸ¸
Ġìłľìŀĳ ìĹĲ
Ġìł ł
Ġëĵľëŀĺ íĶĦíĬ¸
Ķ ĺ
ĠìĿĺ ìŀ¥
Ġìĭľëĵľ ëĭĪ
æ° ¸
ĠíĬ¸ëŀľ ìĬ¤
ìķ¨ ë²Ķ
u al
ìĹ £
ĠìŀĲ ê·¹
Ġê¸° ê¶Į
Ġç «
ĠìĦłìłķ ëĲĺìĹĪëĭ¤
ìĹĪ ê¸°
Ġìķ¨ ëŁ°
ìĦľ ìĸĳ
Ġê°Ħ ëĭ¤
Ġë¯¸ë §Į
ĠìĦľ ì´Ī
Ġìĥģ ìŀĦ
Ġìŀħ ê³ł
Ġåħ ¨
Ġíı °
Ġæ ¬
Ġìĵ° ëŁ¬
ĠëĮĢíĨµëł¹ ìĿĺ
Ġê³µ ë¬´ìĽĲ
ĠíĹ ¨
ì¹´ ê°Ģ
Ġìĭľë¦¬ì¦Ī ìĿĺ
Ġìĥģ ìĭ¤
ĠëıĮ ëł¤
ĠíĻĶ íķ©
ĠìĻķ ë¦½
Ġìľł íĿ¬
íŀĪ ê³ł
Ġíķ´ ìłģ
ë¹ Ĺ
ĠëĮĢíĳľ íķĺëĬĶ
Ġåº ļ
Ġê¹Ģ ì¤Ģ
íķ¨ ìĿ´
Ł Ī
ìĤ° ìĹĲ
Ġì²ł ê±°
íĸī ìĦ±
Ġìħ Ķ
Ġë²Ī ê¸¸
Ġìĥ¤ ë¥¼
Ġêµ ³
Ġë© Ī
ê²© íķľ
ìĤ¬ ì§Ģ
ĠëĤ´ë ł¸ëĭ¤
o o
ĠìĹ¬ ìĦ¯
ĠëıħíĬ¹ íķľ
ì¡° ì°¸
Ġìŀħ ìŀ¥ìĿĦ
Ġê°Ĳëıħ ìĿĦ
Ġê³¼íķĻ ê¸°ìĪł
ì£¼ ìĻĢ
íķĺìĹ¬ ìķ¼
ĠíĪ¬ ìŁģ
ĠæĪ Ĭ
Ġìı ĺ
Ġì¶Ķ êµ¬
Ġë¸Į ëŀĺ
ëĨ ĵ
Ġìĥģ ê´Ģ
ìĸ´ ë¦¬
íĥĢ ëĬĶ
en e
ĠíĽĦ ê³Ħ
Ġê¸Ī ë©Ķëĭ¬ë¦¬ìĬ¤íĬ¸
Ġë§Ĳ ìĿ´
Ġìŀħ ëł¥
Ġë°ĶìĿ´ ëŁ¬ìĬ¤
Ġê²½ ë¶Ģ
ĠìĹ¬ ë¡ł
Ġl i
ãģ «
Ġê¶Į ë¦¬
ĠìĽĮ ëĦĪ
Ġê´Ģ ì§ģ
ĠëıĦì¿ł ê°ĢìĻĢ
Ġë°ķê·¼ íĺľ
Ġæ´ ª
ĠìĻĦìłĦ íķľ
Ġìĺ Ģëĭ¤
ĠëĮĢ ë§Į
æ´ ¾
k y
Ġìĭł ë¶Ģ
ì§Ģ ìĸ´
ê¸° ìĤ¬
Ġê³¡ ìĿĢ
ìĤ° ìĿĢ
Ġë°Ķë¥´ìħĢë¡ľ ëĤĺ
ìĭľ ìķĦëĵľ
ĠìĽĶ íĺ¸
Ġpro ject
ëĮĢ ëĮĢ
Ġìŀĳ ëıĻ
Ġë§Ī ëĿ¼
ìĨĮ ìĨ¡
Ġb us
Į ë¦°
Ġìŀ¬ ì¦Ī
ĠìĦ¤ì¹ĺ ëĲľ
ê²Ģ ìĤ¬
ĠìĿ¼ ê°Ħ
Ġìĸ» ìĸ´
Ġê°ľ ìĦ±
Ġê°ľ ë°©
ĠìłĦë¬¸ ê°Ģ
Ġì§Ħ ìĭ¤
Ġë§Įëĵ¤ ê³ł
Ġíı¬ ìĿ¸íĬ¸
íĮ¨ ë¥¼
ĠëıĮìķĦ ìĻĢ
ĠíŀĪ íĭĢëŁ¬
ìķĶ ëıĻ
Ġìĺģ ëĤ¨
Ġê´Ģ ê°Ŀ
ĠíĬ¹ ìłķíķľ
ĠìłĪ ë°ĺ
Ġìĺ¬ëŀ Ĳ
íģ¬ ê°Ģ
Ġë ŁŃ
Ġìĺ¤ ë¹ł
Ġìĺ¬ ëł¸ëĭ¤
Ĩ Ģ
Ħë¦¬ ê·¸
ĠìĤ¬ë§Ŀ íķľ
Ġë¹Į ë¦¬
Ġë©Ķ ë¥´
Ġê³µ ìłķ
Ġëĭ¤ ìĨĮ
Ġì´Ī ëĵ±
ĠíĻľëıĻ íķĺê³ł
Ġë¬´ë Ŀ¼
Ġl et
ĠìķĪ íĨłëĭĪ
ĠìĦ¤ ëĵĿ
ĠìĺĪ ë°©
ĠìĤ¬ ì´Į
le x
ĠëªħìĺĪ ìĿĺ
å ī
Ġë¶Ģ ìłľ
ĠëĶĶ ì¦ĪëĭĪ
ĠìĦłìĥĿ ëĭĺ
ëįķ ìħĺ
ĠæŃ ¦
ĠìĻķ ì¡°ìĿĺ
ĠìĿ¼ë¶Ģ ê°Ģ
Ġê°Ĳëıħ ìĿ´
Ġë°ĽìķĦëĵ¤ ìĹ¬
ĠìĿ´ ê´Ģ
ĠìĹ´ë §¤
Ġì¶ľìĭľ ëĲĺìĹĪëĭ¤
ĠìĤ´ ìķĦë
ĠíķĻ ìľĦë¥¼
ì£¼ìĿĺ ìĿĺ
Ġê¹ĢëĮĢ ì¤ĳ
Ġìĭľìŀĳ ëĲľ
am a
ĠìķĮëłīìĤ° ëįĶ
Ġê³µìĤ° ëĭ¹
Ġ est
Ġìłķ ë¥ĺ
Ġëª© ìĨĮ
ìŀĲìĿ´ ëĦĪ
ç¾ ħ
Ġê¹Ģ íĺķ
ìĿ¸ë ĵ¤ìĿĦ
ĠíķľêµŃ ìĿ¸
íĦ° ë¥¼
ìĿ¸ë ªħ
ĠíĶĦë¡ľê·¸ëŀ¨ ìĿ´ëĭ¤
Ġê³³ ìľ¼ë¡ľ
ìł ĦëĮĢ
at er
ìŀ ĩ
ĠìĻķ ìĿ´
ĠíķĦìļĶ íķĺëĭ¤
ĠíķĦìļĶ ê°Ģ
ë¥ ¨
ĠëĮĢíķľë¯¼êµŃ ìĹĲìĦľëĬĶ
íĬ¹ ì§ĳ
ik e
ë¥´ ê°Ģ
Ġíģ¬ë¦¬ìĬ¤ íĨł
ë² Ħë¦¬
Ġë§Įëĵł ëĭ¤
Ġë°ľê²¬ ëĲĺìĹĪëĭ¤
ĠìĹŃ ìĿ´ëĭ¤
íĬ¸ë łĪ
Ġìĸĳ ìĿĺ
ìĹŃ ìĿĺ
Ġê¹Ģ ìłľ
Ġê¹Ģ ì°½
on y
Ġê³µìĹ° ìĿĦ
ìķĦë ĪĦ
ê³¼ë ıĦ
ìĭŃ ìŀĲ
ĠëĮĢ ëł¹
Ġë¶Ģ ëĭ´
Ġìĺ¤ ì¼Ģ
Ġìłľê³µ íķĺëĬĶ
ìĿ¸ ëıĦ
Ġë§Įëĵ¤ ê¸°
ĠëĪĪ ìĹĲ
ì ¾Į
ur g
Ġìĺģ íĺ¼
Ġë¯¸ ìĤ¬
Ġê°Ĳ ìłķ
Ġê°Ħ íĺ¸
Ġë°Ŀ ìĿĢ
ì£¼ìĿĺ ë¥¼
ĠìĹŃìĤ¬ ë¥¼
ì¸¡ ë©´
Ġíķľ ê°ķ
ĠìĿ į
Ġì½ĺ íħĲì¸ł
¬´ë ¶Ģ
b l
Ġë ¥´
Ġê°Ģ ì¦Ī
ĠìĪĺ ëıĻ
Ġìĭł ê³ł
Ġë²ķ íķĻ
Ġë¹ħíĨł ë¦¬ìķĦ
ĠìķĦ ì¦Ī
ĠìĿ¸ íħĶ
ëĦ ĺ
Ġì¡¸ìĹħ íķĺê³ł
Ĥ ľëĭ¤
ìļ´ ìĪĺ
ĠìĤ¬ ê¸°
Ġê°Ģ ìĵ°
ìķĶ ë¦¬
Ġìĩ¼ íĬ¸
Ġ Ä
ĠìķĬ ì§Ģë§Į
Ġìķ ī
ĠìłĦëıĻ ì°¨
w e
ì²´ ìĻĢ
Ġé ¾į
ì´Ŀ ìŀ¥
ëĿ¼ ê¸°
Ġì¤ĳ ìĹĲëĬĶ
av e
Ġë³Ģ íĻĶë¥¼
it ed
Ġê²ĮìŀĦ ìĿĦ
ĠìĤ¬ëĭ¨ ë²ķìĿ¸
ĠìĦ¼íĬ¸ë Ł´
Ġë¶Ģ ë¶Ģ
íĥĲ ìłķ
ë¡ľ ìļ´
ĠìĦ¸ ìĥģ
Ġíı¬ ìĬ¤íĬ¸
ĠìķĬ ìľ¼ë©´
ĠíĬ ľ
Ġë³µ ìĿĮ
ê²½ê¸° ìŀ¥
Ġê°Ģ ì¹ĺê°Ģ
Ġä¸ Ģ
ĠìŀĲ ê°Ģ
Ġìłķ ê¶Į
Ġfa ì»µ
Ġë§Ī ìĬ¤
Ġìŀ¥ ìĿĺ
if ic
Ġê¸° ìĨĮ
ĠìŀĲ ëŀĳ
Ġê°ľ ëŁī
Ġë³´ ìĿ´ì§Ģ
ìĦĿ ìĿĺ
Ġêµ¬ ë³Ħ
ìķĦ ìĿ¼ëŀľëĵľ
ì½Ķ íĨł
íĺĦë ıĻ
íĶĦëŀĢ ìĭľìĬ¤ì½Ķ
ĠìĿ´ë ĵ¤ìĿĦ
Ġt er
å¥ ³
ë¥ Ń
ĠìŀĲ ë¦¬ìĹĲ
ĠíĶ¼ íĬ¸
Ġëª¸ ìĿĦ
Ġë¶ģ ë¯¸
ĠìĬ¤ íĶ¼
ë¬¸ íĹĮ
ĠìĦłê±° ìĹĲìĦľ
Ġê°Ħë ¶Ģ
Ġë ±Ģ
ĠìĿ´ ì°½
ĠíĮĮ ëĤĺ
Ġìľ¤ ì¹ĺ
ĠìĦ¸ìĿ´ ë¶Ģ
Ġë¥´ë Ħ¤
ĠìĹ° ëĿ½
ì¶ ¤
ĠìĤ¬ëŀĮ ëĵ¤ìĿĦ
ĠíħĮ ëĭĪìĬ¤
ĠåĬ ī
Ġì§Ģ êµ¬ìĿĺ
Ġëħ¸ìĦł ìĿĦ
ë²ķ ìĿ´
Ġìĭ¬ê°ģ íķľ
ê³µ ìĹ°
Ġìĸ¸ë įķ
íĢ ĺ
ĠìĹŃ ìĹĲìĦľ
Ġë¬¸ ìĿĦ
Ġë ķ
Ġë¬¸ ìŀ¬
Ġê³Ħ ìłĪ
ëĦ¤ ë§Ī
Ġì´Ŀ ìŀ¬
Ġê¸°ëħĲ ë¬¼
ĠìĨĮ íĻĶ
Ġë°© ì§Ģ
ĠìĿ´ë£¨ ê³ł
ì¤ĳ íķľ
¤ ëĭ¤
ĠëĤĺ ìķĦê°Ģ
ì¤ĳ ìĭ¬
éĩ İ
Ġìĸ» ìĿĦ
ĠìĹ°ê²° íķĺëĬĶ
Ġp m
Ġíİ ĳ
ìĭ¤ ìŀ¥
ĠëĤ´ìļ© ìĿ´
Ġì´Ī ê¸°ìĿĺ
ĠìĿ´ë ³µ
Ġê²½ ì£¼ìĭľ
Ġì¶Ķ ê¸°ê²½
Ġê°Ĳëıħ ìľ¼ë¡ľ
ç¥ ŀ
ĠìĤ¬ìļ° ëĶĶ
ìĿ¼ ìĿ´
Ġìĭľ ë²Ķ
ëĲĺìĹĪëĭ¤ ê°Ģ
Ġë¶Ģë¶Ħ ìĿ´
Ġå· ±
Ġpro du
å¹ ´
Ġë¬´ ë¦
ê³µ íĻĶëĭ¹
íĮĮ ë¥¼
Ġëª ¸ë
ĠìĬ¤ë¯¸ ìĬ¤
ĠëĤĺëĪĦ ìĸ´
Ġê¸° íļĮë¥¼
Ġm il
íĻĶ ìłĲ
Ġå ĳ
ì¹ĺ ê²Į
ĠìĽĶ ìĿĺ
Ġë¯ ¹
ĠìĪĺ ìļĶ
ë¡ Ģë¡ľ
ê³¡ ìĿĦ
ĠíĻľìķ½ ìĿĦ
Ġë¹Ħ ìĦľ
ì¢ħ ìĿĢ
å¯ §
ê°Ģ ìļĶ
£¨ ìĬ¤
ìĥĿ ìĿĺ
æĻ Ĥ
Ġë¶Ħê¸° ìłĲ
as on
ĠíĻįë³´ë ĮĢìĤ¬
íĻĶ íķĻ
Ġì½Ķ ë¡ľëĤĺ
Ġìĺģ êµ¬
Ġíķ´ íĶ¼
ì£¼ ìĿ¸
at or
ì§ĳ íķ©
íļĮ ìĹĲ
Ġæ ¥
Ġì²´ íĹĺ
ãģ Ĩ
ĠíĶ¼ ê²¨
ãĤ ī
ĠíħĮ íģ¬
ĠìĤ¬ ì¿ł
Ġìĺ¤ ëĶĶìħĺ
ì¡ ¸
Ġíĥľìĸ´ë Ĥ¬
è ¾°
Ġëªħ ìĿĢ
Ġbo ok
ĠëĶ ľ
Ġm ic
ap p
Ġê·¸ê²ĥ ìĿ´
ĠëĮĢíķľ ìłľêµŃ
Ġk ing
é ½
Ġëı Ħë¦¬
ĠíĥĢ ëĬĶ
ĠëıĦìĭľ ìĿĺ
ĠíĻĶ ë©´
Ġì°¸ê°Ģ ìŀĲ
ë³´ ìĤ´
Ġl ine
íķĺì§Ģ ëĬĶ
ĠíĨµ ìĺģ
Ġë¯¸ ì¹´
ìĿ´ ìĥģ
ëıĦ ìĹĲìĦľ
ëħ ĦëıĦ
Ġë¨¸ë ¬¼ë
Ġr om
Ġæ ķ
Ġn d
íĮĲ ìĿ´
Ġìŀħ ë²ķ
ĠìĤ¬ê±´ ìĿĺ
ĠìĤ¬ìĹħ ìĿĦ
æ ©
Ĥĺ ëĿ¼
Ġìłķ ìŀ¬
Ġìĥ ¬
Ĳ ł
ìļ° ìĬ¤ìĿĺ
ĠìĪĺ ìĨĮ
ì¹´ ìĺ¤
em ber
Ġë ¡±
Ġê³µ ë£¡
ĠíĹĪ ê°Ģ
ĠíĨ °
ĠíĮĮ íĤ¤ìĬ¤íĥĦ
Ġë¦¬ ìĬ¤íĬ¸
Ġh a
è £
ì§ĢìĽĲ ì§Ģë°©ëıĦ
Ġc am
Ġìłķ ìĿ´
Ġë²Ħ ì§Ģ
ìĭľ íĶ½
ĠìĦ± ìłģìĿĦ
Ġë°ľê²¬ ëĲľëĭ¤
ëĭ¤ ìĿ´ëĿ¼
Ġìĭ¤ ì²ľ
Ġë ŀĳ
Ġs im
Ġìľł ì¹ĺ
Ġë§Ĳ ìĿ´ëĭ¤
Ġsc i
Ġë§Īì²ľ ë£¨
Ġìłľ ëĦ¤
g a
Ġëį§ ë¶Ļ
Ġíĥ ±
ĠìĹĨ ìĿĦ
ê¸Ī ìľµ
Ġcl ass
Ġê±°ëĳĲ ìĹĪëĭ¤
Ġì¤ĳ ìŀ¥
ìĹŃ ìĹĲìĦľ
Ġm er
Ġë³´ ìķĺëĭ¤
ĠìĿĺ ìĭ¬
ĠìĥģëĮĢ ìłģìľ¼ë¡ľ
ĠìĿ¸íĦ° íİĺìĿ´ìĬ¤
ìĩ Ħë
ĠíĥĲ íĹĺ
ĠìĤ¬ ëıĦ
ìĺ¨ ìĿĺ
Ġíİĺ ë£¨
Ġé» ĥ
ĠëĮĢíķľë¯¼êµŃ ìĹĲìĦľ
Ġê± ·
Ġhe art
ë¦¬ ìķĪ
Ġì£¼ ì§Ģ
Ġì¶Ķ ëĿ½
ĠíķŃ êµ¬
Ġì¡´ ìĬ¤
Ġëª¨ ìĿĮ
ĠíĬ¸ë łĪìĿ´
ĠæĿ ¾
Ġph il
ĠíĢ ´
Ħ ĺ
Ġìľł ìłĦìŀĲ
ĠìķĮ ìķĦ
ĠíķĦë Ŀ¼ë
Ġë§Īë¬´ ë¦¬
ìĸ´ íĬ¸
Ġíļ¨ ê³¼ë¥¼
Ġoff ic
ë² ³
Ġì£¼ë ł¥
Ġìĥģíĥľ ìĹĲìĦľ
ĠìĿ¼ ìłķíķľ
Ġê°ĸ ëĬĶëĭ¤
ĠìĪĺ ìĿµ
íĸĪëĭ¤ ê°Ģ
ìĬ¤ì¼ĢìĿ´ íĮħ
Ġm ìĿĺ
Ġst at
ĠìĿ¼ìĸ´ëĤĺ ëĬĶ
k s
Ġìĵ° ìĹ¬
Ġë¹ ļ
Ġì§ĢëĭĪ ê³ł
éĽ Ĩ
ê²© ìľ¼ë¡ľ
ëıĦ ìĤ¬
Ġíķĺ ìĹĲ
ìĹ ī
ëĲĺìĹĪ ìĿĦ
Ġìłķ ìĦł
Ġìĺ¬ ë¦¼
Ġìľł íķĻ
ê°Ģ ì¡±
ä¸ ĭ
ĠëĮĢ ì²´ë¡ľ
ĠíıŃ ëł¥
Ġì¹ĺ ëŁ¬
Ġì§Ħ ì§ľ
ĠëłĪ ìłĦë
ĠëĤĺíĥĢ ëĤĺëĬĶ
ä¿ ¡
Ġëĵ¤ìĸ´ ê°Ķëĭ¤
Ġë°° íĭĢ
ĠìĦłìĪĺ ëĭ¨
ĠìĹ´ì°¨ ê°Ģ
ens is
Ġë³¸ ì§Ī
Ġêµ¬ ìĽĲ
Ġì¶© ì£¼
Ġê³µê°ľ ëĲľ
Ġìĥģ ì²ĺ
ĠëĨĴ ëĭ¤
ĠíķŃê³µ ìĤ¬
ĠìĹĲ ëĶĶ
ĠíĶĦëŀĳìĬ¤ ìĸ´
Ġëĭ ®
Ġë³´ìĹ¬ ì¤Ģëĭ¤
ĠìĿ´ ì¤Ģ
Ġê² ī
Ġìŀħ ìĤ¬
ĠíĤ¤ ìĬ¤
å ¢
Ġi f
Ġg er
Ġì°© ê³µ
Ġìŀ Ĭ
íħĮ ìĬ¤
Ġìĺģ ì¡°
Ġê¹Ģ ëªħ
ë¯¸ ëĬĶ
ĠìĪĺ ë£Į
ĠíĻ Ģë¡ľ
íı¬ ë¥¼
ç ¢
ìĤ° ìĦ±
ur es
ĠìĥĮ íĶĦëŀĢìĭľìĬ¤ì½Ķ
Ġëĭ¤ëĭĪ ìĹĺ
Ġê°Ģ ëģĶ
íĨ °
Ġêµ¬ ë§¤
Ġê°Ĳ ìĭľ
ĠëĮĢë¶Ģë¶Ħ ìĿ´
ĠëĲĺ ëĬĶëį°
Ġì±ħ ìŀĦìĿĦ
ëıĻ ëĭ¹
ê³µ ê°Ħ
Ġb ack
å Ħ
ĠìĨĮ ìĬ¤
íĬ¸ë ¡¤
Ġë¹Ħ ìłķ
ĠìĤ¬ëł¹ ê´Ģ
ìĿ´ ìĭľ
ì¹´ë ¡ľ
Ġë³µ ìĪĺ
Ġê³ł ê¸ī
Ġê´Ģ ìĹ¬
ëħ¸ ë¦¬
ĠìĿ´ë¡ľ ìį¨
Ġíĭ° ë²ł
æĢ §
íĻĶ ëĲĺìĹĪëĭ¤
Ġê´ĳ ìĤ°
r on
Ġë Łī
Ġê³ł ê³ł
ê°Ĳ ìĿ´
ä» £
ì²´ìľ¡ ê´Ģ
ĠìŀĦë ¬´
f l
Ġn m
ĠëĮĢ ë³Ģ
ĠìĪĺ ìĪĺ
Ġê³µ ê¸°
ĠìĭľìĬ¤íħľ ìĿĦ
© ĺ
ë¯¼ ìĿĺ
Ġë°ľìĥĿ íķĺëĬĶ
Ġc s
ê¸° ìŀĲ
Ġê¸° ì§Ģ
Ġíķĺ ë²Ħëĵľ
Ġin c
op h
ion s
ĠìŀĲë¦¬ ìŀ¡
Ġìľ¨ë¦¬ ìļ°ìĬ¤
ì§Ħ ìĿĢ
Ġê°ĸì¶Ķ ê³ł
Ġd ec
ĠìĬ¤íĥĢ ë¦¬ê·¸
ìĭľ ì¦Į
ĠìĦ¬ ìĿĺ
ĠìĬ¤íĶĦë §ģ
Ġê¸į ìłķ
ĠíķĦ ìĪĺ
Ġêµ¬ ë¦¬
ĠìĦ± ì§ģ
ë³´ íĹĺ
Ġv ide
ĠìŀħíķĻ ìĭĿ
ì° ¸ëª¨
ì¡° ë¶Ģ
å¿ ĥ
Ġê¸° ëıĦ
ĠêµĲ ëªħ
íģ °
ìĿ´ìĬ¤ ì¼Ģ
Ġê¸´ ê¸ī
ë¡ ¯
ĠíĶĦë¡ľ íķĦ
ë¨¸ ë¦¬
Ġë° ´
Ġì§ĢìĹŃ ìľ¼ë¡ľ
Ġc y
Ġíıī ìĥĿ
ĠìķĮ ìķĦë
Ġì¢ħ ìĤ¬
Ġêµ ¿
Ġë°Ľìķĺ ìľ¼ë©°
Ġe ur
Ġë§Į ëĤľ
Ġíģ¬ ê³ł
ĠçĻ ¸
ëĿ¼ íĤ¤
Ġì¡° ë³
Ġë³µ ë¬´
Ġëª¬ ìĬ¤íĦ°
Ġì§ ĦëıĦ
ĠëĤĺê°Ģ ìĤ¬íĤ¤
ì§Ħ ìĺģ
ĠëĤĺ ë£¨
ë°© ìĿĺ
æķ İ
Ġëį´ë§Ī íģ¬ìĿĺ
Ġê°¤ ëŁ¬ë¦¬
Ġìĭľ ë¦½
ìĻĢ ëĿ¼
Ġê³ł ì§Ģ
ĠìĨĲ ìĿĦ
Ġë°©ìĺģ ëĲľ
Ġë°ľ íĥģ
Ġw al
le t
ĠëĤĺëī ľëĭ¤
Ġë§Ī íĤ¤
ĠëĲĺ ëıĮ
Ġë§Į íķľ
ãģ ¦
ì£¼ìĿĺ ìłģ
Ġê³¨íĤ¤ íį¼
ĠìĪĺ ìĪł
ĠìłĦ ê¹Įì§Ģ
èģ ĸ
Ġê²° ìĿĺ
Ġì§Ģ ìľĦë¥¼
ìķ¼ë §Į
Ġì¹´ë©Ķ ëĿ¼
íĶĦë ŀĳ
ĠëĤĺíı´ëłĪ ìĺ¹
ĠìĬ¤ íĨ¤
Ġíļ Ł
ë²ķ ìĿĺ
ĠíĮ¨ ëŁ¬
ĠìŀĲìľł ë¯¼ì£¼ëĭ¹
ĠìķĦìĭľìķĪ ì»µ
Ġë¯¸êµŃ ê³¼
ĠìľĦì¹ĺ ë¥¼
Ġì¢ĭ ëĭ¤
Ġíĺģ ìĭł
Ġìĭ¬ ìŀ¥
íĶĦ ìĬ¤
ĠìĦĿ ìľł
ĠìĥĪìłķì¹ĺ ë¯¼ì£¼ìĹ°íķ©
Ġë¦¬ ëĪ
ëįĶ ìĬ¤
ĠíĶĮ ë£¨
Ġé ĺ
Ġì£½ìĿĮ ìĿĦ
Ġy ork
ĠíıĲ ìĩĦ
ëĭ´ ëĭ¹
ë° ¤
Ġíķĺ ë§Ī
ĠìĬ¤ ì½§
ìĭ¤ ìĿ´
êµŃìłľ ê³µíķŃ
ĠìĿ¼ë³¸ ìĿ¸
ro p
íĶĮ ë¡ľ
ĠìķĶ íĺ¸
o b
Ĳ ¬
ĠìŀĪìĹĪëĭ¤ ê³ł
Ġì¦ī ìĭľ
ĠëĮĢ ëŁī
ĠìķĦë °Ķ
Ġk h
ĠíķĻ ìĤ´
Ġë°©ìĨ¡ ìĿĦ
Ġsh ow
Ġì§Ģìĥģ ìĹŃìĿ´ëĭ¤
Ġç¥ ŀ
ìĦľ ìĽĲ
ìĹĪëĭ¤ ê³ł
Ġìºł íį¼ìĬ¤
º «
í ŀĺ
Ġë² ¼
Ġm net
ëĬĲ ëĥĲ
Ġs un
Ġê¹Ģ ê´ĳ
ĠëĨĴ ìĿ´ëĬĶ
ĠìĤ¬ ë§ī
ë¬¸ ìĿĺ
Ġíķł ë¨¸ëĭĪ
ĠìĤ¬ ëĭ¤
Ġíı¬íķ¨ íķĺê³ł
ĠëĨį ì´Į
ìĤ¬ íķŃ
ë² ¡
ĠíĶ¼ ìķĦ
ìĭĿ ê³¼
Ġë¬´ ìļ©
ĠíĨł ë¨¸ìĬ¤
Ġg t
Ġì¡°ìĦłì´Ŀëıħ ë¶Ģ
ìĦł ìĹĲìĦľ
Ġë°° ìłķ
ĠìĤ¬ ìłģ
Ġìķŀ ìľ¼ë¡ľ
Ġìĺ¤ ëĬĶ
ĠìĿ¸ë ¬¼ë¡ľ
Ġêµ° ëĮĢ
ë¶ģ ë©´
Ġëħ¸ëıĻ ìŀĲ
íı¬ ëĵľ
ĠíĥĢ ìļ´
Ġj un
ĠìŀĳíĴĪ ìľ¼ë¡ľ
Ġë¬¼ ìĿĦ
Ġìĩ¼ ìĻĢ
ĠìĿ´ë¥´ë łĢëĭ¤
Ġs d
ĠìĿ¸ ìĥģ
ĠìĦľ ëªħ
Ġìĥģ ìĿĦ
å Ĩ
Ġì´Ī ìĹĲ
ìĺ¤ ë¡ľ
ĠìĨĮ íĺķ
ĠëĶĶ ìł¤
ĠìĿ´ìĥģ ìĿ´
Ġíģ¬ ëĭ¤
ìĹ´ ìĿĦ
Ġì°© ìļ©
ĠìĿ¸ìłĳ íķľ
ĠíĶ¼ ê³ł
ĠìľłëĭĪë²Ħ ìĭľìķĦëĵľ
íĥĢ ìŀĦ
Ġì°¸ê³ł ìŀĲë£Į
íĮĮ ëĬĶ
Ġì± Įë¦°
ì¡°íĮĲ ìĦľ
Ġëª¨ ëŀĺ
ĠìŀĪìĹĪ ê¸°
êµ ´ë
Ġíķ «
§ ī
Ġê°Ģ ìķ¼
Ġê²Ģ íĨł
ĠëĶĶ ìŀĲìĿ´ëĦĪ
Ġë¶Īê°Ģ ë¦¬ìķĦ
Ġê°Ģ ìĭľ
ĠìĿ´ë¥ ¸ë°Ķ
ĠìĽĲ ìłľ
Ġê²ĮìŀĦ ìĿĺ
ĠíħĮ ìĿ¼ëŁ¬
æ± Ł
Ġê·¼ë ³¸
er y
Ġë¶Ħ ìŀĲ
Ġëª© ìļĶìĿ¼
Ġìĺ¤ìĬ¤íĬ¸ë¦¬ìķĦ ìĿĺ
ìĹ° ìĪĺ
ĠìĿ´ë Ĥ´
Ġëĭ¨ íĸī
ĠìĿ´ë¥ ¸ëĭ¤
ĠëĮĢ ì§Ģ
íĮĮ ìĿ´ìĸ´
Ġìĭ¤ ì¢ħ
Ġê ½
ĠìķĦ íĬ¸
ãģ ¾
Ġg p
ĠíĻ© íĥľ
ĠìĿ´ìłĦ ìĹĲëĬĶ
ĠìĬĪ íį¼ë
ìĦľ ë©´
Ġìĭ« ìĸ´
Ġê´ĳ ëªħ
o ul
Ġëį°ë·Ķ íķĺìĺĢëĭ¤
