{"<s>":0,"<pad>":1,"</s>":2,"!":3,"\"":4,"#":5,"$":6,"%":7,"&":8,"'":9,"(":10,")":11,"*":12,"+":13,",":14,"-":15,".":16,"/":17,"0":18,"1":19,"2":20,"3":21,"4":22,"5":23,"6":24,"7":25,"8":26,"9":27,":":28,";":29,"<":30,"=":31,">":32,"?":33,"@":34,"A":35,"B":36,"C":37,"D":38,"E":39,"F":40,"G":41,"H":42,"I":43,"J":44,"K":45,"L":46,"M":47,"N":48,"O":49,"P":50,"Q":51,"R":52,"S":53,"T":54,"U":55,"V":56,"W":57,"X":58,"Y":59,"Z":60,"[":61,"\\":62,"]":63,"^":64,"_":65,"`":66,"a":67,"b":68,"c":69,"d":70,"e":71,"f":72,"g":73,"h":74,"i":75,"j":76,"k":77,"l":78,"m":79,"n":80,"o":81,"p":82,"q":83,"r":84,"s":85,"t":86,"u":87,"v":88,"w":89,"x":90,"y":91,"z":92,"{":93,"|":94,"}":95,"~":96,"¡":97,"¢":98,"£":99,"¤":100,"¥":101,"¦":102,"§":103,"¨":104,"©":105,"ª":106,"«":107,"¬":108,"®":109,"¯":110,"°":111,"±":112,"²":113,"³":114,"´":115,"µ":116,"¶":117,"·":118,"¸":119,"¹":120,"º":121,"»":122,"¼":123,"½":124,"¾":125,"¿":126,"À":127,"Á":128,"Â":129,"Ã":130,"Ä":131,"Å":132,"Æ":133,"Ç":134,"È":135,"É":136,"Ê":137,"Ë":138,"Ì":139,"Í":140,"Î":141,"Ï":142,"Ð":143,"Ñ":144,"Ò":145,"Ó":146,"Ô":147,"Õ":148,"Ö":149,"×":150,"Ø":151,"Ù":152,"Ú":153,"Û":154,"Ü":155,"Ý":156,"Þ":157,"ß":158,"à":159,"á":160,"â":161,"ã":162,"ä":163,"å":164,"æ":165,"ç":166,"è":167,"é":168,"ê":169,"ë":170,"ì":171,"í":172,"î":173,"ï":174,"ð":175,"ñ":176,"ò":177,"ó":178,"ô":179,"õ":180,"ö":181,"÷":182,"ø":183,"ù":184,"ú":185,"û":186,"ü":187,"ý":188,"þ":189,"ÿ":190,"Ā":191,"ā":192,"Ă":193,"ă":194,"Ą":195,"ą":196,"Ć":197,"ć":198,"Ĉ":199,"ĉ":200,"Ċ":201,"ċ":202,"Č":203,"č":204,"Ď":205,"ď":206,"Đ":207,"đ":208,"Ē":209,"ē":210,"Ĕ":211,"ĕ":212,"Ė":213,"ė":214,"Ę":215,"ę":216,"Ě":217,"ě":218,"Ĝ":219,"ĝ":220,"Ğ":221,"ğ":222,"Ġ":223,"ġ":224,"Ģ":225,"ģ":226,"Ĥ":227,"ĥ":228,"Ħ":229,"ħ":230,"Ĩ":231,"ĩ":232,"Ī":233,"ī":234,"Ĭ":235,"ĭ":236,"Į":237,"į":238,"İ":239,"ı":240,"Ĳ":241,"ĳ":242,"Ĵ":243,"ĵ":244,"Ķ":245,"ķ":246,"ĸ":247,"Ĺ":248,"ĺ":249,"Ļ":250,"ļ":251,"Ľ":252,"ľ":253,"Ŀ":254,"ŀ":255,"Ł":256,"ł":257,"Ń":258,"Ġì":259,"Ġë":260,"ìĿ":261,"Ġê":262,"íķ":263,"ìĹ":264,"Ġí":265,"ëĭ":266,"ìĿ´":267,"ìĿĺ":268,"ëĭ¤":269,"ê³":270,"Ħë":271,"ìĦ":272,"ìĹĲ":273,"ĠìĿ":274,"ëĬ":275,"¡ľ":276,"ìł":277,"ëĬĶ":278,"ìŀ":279,"êµ":280,"¼ë":281,"íķĺ":282,"ì§":283,"ê°":284,"ë¦":285,"ìĭ":286,"Ġìŀ":287,"Ĥ¬":288,"ìľ":289,"ìĿĦ":290,"ìĬ":291,"ĮĢ":292,"Ġë¶":293,"¸°":294,"´ë":295,"íķľ":296,"ìķ":297,"Ġê°":298,"ëı":299,"Ġìł":300,"ë¥":301,"ê³ł":302,"ĠìĦ":303,"ìĬ¤":304,"ë¦¬":305,"ìļ":306,"ìĦľ":307,"Ġìķ":308,"ì§Ģ":309,"ê°Ģ":310,"¸ë":311,"ĠìĹ":312,"Ġë°":313,"ìĸ":314,"ìĿĢ":315,"ê¸°":316,"Ħë¥":317,"Īëĭ¤":318,"ìĺ":319,"Ġìĭ":320,"ìľ¼ë":321,"ëĵ":322,"Īĺ":323,"ìĭľ":324,"ê²":325,"Ġê²":326,"Ħë¥ĺ":327,"Ġë¶Ħë¥ĺ":328,"Ġë§":329,"ë¡ľ":330,"Ġìĺ":331,"Ĥĺ":332,"Ġê³":333,"ìĤ¬":334,"ì¹":335,"Ŀ¼":336,"ĠëĮĢ":337,"Ġì§":338,"ìĥ":339,"êµŃ":340,"ìŀĲ":341,"ìĿ¸":342,"ĠìĿ´":343,"ëıĦ":344,"£¼":345,"ìĽ":346,"Ġêµ":347,"Ġìľ":348,"ìľ¼ë¡ľ":349,"ë¥¼":350,"ĠìĤ¬":351,"ëł":352,"ë§":353,"íĻ":354,"Ġëĭ":355,"ìĹĲìĦľ":356,"Ġëı":357,"ëĲ":358,"¶Ģ":359,"íķĻ":360,"íĬ":361,"íĸ":362,"ìĸ´":363,"ìĪĺ":364,"ìĻ":365,"ë°":366,"íĺ":367,"íķ´":368,"Ġë³":369,"ì²":370,"Ġê·":371,"íĥ":372,"ìĨ":373,"ê³¼":374,"êµ¬":375,"ë¬":376,"ìŀ¥":377,"ë©":378,"Ġëª":379,"ìĽĲ":380,"ìłķ":381,"ë¯":382,"ì£¼":383,"ìĥģ":384,"¡°":385,"ìķĦ":386,"ëĿ¼":387,"íĻĶ":388,"Ġìĭľ":389,"ëĮĢ":390,"ìĦ±":391,"Ġê¸°":392,"Ġì§Ģ":393,"ë³":394,"íĬ¸":395,"Ġì¶":396,"ëĤĺ":397,"Ġê°Ģ":398,"Ġìļ":399,"ìĻĢ":400,"êµĲ":401,"Ġìĥ":402,"Ġíĺ":403,"Ġëħ":404,"ëŀ":405,"ìłģ":406,"´Ģ":407,"ë¶Ģ":408,"ë²":409,"ëį":410,"ìłĦ":411,"ĠìĬ":412,"¤ĳ":413,"Ġë¯":414,"ëĲĺ":415,"íĦ":416,"Ġíķĺ":417,"ļĮ":418,"Ġë¬":419,"ìļ°":420,"ëĵľ":421,"ĠëĤ":422,"ĠìĨ":423,"ëª":424,"ê·":425,"Ĥ°":426,"ê²Į":427,"íĶ":428,"¹Ħ":429,"ĠíĻ":430,"ì¹ĺ":431,"ìłľ":432,"Ġë²":433,"ģ¬":434,"ìĿ´ëĭ¤":435,"Ġìłķ":436,"íĨ":437,"ĠìŀĪ":438,"ìĹĪëĭ¤":439,"ìĺĢ":440,"Ġê²½":441,"íĦ°":442,"ìĦł":443,"ĠíĶ":444,"ëıĻ":445,"ĠìĿ´ë":446,"ĠìĦł":447,"Ġëĵ":448,"Ġì°":449,"Ġì²":450,"Ġíķ":451,"ìĹ¬":452,"ìĿ¼":453,"ëĵ¤":454,"ĠìĪĺ":455,"ĠìłĦ":456,"ì°":457,"ëĭĪ":458,"ĠìĻ":459,"Ġs":460,"¦¬":461,"Ġìĸ":462,"Ġê³µ":463,"íļĮ":464,"Ġíĥ":465,"Ġìĺģ":466,"ĠìŀĲ":467,"±°":468,"Ġìľł":469,"ĠìķĦ":470,"Ġëĭ¤":471,"Ġíķľ":472,"ìĤ°":473,"Ġíı":474,"ĮĮ":475,"Ġê°ľ":476,"ĠìŀĪëĭ¤":477,"ëŁ":478,"ìļ©":479,"ĠìĽ":480,"íĥĢ":481,"íģ¬":482,"Ġë¶Ģ":483,"ê¸":484,"Ġìĺ¤":485,"ĠëıĻ":486,"ë©´":487,"ìĭł":488,"Ġì¡°":489,"Ġë§Ī":490,"Ġt":491,"ë¯¼":492,"ìĹŃ":493,"Ġë¯¸":494,"Ġì¤ĳ":495,"ĠìĿ¸":496,"ĠìĬ¤":497,"ĠìĹ°":498,"Ġìłľ":499,"Ġm":500,"Ġì¹":501,"ëħ":502,"ìĨĮ":503,"íı":504,"ëĤ":505,"ë¬¸":506,"½Ķ":507,"êµ°":508,"íķĺìĺĢ":509,"ë¥´":510,"ê³µ":511,"ì¦":512,"ìĺ¤":513,"ì§Ħ":514,"ĠìĦľ":515,"Ġê·¸":516,"ĠìĨĮ":517,"íķĺëĬĶ":518,"ĠëĤĺ":519,"Ġc":520,"Ġë³´":521,"ĠêµŃ":522,"Ĥ¤":523,"Ġê³ł":524,"ĽĦ":525,"ê³Ħ":526,"ĠìľĦ":527,"¢ħ":528,"íķĻêµĲ":529,"Ġa":530,"ê´Ģ":531,"ĠìĦ¸":532,"er":533,"ë¡":534,"ì¶":535,"ë§Į":536,"íĸĪëĭ¤":537,"íĭ":538,"ì¡°":539,"ëĭ¹":540,"Ġê²ĥ":541,"ĠìĿ¼ë":542,"Ġëª¨":543,"ë£":544,"Ġìĭł":545,"in":546,"ìŀ¬":547,"Ġì£¼":548,"Ġê¹":549,"ĠìĹ¬":550,"Ġp":551,"ìĭĿ":552,"ĠëĮĢíķľ":553,"ĠìĿ¼":554,"ĶĶ":555,"Ġêµ¬":556,"ìĹ°":557,"ĠíĨ":558,"ĠëĲ":559,"ì¹´":560,"ë§Ī":561,"Ŀ¼ë":562,"ëĲľ":563,"íķĺê³ł":564,"ë¶":565,"ê°Ħ":566,"ĠíĶĦë":567,"êµŃìĿĺ":568,"on":569,"íĤ¤":570,"ìĺģ":571,"Ġìĥģ":572,"ê²½":573,"ĳľ":574,"Ġå":575,"íĸī":576,"ĠìĿĺ":577,"Ġê·¸ë":578,"Ġë°ľ":579,"ìĹħ":580,"ëĭ¨":581,"ìĿĮ":582,"ŀĪ":583,"Ġê¹Ģ":584,"ìľĦ":585,"íķĺìĹ¬":586,"ê±°":587,"©°":588,"Ġk":589,"ĠìĦ±":590,"íķĺìĺĢëĭ¤":591,"łĪ":592,"Ġë°©":593,"ëłĪ":594,"íĨł":595,"Ġf":596,"ìŀĳ":597,"ĠìĹĲ":598,"ĠêµĲ":599,"ì¡":600,"µľ":601,"ë¹Ħ":602,"ĠìķĦë":603,"´Ī":604,"ìĸ´ë":605,"ìľł":606,"Ġì¶ľ":607,"ëĦ":608,"ë¯¸":609,"ĠëĤ¨":610,"ìĹĪ":611,"Ġê´Ģ":612,"íİ":613,"ĠëıĦ":614,"ìĪ":615,"ìļĶ":616,"ëªħ":617,"an":618,"Ġíĸ":619,"ĠíĮĮ":620,"¸Į":621,"íķľëĭ¤":622,"Ġìŀ¥":623,"ìķĪ":624,"Ġìļ°":625,"Ġëĵ±":626,"Ġd":627,"íĮ":628,"ĠíĬ":629,"Ġb":630,"ìľ¼ë©°":631,"ĠëĲĺ":632,"ì²´":633,"íĺ¸":634,"ĵ¤":635,"ë©°":636,"ìŀĦ":637,"Ġìŀĳ":638,"ì¦Ī":639,"ìĨį":640,"ĠëħĦ":641,"ìĸĳ":642,"íħ":643,"Ġìµľ":644,"Ġëį":645,"ĠìĦłìĪĺ":646,"Ġë¹Ħ":647,"Ġæ":648,"ì½Ķ":649,"ìķ¼":650,"ìĹĲëĬĶ":651,"ìĥĿ":652,"¹Į":653,"íķł":654,"Ġë©":655,"ĠìĤ":656,"íĭ°":657,"Ġì£":658,"ë°©":659,"en":660,"íĨµ":661,"íĽĦ":662,"´ĳ":663,"ĠëĮĢíķľë¯¼":664,"íı¬":665,"Ġê¸":666,"§Ī":667,"Ġë¬¸":668,"ĠìĹŃ":669,"or":670,"Ġë°Ķ":671,"Ġë§Į":672,"ëįĺ":673,"Ł¬":674,"ì°¨":675,"ì¢ħ":676,"Ġíİ":677,"Ġê°ķ":678,"ar":679,"Ġíı¬":680,"Ġë¦¬":681,"±´":682,"Ġë°°":683,"ëŁ¬":684,"ëĲĺìĹĪëĭ¤":685,"¶Į":686,"Ġëªħ":687,"ì¤ĳ":688,"ìħ":689,"ëį°":690,"ë³´":691,"ĳĲ":692,"íĳľ":693,"³¸":694,"Ī¬":695,"Ġl":696,"ĠíĨµ":697,"ëł¥":698,"ë¦½":699,"ĠëĿ¼":700,"ĠìĥĿ":701,"ĠìĽĲ":702,"íŀĪ":703,"Ġíķ´":704,"íĮĮ":705,"ĵľ":706,"ëĿ¼ë":707,"ì²ľ":708,"ĠìŀĪëĬĶ":709,"Ġê²°":710,"Ġê°Ļ":711,"íĴ":712,"ĠìĺģíĻĶ":713,"ĠíĮ":714,"Ġì¶ķ":715,"ëł¤":716,"¤Ģ":717,"ķĮ":718,"ìĬ¹":719,"ë¡Ŀ":720,"ì¸":721,"Ġë¹":722,"íĶĦ":723,"íĺķ":724,"Ġë¬´":725,"ê¹Į":726,"ìĦ¸":727,"ĠìĤ¬ëŀ":728,"ĠìķĬ":729,"es":730,"Ġr":731,"ĠìĿ¼ë³¸":732,"Ġê±°":733,"íĹ":734,"ì¿":735,"ì§Ģë§Į":736,"Ġì§Ħ":737,"Ġë¶Ī":738,"íĺĦ":739,"ì¼":740,"íķ©":741,"ëĵ±":742,"ĠìķĪ":743,"Ġì°¨":744,"Ġíĥľ":745,"al":746,"at":747,"Ġo":748,"ëª¨":749,"Ġë¡ľ":750,"¥¼":751,"ìĭ¤":752,"Ġì°¸":753,"Ġê°ģ":754,"ê·¸":755,"ìĨ¡":756,"ĠíĹ":757,"ŀĺ":758,"ë£¨":759,"íĬ¸ë":760,"ë¬´":761,"Ġg":762,"ìļ´":763,"íĸĪ":764,"he":765,"Ġëĭ¹":766,"ìĹĲê²Į":767,"ìĦ¤":768,"ê²©":769,"ë²ķ":770,"ĠíĥĢ":771,"ìłĲ":772,"ë¬¼":773,"Ġn":774,"Ġì¶ķêµ¬":775,"¸ë¶Ģ":776,"£¨":777,"ĠìĦ¤":778,"Ġìĭ¤":779,"ĠíĺĦ":780,"ĠìĺĪ":781,"ĠëĦ":782,"Ħë¡ľ":783,"Ĥ¨":784,"íĿ":785,"ìķĺ":786,"ë¦°":787,"ë¥¸":788,"Ġëĭ¨":789,"ĠíĬ¹":790,"Ġj":791,"Ġì½Ķ":792,"ê¹Įì§Ģ":793,"ì»":794,"ĠëĶ":795,"ì²Ń":796,"ĠìķĮ":797,"Ġìŀ¬":798,"Ġë°ĺ":799,"ë°Ķ":800,"ì§ģ":801,"is":802,"ĠìļĶ":803,"Ġíĺ¸":804,"bs":805,"ìĪł":806,"ìĦĿ":807,"ê°ģ":808,"ĠìĹĨ":809,"ìļ¸":810,"ĠìĿĮ":811,"Ġw":812,"Ġëĺ":813,"Ġh":814,"Ġê³Ħ":815,"íĥľ":816,"it":817,"ìłģìĿ¸":818,"ic":819,"ĠíķĻ":820,"ê¶Į":821,"ıĦ":822,"ì¶ľ":823,"ë°ľ":824,"ëł¹":825,"íĴĪ":826,"Ġê²½ê¸°":827,"Ġë°ķ":828,"ë¶Ħ":829,"ĠìĪ":830,"ĠëĺĲ":831,"ĠëķĮ":832,"ìłģìľ¼ë¡ľ":833,"ìķĦë":834,"¼ë¡ľ":835,"ĠìĤ¬ëŀĮ":836,"Ġì¢ħ":837,"ĠìĽĶ":838,"Ġé":839,"ĠíĽĦ":840,"Ġë²Ī":841,"ĠìłĦë":842,"Ġëħ¸":843,"íħĮ":844,"ê¸ī":845,"Ġíķ¨":846,"ĠíĶĦë¡ľ":847,"Ġê°Ĳ":848,"Ġì´Ī":849,"ëıħ":850,"ĠëłĪ":851,"ĠìĤ¬ìļ©":852,"ìĬ¤íĬ¸":853,"íĮĲ":854,"ĠëĤ´":855,"Ġëıħ":856,"Ħë¥¼":857,"ëĤ¨":858,"ĠëĶ°":859,"ì¡±":860,"ì´Ī":861,"ĠëĮĢíķľë¯¼êµŃìĿĺ":862,"ì¿ł":863,"ë¸Į":864,"íķ¨":865,"Ġë²ł":866,"Ġë§Ĳ":867,"ê³¡":868,"ĠíĻĶ":869,"ıĻ":870,"Ġe":871,"ê°ľ":872,"ĠíķľêµŃ":873,"ë¦¼":874,"íķŃ":875,"ìĿ¸ë":876,"ì¤Ģ":877,"ë¦Ħ":878,"Ġìĺ¬":879,"Ġë°Ľ":880,"ĠëĨ":881,"ĠíļĮ":882,"ĠìĬ¹":883,"ë°ĺ":884,"Ġìĸĳ":885,"Ġêµ°":886,"íİĺ":887,"Ġë§ģ":888,"ìŀħ":889,"Ġíıī":890,"Ġë§¤":891,"Ġê²Į":892,"ë£Į":893,"´ī":894,"ëĦ¤":895,"ê¸Ī":896,"Ġíĸī":897,"ĠìĻ¸ë¶Ģ":898,"ê±´":899,"ìħĺ":900,"ëĲĺìĸ´":901,"íĶ¼":902,"ëħ¸":903,"Ġì¶Ķ":904,"Ġíħ":905,"´Ŀ":906,"Ġë§ģíģ¬":907,"ë¹":908,"Ġëĵľ":909,"ì¸ł":910,"Ġíķľëĭ¤":911,"ĦëĮĢ":912,"íĪ¬":913,"Ġëª©":914,"Ġë©Ķ":915,"ãģ":916,"ëĶĶ":917,"Ġthe":918,"Ġì¡":919,"ëŀĺ":920,"ĵ°":921,"íķĺê²Į":922,"Ġë¶Ħ":923,"ë²Ħ":924,"Ġíģ¬":925,"ìĭ¬":926,"íķĺê¸°":927,"ë¶ĢíĦ°":928,"ë¥´ë":929,"ê´ĳ":930,"ª½":931,"ì£":932,"Ġë¯¸êµŃ":933,"Ħë¦¬":934,"ê·¸ë":935,"Ġë³Ģ":936,"ëĵ±íķĻêµĲ":937,"ë©Ķ":938,"Ġç":939,"Ġì±":940,"ìĹĲìĦľëĬĶ":941,"Ġì£¼ë":942,"ĠìĿ´íĽĦ":943,"ëĳĲ":944,"ìķħ":945,"Ġëį°":946,"ĠìĤ°":947,"ĠíĿ":948,"Ġìŀħ":949,"ì§Ī":950,"ë³Ħ":951,"ãĥ":952,"us":953,"ìĸ¸":954,"ëĬ¥":955,"ë¦¬ìķĦ":956,"Ġìº":957,"ìķ½":958,"ê°ķ":959,"ì£¼ìĿĺ":960,"ìĿ¼ë":961,"Ġê°ģì£¼":962,"ë©´ìĦľ":963,"íĸ¥":964,"Ġíĺķ":965,"ĠíĻľ":966,"ĠìĦľìļ¸":967,"ìľ¡":968,"ìĻķ":969,"ĠëħĦìĹĲ":970,"ëŀĢ":971,"ĠíĨł":972,"Ġë¶ģ":973,"Ġë¯¼":974,"ìª½":975,"ĠíĽ":976,"le":977,"Ġì²Ń":978,"Ġì²ľ":979,"ĠìĻķ":980,"Ġê´ĳ":981,"Ġì²ł":982,"ëıĦë":983,"¸Ķ":984,"Ġv":985,"ìķĺëĭ¤":986,"©´":987,"Ġìĸ´ë":988,"ì²ł":989,"ìľ¼ëĤĺ":990,"ëħĦ":991,"ĠíĶ¼":992,"ë§¤":993,"ìĤ":994,"¨¸":995,"ìĶ":996,"Ġìĸ´":997,"Ġè":998,"ìłĢ":999,"Ġìļ´":1000,"ì¼Ģ":1001,"Ġë¸Į":1002,"ë¥ĺ":1003,"Ġê·¸ë¦¬":1004,"ëĭ¬":1005,"ìĽĮ":1006,"ëł¨":1007,"ŀĳ":1008,"Ġë§İ":1009,"Ġì¹´":1010,"Ġof":1011,"ìĺĢëĭ¤":1012,"ion":1013,"Ġê³¼":1014,"Ġìłģ":1015,"ì²ĺ":1016,"ĠëĲĺìĹĪëĭ¤":1017,"ê»":1018,"ĠìĤ´":1019,"íĻĺ":1020,"ê²°":1021,"ľëĭ¤":1022,"ëĵł":1023,"Łģ":1024,"ĠíķŃ":1025,"ol":1026,"íļ":1027,"Ġì»":1028,"Ġìķł":1029,"ĠêµŃê°Ģ":1030,"Ġíĳľ":1031,"ìĭľìķĦ":1032,"ìļ´ë":1033,"Ġíİ¸":1034,"íİ¸":1035,"ìĿ´ëĿ¼":1036,"Ġì¦":1037,"Ġì§ĢìĹŃ":1038,"ê¸Ģ":1039,"om":1040,"ìŁģ":1041,"ë²ł":1042,"ë¶ģ":1043,"ëŁī":1044,"°ĺ":1045,"un":1046,"ëª©":1047,"ĠìĻ¸":1048,"ê»ĺ":1049,"ì§ĳ":1050,"ëĤ´":1051,"ìĺĪ":1052,"ĠìľĦíķ´":1053,"as":1054,"Ġê·¸ëĬĶ":1055,"³´":1056,"ur":1057,"íģ":1058,"ä¸":1059,"Ġê¸Ī":1060,"Ġì§ģ":1061,"Ġì¡°ìĦł":1062,"ì±":1063,"ëĬĶëį°":1064,"į¼":1065,"Ġë³´ë":1066,"Ġê±´":1067,"ĠëĮĢíķľë¯¼êµŃ":1068,"Ġê°ĻìĿĢ":1069,"Ġëĭ¬":1070,"ĠëĶĶ":1071,"ľëĵľ":1072,"ĠìłĢ":1073,"íĽ":1074,"·¨":1075,"Ġìĭľìŀĳ":1076,"ë³µ":1077,"Ġëĵ¤":1078,"ĠíŀĪ":1079,"Ġíĥľìĸ´ë":1080,"ĠìĪľ":1081,"el":1082,"ĠëķĮë¬¸":1083,"ĠìĤ¬ìĿ´":1084,"ĠíĪ¬":1085,"íıī":1086,"ë³ĳ":1087,"Ġíģ":1088,"ì¹´ë":1089,"ĠíĺĦìŀ¬":1090,"Ġë¹Ħë":1091,"ing":1092,"ĠìĥĪ":1093,"il":1094,"Ġëħ¸ë":1095,"ĠìĿ´ë¦Ħ":1096,"Ġíķ¨ê»ĺ":1097,"ĠìŀĦ":1098,"Ġì¶©":1099,"ĠìĤ¼":1100,"am":1101,"ìĺ¨":1102,"ãĤ":1103,"ëĵ¤ìĿ´":1104,"Ġin":1105,"ì½":1106,"Ġì²ĺ":1107,"Ġê²½ìļ°":1108,"ĠëĶ°ëĿ¼":1109,"ìĬ¤ìĿĺ":1110,"Ġì£½":1111,"íĿ¬":1112,"ëĿ¼ë§Ī":1113,"ì¶ķ":1114,"Ġê¸°ë¡Ŀ":1115,"ĬĶ":1116,"ĠìŀĳíĴĪ":1117,"ëĲĺìĹĪ":1118,"Ġì§ĳ":1119,"et":1120,"Ġë¯¸êµŃìĿĺ":1121,"Ġë°©ìĨ¡":1122,"Ġë£¨":1123,"ìĶ¨":1124,"ëĲľëĭ¤":1125,"ì¡Į":1126,"Ġíķ©":1127,"ĠíĻ©":1128,"ìĿ´ë©°":1129,"Ġë³¸":1130,"Ġëĭ¤ë¥¸":1131,"ìłĪ":1132,"ŀĢ":1133,"Ġë°±":1134,"ìł¸":1135,"ìĥī":1136,"Ġkbs":1137,"ì°½":1138,"Ġë³µ":1139,"bc":1140,"ĠíĶĮ":1141,"ìĿ´ìĬ¤":1142,"Ġì´Ŀ":1143,"Ġë²ķ":1144,"Ġê°ĻìĿ´":1145,"ĠíĶĦëŀĳ":1146,"íĻ©":1147,"Ġê·¸ëŁ¬":1148,"Ġì°½":1149,"ac":1150,"Ġi":1151,"ĠìĨį":1152,"Ġìĭ¬":1153,"íķĺëĭ¤":1154,"Ġìķ¼":1155,"Ġì²´":1156,"ìĿ´ëĤĺ":1157,"Ġì¢":1158,"íķĺë©°":1159,"ĠìŀĲìĭł":1160,"ĠìĹ´":1161,"ĠìĹŃìĤ¬":1162,"ìķł":1163,"Ġíİĺ":1164,"ë²Ķ":1165,"¯¸":1166,"Ġê±":1167,"ì§¸":1168,"ë¡ł":1169,"Ġë¯¸ë":1170,"ĠëĺĲíķľ":1171,"Ġìļ©":1172,"ªħ":1173,"¯¼":1174,"ĠëĳĲ":1175,"ìĻ¸":1176,"íĥĪ":1177,"Ġan":1178,"ĠìłĲ":1179,"íķĺì§Ģ":1180,"ìŀĪ":1181,"ê·¹":1182,"ê·¼":1183,"ì¦Į":1184,"ĠìĹĲìĦľ":1185,"íĹĺ":1186,"Ġì¶ľìĭł":1187,"Ġê°Ħ":1188,"¬¼":1189,"ê°Ĳ":1190,"ëĵ¤ìĿĢ":1191,"Ġê²ĮìŀĦ":1192,"Ġì½":1193,"ĠìĦ¸ê³Ħ":1194,"Ġì¹´ë":1195,"Ġë°°ìļ°":1196,"ī´":1197,"ĠíĮĮìĿ¼":1198,"ĠìĿ¸ë":1199,"ĠíĮĲ":1200,"į°":1201,"ëįĶ":1202,"Ġst":1203,"Ġëĭ¤ìĿĮ":1204,"ë°°":1205,"ro":1206,"ì£¼ë":1207,"ĠíĻķ":1208,"ì³":1209,"ĠìĿ¼ë¶Ģ":1210,"¶ģ":1211,"re":1212,"Ġëĭ¹ìĭľ":1213,"ĠíķĺëĤĺ":1214,"Ġì¹ĺ":1215,"ìľĦìĽĲ":1216,"Ġëģ":1217,"ì°°":1218,"íĶ½":1219,"íĮĢ":1220,"ĠìķĦìĿ´":1221,"ìķĻ":1222,"ĠëĦ¤":1223,"²Ħ":1224,"ĠíĻį":1225,"ëłĪìĿ´":1226,"ħ¸":1227,"ĠëķĮë¬¸ìĹĲ":1228,"Ġê°Ĳëıħ":1229,"Ŀ½":1230,"Ġê°Ģìŀ¥":1231,"ë³¸":1232,"ìĬµ":1233,"Ġì¦Ŀ":1234,"ê²¬":1235,"Ġìĭľì¦Į":1236,"ĠìĹ¬ìŀĲ":1237,"ĠëĲľëĭ¤":1238,"ê·ľ":1239,"Ġë³ĳ":1240,"Ķëĭ¤":1241,"´ë¥¼":1242,"Ĳĺ":1243,"ed":1244,"Ġë¦¬ê·¸":1245,"Ġê·¸ìĿĺ":1246,"ĠíĻľëıĻ":1247,"ĠìºĲ":1248,"ìĿ´íĬ¸":1249,"ĠëĺĲëĬĶ":1250,"ìĿ´ì§Ģ":1251,"ê¸°ëıĦ":1252,"Ġíģ´ë":1253,"ĠëĬ":1254,"ig":1255,"id":1256,"Ġpx":1257,"ì¹Ń":1258,"ĠíħĮ":1259,"Ġê²ĥìĿĦ":1260,"ĠëıħìĿ¼":1261,"ĠëĪ":1262,"Ġê¶Į":1263,"ë§Ŀ":1264,"Ġíļ":1265,"¬¸":1266,"ëĦĪ":1267,"Ġì·¨":1268,"ìĹĲëıĦ":1269,"ëıĦìĿĺ":1270,"ĠíĮ¨":1271,"ìĪľ":1272,"ĠìĿĺíķ´":1273,"pg":1274,"ĠìĪĺìĥģ":1275,"Ġê·¸ëŁ¬ëĤĺ":1276,"Ġê°Ģì§Ģ":1277,"ĠìľĦì¹ĺ":1278,"ĠíĽĦë":1279,"Ġtv":1280,"ĠëıĦë":1281,"¸ë¡ľ":1282,"ĠêµŃìłľ":1283,"ìĹ´":1284,"Ġíĥľìĸ´ëĤ¨":1285,"Ġê²ĥìĿ´":1286,"ch":1287,"Ġì¹ľ":1288,"Ģë¡ľ":1289,"íį¼":1290,"ĠëıĮ":1291,"ĠíĸĪëĭ¤":1292,"ĠìĿĮìķħ":1293,"Ġëª»":1294,"ëĮĢíķĻêµĲ":1295,"ìĵ°":1296,"ìĿ´ìħĺ":1297,"Ġì¤Ģ":1298,"¼ë§Ī":1299,"ĠìŀĪìľ¼ë©°":1300,"ĠìĨĲ":1301,"ìĽ¨":1302,"Ġê²ĥìľ¼ë¡ľ":1303,"ent":1304,"Ġë¬´ë":1305,"ĠìŀĪìĹĪëĭ¤":1306,"ĠëĵľëĿ¼ë§Ī":1307,"íļĮìĿĺ":1308,"ĠìĦ¸ê¸°":1309,"Ġìľ¼ë¡ľ":1310,"Ġì¡´":1311,"Ġì°¸ê°Ģ":1312,"¡ł":1313,"ĠëıĻë¬¸":1314,"íĥĦ":1315,"ĠíĴ":1316,"Ġjpg":1317,"ĠìĿ´ëĿ¼":1318,"ìĬ¬":1319,"Ġìĵ°":1320,"Ġê·¸ë¦¬ê³ł":1321,"Ġë²Ħ":1322,"ëĲĺëĬĶ":1323,"ĠëħĦë":1324,"ëĤľ":1325,"ì±ħ":1326,"Ġmbc":1327,"Ġì¼":1328,"ĠëĤ¨ìŀĲ":1329,"ëĿ½":1330,"os":1331,"ê¸°ë¥¼":1332,"ìŀĪëĬĶ":1333,"ĠìĿĢ":1334,"íĭĢ":1335,"íĶĮ":1336,"¨¼":1337,"ĠìĦ¤ë¦½":1338,"ëŀľëĵľ":1339,"ëĵ¤ìĿĺ":1340,"ëĵ¤ìĿĦ":1341,"ë¦¼íĶ½":1342,"ĠëŁ¬":1343,"ì¶Ķ":1344,"íļį":1345,"Ġë³´ê¸°":1346,"¼ë¦¬":1347,"íĬ¹":1348,"ĠíĹĪ":1349,"ĠëĤ´ë":1350,"ë¦¬ëĬĶ":1351,"ĠíĨµíķ´":1352,"ŀ¨":1353,"ëĬĶëĭ¤":1354,"ë¦¬ìĬ¤":1355,"ĠìĦłê±°":1356,"Ġìłķì¹ĺ":1357,"ł¥":1358,"ë¦Ń":1359,"ĠìĨ¡":1360,"ìĦ¼":1361,"íĻľ":1362,"ìĬ¨":1363,"Ġìľ¡":1364,"ĠìĤ¬íļĮ":1365,"ł¤":1366,"ĠíĤ¤":1367,"íĦ´":1368,"ĠëįĶ":1369,"ĠìĹ°êµ¬":1370,"ĠìĿ´ìĥģ":1371,"Ġìľ¤":1372,"Ġì¤ĳêµŃ":1373,"ad":1374,"Ġì¶ľìĹ°":1375,"íĽĪ":1376,"ê²ĥ":1377,"Ġë¬¸íĻĶ":1378,"Ġëī´":1379,"ĠìĭĿ":1380,"ĠíķĺëĬĶ":1381,"Ġì¿":1382,"Ġë²Īì§¸":1383,"um":1384,"ë¯¸ë":1385,"Ġìĺ¬ë¦¼íĶ½":1386,"íĥĿ":1387,"ëĭĪìķĦ":1388,"ì¡Įëĭ¤":1389,"ĠìĿ¼ë³¸ìĿĺ":1390,"ĠìĦ¸ë":1391,"Ġìłľìŀĳ":1392,"ê¸°ìĹĲ":1393,"°Ķ":1394,"ĠëĮĢíķĻ":1395,"Ġë§Įëĵ¤":1396,"ĠëĨĴ":1397,"Ġê°ľìĿĺ":1398,"ĠìĻĦ":1399,"äº":1400,"Ġì¡¸":1401,"ut":1402,"Ġìļ°ìĬ¹":1403,"ĠíĶĦë¡ľê·¸ë":1404,"©Ķ":1405,"ìĽĶ":1406,"Ġëĵ¤ìĸ´":1407,"ĠëıĦìĭľ":1408,"Ġëĭ¤ìĭľ":1409,"Ġíı¬íķ¨":1410,"ë¦¬ë¥¼":1411,"ë´ī":1412,"ĠìĦĿ":1413,"iv":1414,"ìĬ¤íĦ°":1415,"ì§ĢëĬĶ":1416,"ĠìłĦìŁģ":1417,"Ġì²łëıĦ":1418,"íĺģ":1419,"ì»µ":1420,"Ġê²ĥìĿ´ëĭ¤":1421,"Ĥ´":1422,"ëħĢ":1423,"ì¦Ŀ":1424,"Ġë¸Ķ":1425,"ì³Ĳ":1426,"Ġë§İìĿĢ":1427,"Ġì¡¸ìĹħ":1428,"Ġkm":1429,"íĺĳ":1430,"Ġch":1431,"ĠëĮĢíķ´":1432,"ĠíĶĦëŀĳìĬ¤":1433,"Ġëĸ":1434,"ĠìĦ¬":1435,"ĠìĿ¼ìĹĲ":1436,"íĹĮ":1437,"íĶĦë":1438,"Ġì¸":1439,"Ł°":1440,"ëŁ½":1441,"Ġy":1442,"ĶëłĪ":1443,"ê²¨":1444,"ĠìĿ´ìļ©":1445,"ag":1446,"ì¡´":1447,"¶ĢíĦ°":1448,"Ġëª¨ëĵł":1449,"ì§ķ":1450,"ìķĶ":1451,"ĠíĬ¸ë":1452,"ot":1453,"ĠíĻĺ":1454,"ĠëĮĢíĳľ":1455,"¡Ŀ":1456,"Ġê·ľ":1457,"ê³łëĵ±íķĻêµĲ":1458,"Ġìłķë¶Ģ":1459,"ëĪ":1460,"íķĺë©´ìĦľ":1461,"ĶĶìĺ¤":1462,"Ġìĸ¸":1463,"ĠìķĦëĭĪ":1464,"ĠëĿ¼ë":1465,"if":1466,"ìĭľìĿĺ":1467,"Ġê²Ģ":1468,"ë¶Ī":1469,"ëĥ":1470,"Ġëª¨ëĳĲ":1471,"ĠëĭĪ":1472,"Ġë¬¼":1473,"ĠìĬĪ":1474,"Ġìķ½":1475,"Ġìĭľê°Ħ":1476,"ĠëĨį":1477,"ìľ¨":1478,"ĠìĤ´ìķĦ":1479,"ĩ´":1480,"ĠìĹ¬ëŁ¬":1481,"ĠíıĲ":1482,"ĠìŀĪìĹĪ":1483,"Ġê´Ģëł¨":1484,"íĨµëł¹":1485,"ë°ķ":1486,"ë§ī":1487,"å®":1488,"Ġì§Ģìłķ":1489,"§Į":1490,"ì»¤":1491,"ĠíĶĦë¡ľê·¸ëŀ¨":1492,"ë°±":1493,"ĩ¼":1494,"ul":1495,"¬´":1496,"ĠìŀĲìľł":1497,"´ë¡ľ":1498,"ĠìĺģêµŃ":1499,"Ġand":1500,"ĠìĬ¤íĥĢ":1501,"ec":1502,"ëŀĳ":1503,"ëħĲ":1504,"ation":1505,"ia":1506,"ë¦¬ê·¸":1507,"ĠìľĦíķľ":1508,"¸ëĭ¤":1509,"ëĲĺê³ł":1510,"Ġsbs":1511,"Ġíĺ¸ìĦł":1512,"ĠëĴ":1513,"ĠêµĲìľ¡":1514,"Ġìķ¨":1515,"ìĽĢ":1516,"íķĺìĺĢê³ł":1517,"ë¨¸":1518,"íķĻìŀĲ":1519,"Ġê³µìĭĿ":1520,"ëıĦë¡ľ":1521,"Ġë¶ĢìĤ°":1522,"ir":1523,"Ġêµ¬ìĦ±":1524,"st":1525,"Ġê³¨":1526,"Ġíĺĳ":1527,"ëĭ´":1528,"ħĢ":1529,"ìłĦë":1530,"íĸĪê³ł":1531,"ª¨":1532,"Ġì°¸ê³ł":1533,"ĠëĮĢíļĮ":1534,"ĠìĿ¼ë°ĺ":1535,"ĠíĮĢ":1536,"ìłĳ":1537,"ìĤ¬ë¥¼":1538,"ĠíĹ¤":1539,"ìĹĶ":1540,"Ġì§Ģë°©":1541,"ĠìĹĶ":1542,"ĠíķĦ":1543,"ëĶ":1544,"ì´Ŀ":1545,"ë¸Ķ":1546,"ê°Ŀ":1547,"´Į":1548,"ìĿ´ìĹĪëĭ¤":1549,"íĺ¼":1550,"ê¸¸":1551,"ĠëĮĢíĨµëł¹":1552,"ĠíĥĢìĿ´":1553,"ay":1554,"íĿ¥":1555,"ê±°ë¦¬":1556,"ìĤ´":1557,"ĠíĦ":1558,"Ġfc":1559,"ë¹ĦìłĦ":1560,"ĠíķĺìĺĢëĭ¤":1561,"ĠëĿ¼ê³ł":1562,"¤Ħ":1563,"ìĿ´ìŀĲ":1564,"ìĥģìĿĦ":1565,"ìŀ¥ìĿĦ":1566,"Ġì²ĺìĿĮ":1567,"®¤":1568,"im":1569,"ĠìĤ¬ê±´":1570,"ĠëħĦëĮĢ":1571,"ĠìĻĢ":1572,"Ġë°Ģ":1573,"Ħ¤":1574,"ľĺ":1575,"Ġê°ĢëĬ¥":1576,"Ġìĭ±":1577,"Ġê·¹":1578,"ìĸ´ì§Ħ":1579,"ĠíĻĪ":1580,"em":1581,"ë²Ī":1582,"ĠìķłëĭĪ":1583,"ìļ°ìĬ¤":1584,"Ġíĸīìłķ":1585,"Ġë¬¸ìłľ":1586,"ìĬĪ":1587,"ì°¬":1588,"ĠìĿ´ëĭ¤":1589,"ĠìķĦëĵ¤":1590,"Ġë´ī":1591,"Ġíķ´ë":1592,"ëĮĢë¡ľ":1593,"Ġë°ľë§¤":1594,"Ġì¿ł":1595,"ë¦¬ì¦Ī":1596,"ëĤĺëĿ¼":1597,"ìĿ´ëĬĶ":1598,"Ġëĵ±ìŀ¥":1599,"ìĦ±ìĿĦ":1600,"ĠìĤ´ìķĦìŀĪëĬĶ":1601,"Ġì¡´ìŀ¬":1602,"ë¡Ģ":1603,"Ġê²½ìĥģ":1604,"ì§Ģë¥¼":1605,"ĠëĿ¼ìĿ´":1606,"ëıĮ":1607,"op":1608,"ap":1609,"ëĤł":1610,"íĮ¨":1611,"ĦëĬĶ":1612,"Ġä¸":1613,"ëįķ":1614,"ĠíħĶëłĪ":1615,"Ġëĵ±ìĿĺ":1616,"¥´":1617,"Ġì¤ĳìķĻ":1618,"ê±°ëĤĺ":1619,"ê´ĳìĹŃ":1620,"ĠíıŃ":1621,"ìĨĲ":1622,"Ġì¼Ģ":1623,"£¹":1624,"ĠìĦ¤ì¹ĺ":1625,"ĠìŀĪìĸ´":1626,"Ġê°ľë°ľ":1627,"ìĬ¤íĥĢ":1628,"å¤":1629,"ìľĦìĽĲíļĮ":1630,"ĠìĤ¬ëŀĳ":1631,"ĠëģĿ":1632,"ĵ¤ìĿĢ":1633,"ë¥ł":1634,"ìŀĲê°Ģ":1635,"ë¦¬ìĹĲ":1636,"ê·ł":1637,"íĬ¹ë³Ħ":1638,"Ġu":1639,"ĠìĿ´ë£¨":1640,"ì°©":1641,"od":1642,"ìĿ´ê³ł":1643,"ëĮĢíĳľ":1644,"Ġì¢ĭ":1645,"ĠìĿ´íĥĪ":1646,"ĠìķĮëł¤":1647,"ter":1648,"ìĿ´ëĵľ":1649,"ĠæĿ":1650,"ë·":1651,"Ġê¸°íĥĢ":1652,"Ġíļ¨":1653,"Ħë¥´":1654,"ĠìłĦíĪ¬":1655,"Ġë§ŀ":1656,"ĠìŀĲìĭłìĿĺ":1657,"ĠìĭľëĮĢ":1658,"ìĿ´ìĹĪ":1659,"ĠíķĻêµĲ":1660,"ĠìĿĮë°ĺ":1661,"ëŁ¼":1662,"ê¸°ìĿĺ":1663,"êµ°ìĿĺ":1664,"Ġê·Ģ":1665,"ìĿį":1666,"ìĬ¤íĬ¸ë":1667,"ë°Ľ":1668,"ê¹":1669,"Ġìłĳ":1670,"ĠìĨĮìĨį":1671,"ĠëĤĺíĥĢ":1672,"ëĦĲ":1673,"ĠíħĶëłĪë¹ĦìłĦ":1674,"Ĥľ":1675,"Ġì§Ħíĸī":1676,"Ġìĺ¨":1677,"ĠìĽĶëĵľ":1678,"ĠìĬ¤íİĺ":1679,"oc":1680,"Ġê²°ê³¼":1681,"ë³´ë":1682,"ì¸¡":1683,"į¨":1684,"ìĿĳ":1685,"ĳ¸":1686,"ĦĲ":1687,"ìĬ¤ëĬĶ":1688,"åħ":1689,"åŃ":1690,"ë²Į":1691,"ìĿ´ëĿ¼ê³ł":1692,"ëŀĮ":1693,"ê³¼ë":1694,"Ġìļ´ë":1695,"ĠëĴ¤":1696,"Ġê²ĥìĿĢ":1697,"ìĿ¸ìĿĺ":1698,"ëĵĿ":1699,"Ġíĸ¥":1700,"ĠëĮĢíķĻêµĲ":1701,"Ġê·¼":1702,"ì´Īëĵ±íķĻêµĲ":1703,"Ġê³µê²©":1704,"°©":1705,"Ġìķŀ":1706,"Ġë§ĪìĿ´":1707,"íļ¨":1708,"Ġê²½ìłľ":1709,"ĠìĥĪë¡ľ":1710,"ì´Į":1711,"ĠëĿ¼ëĬĶ":1712,"Ġì£¼ìļĶ":1713,"ow":1714,"Ġë°ľíĳľ":1715,"Ġë²Ķ":1716,"ĠíĥĪ":1717,"Ġëĭ´":1718,"íĶĦíĬ¸":1719,"ĠëħĦë¶ĢíĦ°":1720,"ì¹ľ":1721,"¸ëĮĢ":1722,"ĠìĹĨëĭ¤":1723,"Ġì»¤":1724,"Ġíķĺê³ł":1725,"ë¬´ë":1726,"ĠëŁ¬ìĭľìķĦ":1727,"Ġë§¡":1728,"Ġíķĺì§Ģë§Į":1729,"ë¹Ħë":1730,"Ġëĵ±ìĿ´":1731,"ĠíĦ°":1732,"ìŀĲìĿĺ":1733,"Ġë§ī":1734,"íķĺë©´":1735,"Ġê°ĢìĪĺ":1736,"ov":1737,"ìĦľëĬĶ":1738,"Ġì£¼ìŀ¥":1739,"Ġë³Ģê²½":1740,"ë¶Ģë¶Ħ":1741,"ë§Ĳ":1742,"ë¦¬ê°Ģ":1743,"Ġê³łëł¤":1744,"Ġê°ĸ":1745,"Ġì¤ĳìĭ¬":1746,"ìµľ":1747,"Ġth":1748,"ìĿ´íĦ°":1749,"ìľ¤":1750,"²Ħì§Ģ":1751,"ìĿµ":1752,"Ħëªħ":1753,"ĠìľłëŁ½":1754,"Ġëıħë¦½":1755,"ìĭľìĹĲ":1756,"ëĿ¼ëĬĶ":1757,"ëŁ°":1758,"ìĹĺ":1759,"Ġìµľì´Ī":1760,"ìĭľíĤ¤":1761,"¦°":1762,"Ġëľ":1763,"ĠëĲĺìĸ´":1764,"Ġëħ¸ìĦł":1765,"Ġë¡ľë§Ī":1766,"ers":1767,"Ġì£½ìĿĮ":1768,"íĤ¨":1769,"ĠëıĻìķĪ":1770,"and":1771,"Ġê¸°ìĪł":1772,"Ġëħ¸ëŀĺ":1773,"íĴį":1774,"ë©ĶìĿ´ìħĺ":1775,"ĠìĤ¬ë§Ŀ":1776,"ľ´":1777,"ĠìĿ´ìłĦ":1778,"ê¸°ê°Ģ":1779,"æĹ":1780,"ì£¼ëĭ¹":1781,"ëĭĪëĭ¤":1782,"ìĪĻ":1783,"ĠìķĶ":1784,"ĠëĮĢìłĦ":1785,"ĠíĶĦë¦¬":1786,"ì¹¨":1787,"Ġê¸¸":1788,"Ġìµľê³ł":1789,"Ġìļ´ìĺģ":1790,"ĠíķŃê³µ":1791,"ĠìłĪ":1792,"Ġê³³":1793,"ìĬ¤íħ":1794,"íķ´ë":1795,"Ġëĵ±ìĿĦ":1796,"íĶĦë¦¬":1797,"Ġì§ĢìĽĲ":1798,"ê³¨":1799,"ëĳ":1800,"Ġë°Ŀ":1801,"ë¥´íģ¬":1802,"ìŀĲë¡ľ":1803,"Ġë°ľê²¬":1804,"Ġíĭ":1805,"ĠìĿ´ëĬĶ":1806,"ê´ĳìĹŃìĭľ":1807,"ê°Ī":1808,"ĠëĵĿ":1809,"Ĳëĭ¤":1810,"ĠìĿ´ëŁ¬":1811,"ĠìĿ´íĥĪë¦¬ìķĦ":1812,"³ĳ":1813,"ĦëıĦ":1814,"ëĭĮ":1815,"ĠìķłëĭĪë©ĶìĿ´ìħĺ":1816,"Ġde":1817,"Ġêµ¬ì¡°":1818,"ë³´ëĭ¤":1819,"ĠëħĦìĹĲëĬĶ":1820,"Ġë©´":1821,"ĩĮ":1822,"ĠìĿ´ëŁ¬íķľ":1823,"íĻĶêµŃ":1824,"Ġê±´ë":1825,"ĠíĺĦëĮĢ":1826,"ëıĦë¡Ŀ":1827,"Ġê±¸":1828,"Ġìļ¸":1829,"íĺľ":1830,"ìĹĪê³ł":1831,"Ġê°Ī":1832,"ĠíĸĪ":1833,"ê´":1834,"ist":1835,"Ġì§Ħì¶ľ":1836,"Ġì°¸ìĹ¬":1837,"¡¯":1838,"Ġë°ľìĥĿ":1839,"Ġìķ¨ë²Ķ":1840,"ì£¼ìĭľ":1841,"Ġê³¡":1842,"ĠëĤł":1843,"ë¦¬ìĿĺ":1844,"å·":1845,"ĠëıĦì¿":1846,"ĠìĿ´ë¥¼":1847,"ê¸°ëĬĶ":1848,"Ġìķħ":1849,"Ġre":1850,"ìļ´ëĵľ":1851,"ĠëªħìĿĺ":1852,"íĮħ":1853,"Ġìĺģíĸ¥":1854,"ìĤ¬ìĿĺ":1855,"ìĤ¼":1856,"Ġal":1857,"Ġìŀĳê³¡":1858,"Ġëĳ":1859,"ìį¨":1860,"ìĤ¬ê°Ģ":1861,"Ġë¸ĮëĿ¼":1862,"ĠìĦ¼":1863,"ëĬĲ":1864,"Ġì½ĺ":1865,"Ġë¨":1866,"ĵ¤ìĿ´":1867,"Ġar":1868,"ë³Ģ":1869,"Ĥ¬ëĭ¤":1870,"Ġì±Ħ":1871,"ì¹´ìĿ´":1872,"Ġê²°ìłķ":1873,"Ġìļ´íĸī":1874,"ìĻĢìĿĺ":1875,"ĠíĬ¹ë³Ħ":1876,"ê·Ģ":1877,"ĠìĿ´ìĸ´":1878,"Ġê·¸ëħĢ":1879,"Ġë®¤":1880,"Ġê¸ī":1881,"ëĬĺ":1882,"íķĻê³¼":1883,"ĵ¤ìĿĺ":1884,"ì»¬":1885,"Ġå¤":1886,"ĠìĹ¬ìĦ±":1887,"Ġëª©ë¡Ŀ":1888,"Ġìĸ»":1889,"ë§¹":1890,"íĸĪìľ¼ë©°":1891,"Ġì§Ī":1892,"ĠìłĦëĿ¼ë":1893,"Ġê¸°ìĽĲ":1894,"ëģ":1895,"ĠëĮĢë¶Ģë¶Ħ":1896,"ĠêµĲìĪĺ":1897,"ìĺ¥":1898,"ëĭĺ":1899,"ĠêµŃê°ĢëĮĢíĳľ":1900,"ìķ¼ë§Ī":1901,"ĠìĥĿê°ģ":1902,"ie":1903,"Ġto":1904,"ëłĮ":1905,"Ġìŀ¡":1906,"Ġìķ¼êµ¬":1907,"ìļĶìĿ¼":1908,"ce":1909,"íĭ´":1910,"ëł¥ìĿĦ":1911,"ê³¼ìĿĺ":1912,"Ġì±ħ":1913,"art":1914,"Ġì¹¨":1915,"ìĿ´ëĿ¼ëĬĶ":1916,"Ġä":1917,"ĠìĿ¸íĦ°":1918,"Ġê·¸ë£¹":1919,"Ġì¢Į":1920,"Ġéĩ":1921,"ĠìĿ¸íķ´":1922,"ĠìĪĺëıĦ":1923,"ìº":1924,"ĠìĿ´ìĹĲ":1925,"Ġíĺķíĥľ":1926,"Ġìŀī":1927,"ëĤ¨ëıĦ":1928,"ĠëĮĢêµ¬":1929,"ìĹĲìĦľëıĦ":1930,"ĠìĤ¬ìĭ¤":1931,"ìĭľì¼":1932,"Ġê³µëıĻ":1933,"Ġì°¾":1934,"Ġê¸°ì¤Ģ":1935,"ìĬ¤íģ¬":1936,"ë°©ìĨ¡":1937,"ĠëłĪìĿ´":1938,"ë¬¸íĻĶ":1939,"ìĦ±ìĿ´":1940,"ëĮĢíķĻ":1941,"ĠìĿ¸ì²ľ":1942,"Ġìļ´ëıĻ":1943,"ì¶©":1944,"ìłķìĿĦ":1945,"ĠíĬ¹íŀĪ":1946,"ĠíķĦìļĶ":1947,"est":1948,"ëĿ¼ê³ł":1949,"ë§ģ":1950,"Ġëĭ¤ìĿĮê³¼":1951,"ĠìĥĪë¡ľìļ´":1952,"ĠìĽĶìĹĲ":1953,"Ġìĭ±ê¸Ģ":1954,"Ġêµ¬ê°Ħ":1955,"ìĭľë§Ī":1956,"ì§Ģë¡ľ":1957,"ìŀĲë¥¼":1958,"ì¢":1959,"ĠìŀĲë£Į":1960,"ĠìĹĺ":1961,"ĠìĦľìļ¸íĬ¹ë³Ħ":1962,"ìļķ":1963,"ìĬ¤ë¥¼":1964,"Ġê¸°ìĹħ":1965,"Ġun":1966,"ëŀĢëĵľ":1967,"Ġìĸ´ëĸ":1968,"ĠìĦ±ìļ°":1969,"Ġìĭľë¦¬ì¦Ī":1970,"ìĺ¬":1971,"Ġì¡°ì§ģ":1972,"Ġx":1973,"íķĺìĺĢìľ¼ë©°":1974,"íģ´":1975,"³Ģ":1976,"ĠëħĦê¹Įì§Ģ":1977,"ĠìķĦë²Ħì§Ģ":1978,"ŀľëĵľ":1979,"ìľĦë¥¼":1980,"Ġê¸Ģ":1981,"Ġëĭ¤ìĿ´":1982,"ë¹Ī":1983,"ĠíĹĮ":1984,"Ġë¶Ģë¶Ħ":1985,"ĠìĿ¼ìĸ´ë":1986,"æ°":1987,"ìĭ±":1988,"å±":1989,"ĠíĥĦ":1990,"Ġëĭ¤ìĸĳ":1991,"ë·Ķ":1992,"ìĬ¤íħľ":1993,"ĠìĹħ":1994,"êµ¬ìĿĺ":1995,"ìĻĦ":1996,"¥ĺ":1997,"Ġëľ»":1998,"ĠêµĲíĨµ":1999,"ëıĦë¥¼":2000,"æĹ¥":2001,"ĠìĹĨëĬĶ":2002,"ra":2003,"Ġë²Į":2004,"Ġê²½ê¸°ëıĦ":2005,"Ġìĥģíĥľ":2006,"łëĭ¤":2007,"Ġcom":2008,"æľ":2009,"Ġì¸¡":2010,"ĠìĿĺë¯¸":2011,"ë¶ģëıĦ":2012,"Ġì¤Ħ":2013,"ĠìĿ¸ë¬¼":2014,"ìŀĲëĬĶ":2015,"Ġì²łëıĦìĹŃ":2016,"ê¶ģ":2017,"ĠìĽĮ":2018,"ìĹ°êµ¬":2019,"íĩ´":2020,"ìĸ´ë¡ľ":2021,"Ġë°ĶìĿ´":2022,"ĠìĦ±ê³µ":2023,"ŀĮ":2024,"ĠìĿ´ê²ĥ":2025,"ĠëĤ´ìļ©":2026,"Ġìŀł":2027,"ê±":2028,"ĠëĤľ":2029,"og":2030,"¨¸ëĭĪ":2031,"ĠìĿ´ìķ¼":2032,"ë¡ľìĦľ":2033,"ĠìĥģëĮĢ":2034,"Ġsp":2035,"åľ":2036,"ëĨ":2037,"ĠëĦĺ":2038,"ct":2039,"²ł":2040,"ĦĪ":2041,"Ġéĩĳ":2042,"Ġëį°ë·Ķ":2043,"ìļ´ëıĻ":2044,"Ġfr":2045,"íľĺ":2046,"íĺĢ":2047,"ëĿ¼ìĿ´":2048,"Ġì¶©ì²Ń":2049,"Ŀ¼ìĿ´":2050,"ĠëıĮìķĦ":2051,"ìļ±":2052,"ì¹Ļ":2053,"Ġìłķë³´":2054,"ìĹĦ":2055,"ak":2056,"Ġon":2057,"ê°ĢìĻĢ":2058,"¥´ë":2059,"ì¤ĳíķĻêµĲ":2060,"ĠæĿİ":2061,"Ġê´Ģê³Ħ":2062,"ëĲĺìĹĪê³ł":2063,"ëį¸":2064,"Ġìĩ¼":2065,"ì¢Į":2066,"ìĿ¸ìĿ´":2067,"igh":2068,"ëłī":2069,"ìĬ¤ê°Ģ":2070,"íĸĪëįĺ":2071,"ìĹĲìĦľìĿĺ":2072,"Ġíķ´ëĭ¹":2073,"Ġê³ĦìĨį":2074,"Ġë¹Į":2075,"ĠìľĦìĽĲ":2076,"Ł½":2077,"Ġëª¨ìĬµ":2078,"Ġì»´":2079,"ìĭĿìĿĦ":2080,"ê³Ħë¥¼":2081,"ĠìŀĪê³ł":2082,"ëĭĿ":2083,"ĠíĴį":2084,"ess":2085,"ill":2086,"ì¶ĺ":2087,"Ġë°°ê²½":2088,"ĠìĿ´ìľł":2089,"ìĽĲìĿĺ":2090,"Ġì¤ĳìļĶ":2091,"Ġê°ľìµľ":2092,"ìĿ¸ë¯¼":2093,"ì¸µ":2094,"ì²ĺëŁ¼":2095,"ip":2096,"ê¸°ë¡ľ":2097,"ë¨¼":2098,"Ġì±Ķ":2099,"Ġë§¤ìļ°":2100,"íĶ¼ìĸ¸":2101,"Ġë°Ľìķĺëĭ¤":2102,"ĠìŀĪëįĺ":2103,"å¯":2104,"Ġê°Ģì§Ģê³ł":2105,"ëĦ¤ìĿ¼":2106,"ìľ¼":2107,"Ġne":2108,"Ġì£¼ë¡ľ":2109,"Ġê²½ëł¥":2110,"Ġë§Īì§Ģ":2111,"²ķ":2112,"ë¦¬ìĬ¤íĬ¸":2113,"ĠìłĦêµŃ":2114,"íķ´ìĦľ":2115,"ëħ¸ë":2116,"Ġëħ¹":2117,"Ġìŀīê¸Ģ":2118,"ĠìĪľìľĦ":2119,"ìĦ¼íĦ°":2120,"ìŀĲìĿ¸":2121,"íĬ¸ë¡ľ":2122,"ìŀ¥ìĿ´":2123,"ou":2124,"Ġë¹Ħê³ł":2125,"êµĲìľ¡":2126,"ìķķ":2127,"ĠìŀĲëıĻ":2128,"Ġsh":2129,"ĠìĽ¨":2130,"ĠêµŃê°ĢëĮĢíĳľíĮĢ":2131,"çĶ":2132,"ĠìĭľìłĪ":2133,"Ġíĭ°":2134,"Ġíķł":2135,"ĠìĥĿìĤ°":2136,"ĠëĬ¥":2137,"ab":2138,"ĠìĽĶëĵľì»µ":2139,"ĠëıĦì¿Ħ":2140,"ĠìĮ":2141,"ĠìĹŃíķł":2142,"ĠêµŃë¯¼":2143,"ìľ¼ë¡ľìĦľ":2144,"Ġfor":2145,"ê¸´":2146,"Ġê±´ì¶ķ":2147,"Ġê³Ħíļį":2148,"ĠìĤ¬ìĹħ":2149,"ĠìĦľìļ¸íĬ¹ë³Ħìĭľ":2150,"Ġen":2151,"åĲ":2152,"ì²´ë":2153,"Ġë¹ł":2154,"ìĪĺìĿĺ":2155,"ë¡ľë¶ĢíĦ°":2156,"ĠíĬ¸":2157,"Ġåħ":2158,"ĠìķĬìķĺëĭ¤":2159,"ìĭľëĮĢ":2160,"ĠíĮĶ":2161,"ang":2162,"éĻ":2163,"Ĳľ":2164,"ë¦¬ìĺ¤":2165,"´ëĵľ":2166,"ĠíĿ¬":2167,"ìĤ¬ê´Ģ":2168,"ef":2169,"ĠìĻ¸êµŃ":2170,"ĵ¨":2171,"Ġë°©ë²ķ":2172,"ìľ¼ë¡ľëĬĶ":2173,"Ġtr":2174,"íİĺìĿ´ì§Ģ":2175,"ĠìĦ¬ëĦ¤ìĿ¼":2176,"Ġìĺ¥":2177,"Ġë³Ħ":2178,"qu":2179,"Ġìłľê³µ":2180,"ìłĦìĿĦ":2181,"Ġê´Ģíķľ":2182,"Ġëª°":2183,"ĠìĿĳ":2184,"ĠìĿ¸ê°Ħ":2185,"ĠìķĬê³ł":2186,"ìĭŃ":2187,"ëĤĺëĭ¤":2188,"ĠìķĬëĬĶëĭ¤":2189,"Ġë§Īì§Ģë§ī":2190,"½ĥ":2191,"ĠëıĦë¡ľ":2192,"Ġë°©ë©´":2193,"Ġì±ĶíĶ¼ìĸ¸":2194,"ĠëĪĪ":2195,"ard":2196,"av":2197,"Ġë¨¸":2198,"ìĺģíĻĶ":2199,"íķĦ":2200,"ĠìĹ´ë":2201,"Ġíŀĺ":2202,"ine":2203,"Ġê²°êµŃ":2204,"ìĦ±ìĿĺ":2205,"ĠìĿ¸êµ¬":2206,"ëĲł":2207,"Ġíĺ¼":2208,"į¼ë":2209,"ìĤ¬ë¡ľ":2210,"ĠìķĦëĭĪëĿ¼":2211,"Ġê°Ģì¡±":2212,"íı¬ì¸ł":2213,"ĠìĿ´ë¯¸":2214,"ifa":2215,"Ġê¸°ìĽĲìłĦ":2216,"ĠìłķìĿĺ":2217,"Ġì§Ģíķĺ":2218,"ĠíķĺìĹ¬":2219,"Ġpr":2220,"įĶ":2221,"ĠìĬ¬":2222,"Ġìŀīê¸Ģëŀľëĵľ":2223,"ĠìĭľìĬ¤íħľ":2224,"Ġíĺ¸ë":2225,"ĠìĿ´ëĿ¼ê³ł":2226,"Ġpro":2227,"ĠíĽĦë³´":2228,"íĻį":2229,"Ġì¶Ķê°Ģ":2230,"ĠìķĦëŀĺ":2231,"ìķĦìĿĺ":2232,"Ġse":2233,"Ġê·¸ë¦¬ìĬ¤":2234,"ìļ´ëį°":2235,"©Ķë¦¬":2236,"ëĵ¤ê³¼":2237,"éĥ":2238,"ĠìĨĮìĦ¤":2239,"ê²Ģ":2240,"°ëĭ¤":2241,"ĠìķĦìĭľ":2242,"íķĺê¸°ëıĦ":2243,"Ġëĸł":2244,"ìłľë¡ľ":2245,"Ġëĸ¨":2246,"ĠìĥĿìķł":2247,"Ġì½ľ":2248,"ĠíĶĮëłĪìĿ´":2249,"Ġìľłëªħ":2250,"ĠëĮĢìĥģ":2251,"ëĲĺìĹĪìľ¼ë©°":2252,"Ġfifa":2253,"íķĺìŀĲ":2254,"Ġê·¼ë":2255,"ĠëĿ¼ëĶĶìĺ¤":2256,"th":2257,"ĠíĻĪíİĺìĿ´ì§Ģ":2258,"Ġìħ":2259,"Ġcon":2260,"ĠìĨĮìŀ¬":2261,"íĥķ":2262,"ê³µíķŃ":2263,"Ġë§¥":2264,"Ġì°¨ì§Ģ":2265,"Ġë§İìĿ´":2266,"Ġìī":2267,"åı":2268,"ìŀ¡":2269,"Ġìĥ¤":2270,"íĤ":2271,"ĠìĹ´ë¦°":2272,"ì¹¸":2273,"Ġê²©":2274,"ĠìĥĿíĻľ":2275,"íĶĦë¦¬ì¹´":2276,"Ġìĸ´ë¦°":2277,"Ġìĺģìĸ´":2278,"ĠíŀĪë¡ľ":2279,"Ġë¬ĺ":2280,"íĻĶë¥¼":2281,"Ġì¶ľìłĦ":2282,"ĠëĪĦ":2283,"ĠìĦłê±°êµ¬":2284,"íı°":2285,"ë§¨":2286,"ëĲĺì§Ģ":2287,"íģĲ":2288,"íĥģ":2289,"ê¶ĮìĿĦ":2290,"ë¯¼ì£¼":2291,"å±±":2292,"ĠìĹ°ê²°":2293,"ìĥ¤":2294,"Ġê¸°ëĬ¥":2295,"Ġcm":2296,"Ġëªħì¹Ń":2297,"Ġê°ľìĿ¸":2298,"ĠìĿ´ëĿ¼ëĬĶ":2299,"Ľ°":2300,"íĨ¨":2301,"ìĪĺë¥¼":2302,"Ġíıīê°Ģ":2303,"ĠêµŃíļĮìĿĺ":2304,"ë¥´ëĬĶ":2305,"ë¦ī":2306,"ë²Ħë":2307,"§Ŀ":2308,"ëĵ¤ìĹĲê²Į":2309,"ìľ¼ë©´":2310,"ìĽĲìĿĦ":2311,"Ġíķľíİ¸":2312,"Ġì§Ģê¸Ī":2313,"Ġëħ¼":2314,"ìĬ¤ì½Ķ":2315,"ì§ĢìĿĺ":2316,"Ġhe":2317,"Ġat":2318,"ëıĦê°Ģ":2319,"íĦ¸":2320,"ê¾":2321,"ì·¨":2322,"Ġê²°íĺ¼":2323,"Ġê°Ģìļ´ëį°":2324,"íħĲ":2325,"ĠìĤ¬ì§Ħ":2326,"Ġë¬¼ë":2327,"ìĿ¸ë¯¼ê³µ":2328,"ĠìĪĺë¡Ŀ":2329,"Ġíį¼":2330,"Ġìĸ´ë¨¸ëĭĪ":2331,"åį":2332,"Ġê´Ģë¦¬":2333,"Ġê°ľìļĶ":2334,"ë²ĦìĬ¤":2335,"íģ´ë":2336,"ì½ĺ":2337,"Ġå®":2338,"Ġê°ķìĽĲ":2339,"ight":2340,"ĠìĤ¼ìĦ±":2341,"Ġë²¨":2342,"íĿĲ":2343,"Ġìľ¡êµ°":2344,"Ġë³´ê³ł":2345,"Ġê³¼ìłķ":2346,"ong":2347,"ìĤ¬ëĬĶ":2348,"ĵ¤ìĿĦ":2349,"íĻķ":2350,"ĠìĿ´ëıĻ":2351,"Ġíİ¸ìĦ±":2352,"Ġê°Ļëĭ¤":2353,"Ġíģ´ëŁ½":2354,"ĲĺìĹĪëĭ¤":2355,"ë¶ĢìĿĺ":2356,"ĠëĦĪ":2357,"ìĥĪ":2358,"ê³Ħë":2359,"ĠíĶ¼ë":2360,"Ġê°ģê°ģ":2361,"ë¹ĦìĬ¤":2362,"æ´":2363,"ì§Ħëĭ¤":2364,"éģ":2365,"ĠìłĦì²´":2366,"ë¥´íĬ¸":2367,"Ġë¯¼ì£¼":2368,"ĠìłľêµŃ":2369,"ëĪĦ":2370,"Ġë³¸ë":2371,"ë°Ģ":2372,"ìĿ¸ëĭ¤":2373,"ìľ¼ë¡ľìį¨":2374,"ìķ¼ë":2375,"ìĥģìĿĺ":2376,"Ġì£¼ë³Ģ":2377,"Ġë¶Ļ":2378,"ìĿ¼ë¦¬":2379,"Ġz":2380,"ĠìĿ¸ìłķ":2381,"Ġìļ°ë¦¬":2382,"ĠëĤĺê°Ģ":2383,"ëĦ·":2384,"ĠìľĦì¹ĺíķľ":2385,"ë£¡":2386,"ity":2387,"łĩ":2388,"ì¹´ìĻĢ":2389,"íħĶ":2390,"ĠìŀĲìĹ°":2391,"Ġê²½ì°°":2392,"Ġëįķ":2393,"Ġìľłì§Ģ":2394,"ìĩ":2395,"ĠíķĻê¸ī":2396,"Ġë¿":2397,"ĠìĿ¼ë¶ĢíĦ°":2398,"Ġëĭ¤ìĸĳíķľ":2399,"Ġë¶Ħë":2400,"Ġì´":2401,"ĠíıĲì§Ģ":2402,"ĠíķĻìĥĿ":2403,"ëĭ¤ê°Ģ":2404,"Ġìĸ¸ë":2405,"Ġê´":2406,"ìŀ¥ìľ¼ë¡ľ":2407,"Ġis":2408,"ëª¬":2409,"ëĶ©":2410,"ëĥĲ":2411,"ê³¤":2412,"ĠìŀĳìĿĢ":2413,"íĵ¨":2414,"Ġê´ĳì£¼":2415,"Ġê±°ì£¼":2416,"Ġê³¼íķĻ":2417,"Ġë§Ŀ":2418,"ĠëĨĴìĿĢ":2419,"Ġìķķ":2420,"Ġíģ¬ë¦¬ìĬ¤":2421,"ì½ľ":2422,"ìŀĲìĻĢ":2423,"ĠëĮĢìĭł":2424,"ian":2425,"Ġì§Ģêµ¬":2426,"ª©":2427,"íķĺëįĺ":2428,"¥Ĳ":2429,"Ġle":2430,"ìħĶ":2431,"ì°¨ë¡ľ":2432,"Ġê³µê°ľ":2433,"Ġë¨¹":2434,"Ġìłķëĭ¹":2435,"ìł¤":2436,"ĠìĿ´ëģ":2437,"ĠìĺĪìĦł":2438,"Ġíĳ¸":2439,"all":2440,"ìŀĪëĭ¤":2441,"Ġì§Ħë":2442,"Ġê±°ìĿĺ":2443,"ae":2444,"ive":2445,"ìķ¡":2446,"ĠìĬ¹ê°ķ":2447,"Ġëĳĺ":2448,"íĨ¤":2449,"ĠìĹ°ìĨį":2450,"ĠìºĲëĤĺëĭ¤":2451,"æĸ":2452,"ìĬ¤ë¡ľ":2453,"ìĦłê±°":2454,"íķĺëł¤":2455,"Ġê³µìĹ°":2456,"ìĿ´ê°Ģ":2457,"ì¼ĵ":2458,"ìĿ´ìĿĺ":2459,"Ġì§ģìłĳ":2460,"Ġì¤ĳíĻĶ":2461,"°Ģ":2462,"Ġëħ¸ëıĻ":2463,"ĠìķĬìĿĢ":2464,"ì§Ģë°©":2465,"ë¥´ë©´":2466,"ĠìŀĦëªħ":2467,"ìĿĮìĿĦ":2468,"Ġëī´ìļķ":2469,"ĠìµľëĮĢ":2470,"¬ìĺģ":2471,"ĠëĤ¨ìķĦ":2472,"æĺ":2473,"ĠìĦłìłķ":2474,"ĠëĤĺìĺ¤":2475,"ĠíĬ¹ì§ķ":2476,"ì±Ħ":2477,"Ġë²Ħë":2478,"Ġê±´ìĦ¤":2479,"ìĬ¤ìĻĢ":2480,"ĠìĻĦìłĦ":2481,"ĠìĹŃëĮĢ":2482,"ìĽĲìĿ´":2483,"ith":2484,"ìĩ¼":2485,"ê³³":2486,"Ġor":2487,"İĭ":2488,"ĠìĹ°ëıĦ":2489,"Ġë³¸ìĦł":2490,"´ë¦¬":2491,"ub":2492,"ĠëĲĺëĬĶ":2493,"ĠëĤĻ":2494,"ĠìĥģíĻ©":2495,"ìľ¼ë¡ľë¶ĢíĦ°":2496,"ĠëĽ°":2497,"ĠíĥĲ":2498,"ëĤ´ë":2499,"ĠìĹ°ê¸°":2500,"Ġêµ°ìĤ¬":2501,"ŀľ":2502,"ĠíĨµíķ©":2503,"ìłĦìĹĲ":2504,"Ġam":2505,"Ġëª¨ëį¸":2506,"ĠìľĮ":2507,"ìłķë¶Ģ":2508,"ĠìĿ´ìĤ¬":2509,"Ġê¸°ëħĲ":2510,"Ġë¶Ģë¬¸":2511,"Ġê¼":2512,"Ġì±Ħë":2513,"Ġëħ¼ë":2514,"ìŀ¥ìĿĢ":2515,"Ġë¹ĦëĶĶìĺ¤":2516,"ĠìĺģêµŃìĿĺ":2517,"ë¥Ļ":2518,"¹ìĿĢ":2519,"ìĺĢëįĺ":2520,"ĠìľĪ":2521,"ìī":2522,"Ġìĭ¤ìĭľ":2523,"Ġê·¸ëŀĺ":2524,"Ġë°ĺëĮĢ":2525,"ìĪĺê°Ģ":2526,"ĠíĽĦìĹĲ":2527,"ĠíĽĪ":2528,"Ġsc":2529,"ê¸°ê´Ģ":2530,"ĠëĶ°ëĿ¼ìĦľ":2531,"ĠêµŃëıĦ":2532,"ì§Ģê³ł":2533,"Ġê¸°ë³¸":2534,"£Į":2535,"ê°ĢëĬĶ":2536,"Ġìĭ¸":2537,"Ġê¸°ê°Ħ":2538,"¬´ë":2539,"ëł¬":2540,"ëĭ¬ë¦¬ìĬ¤íĬ¸":2541,"êµ°ìĿĢ":2542,"Ġìĥī":2543,"Ġê³łëĵ±íķĻêµĲ":2544,"Ġë©ĶìĿ´":2545,"Ġë°©ìĭĿ":2546,"ì£Ħ":2547,"Ġmm":2548,"ìłľê°Ģ":2549,"íį¼ë":2550,"íķĺëĿ¼":2551,"ud":2552,"ĠìķĬëĬĶ":2553,"ì§ĢìĹĲ":2554,"Ġíķĺê³Ħ":2555,"ì³¤":2556,"ìĽħ":2557,"ĠìłĦê¸°":2558,"ĠëĤĺëĿ¼":2559,"ĠìľĦë":2560,"íĶ¼ë":2561,"ìĬ¤íĥĦ":2562,"ĠìĦľìļ":2563,"ĠëĿ¼ìļ´ëĵľ":2564,"ĠêµŃë¦½":2565,"tv":2566,"ĠìĿ´ë¦ĦìĿĦ":2567,"ĠìĹ°íķ©":2568,"ëį´":2569,"Ġë²łìĿ´":2570,"ĠìĿ´ë£¨ìĸ´":2571,"ell":2572,"ìĸ´ë¥¼":2573,"ìĸ¼":2574,"Ġì»´íĵ¨":2575,"ĠìĨĮëł¨":2576,"Ġii":2577,"íĬ¸ë¦¬":2578,"êµ´":2579,"ìĻĶëĭ¤":2580,"ìĹĨ":2581,"łĮ":2582,"ëıĦëĬĶ":2583,"ĠìĬ¤íı¬ì¸ł":2584,"ëĤĺìĿ´":2585,"ĠìĿ´ë¡ł":2586,"æĿ":2587,"bo":2588,"Ġì¹ľêµ¬":2589,"ĠìĦľë¡ľ":2590,"Ġì´¬ìĺģ":2591,"ìĹ¼":2592,"ëıħêµĲ":2593,"Ġìķ¼ë§Ī":2594,"ĠìĪĻ":2595,"ĠìĬ¤íİĺìĿ¸":2596,"Ġíĩ´":2597,"ìŀĲë¦¬":2598,"ëª¨íĨł":2599,"Ġë³´ìĹ¬":2600,"ĠëĬĲ":2601,"Ġìĺģíĸ¥ìĿĦ":2602,"Ġê³µê°Ħ":2603,"ìĹĪìľ¼ë©°":2604,"Ġì§ĢëıĦ":2605,"¨ë¦¬":2606,"Ġê°ĳ":2607,"ìłľë¥¼":2608,"Ġë©¤":2609,"íĬľ":2610,"åŁ":2611,"Ġìµľì¢ħ":2612,"íĹĪ":2613,"łĪìĿ´":2614,"Ġê³Ħìķ½":2615,"Ġì´Īê¸°":2616,"Ġê¸°ê´Ģ":2617,"ìłĲìĿĦ":2618,"íķ´ìķ¼":2619,"ber":2620,"Ġê³¼ê±°":2621,"ëŁ¬ìĬ¤":2622,"Ġë¯¼ì¡±":2623,"ĠíĮĲë§¤":2624,"ê³¼íķĻ":2625,"ì§Ģê°Ģ":2626,"Ģëĭ¤":2627,"Ġê·¸ê²ĥ":2628,"ìĤ¬ìĹĲ":2629,"ĠìļĶìĭľ":2630,"ì§ĢìĽĲ":2631,"ì²Ļ":2632,"Ġìŀĳê°Ģ":2633,"ĠêµŃíļĮìĿĺìĽĲ":2634,"ê²¼":2635,"íıŃ":2636,"ìļ°ìĪĺ":2637,"ĠìłĦë¬¸":2638,"ãģ®":2639,"ĠëıĻìĭľìĹĲ":2640,"Ġíķµ":2641,"ä¹":2642,"ìĬ¤íĤ¤":2643,"ĠìķĦë¥´":2644,"ĠëĶ°ë¥´ë©´":2645,"ĠìĤ°ìĹħ":2646,"êµ°ìĿ´":2647,"Ġìłķì±ħ":2648,"ŀĻ":2649,"íĳ¸":2650,"ĠëıĦìŀħ":2651,"ìķĮ":2652,"ĠìĤ¬ê³ł":2653,"ĠíĻľìķ½":2654,"Ġì·¨ìŀĦ":2655,"Ġco":2656,"Ġê¶ģ":2657,"ĠíĶĦëŀĳìĬ¤ìĿĺ":2658,"Ġì°¨ëŁī":2659,"ĠëªħìĿ´":2660,"Ġíĺģ":2661,"Ġëĭ´ëĭ¹":2662,"Ġìĺ¤ìĤ¬":2663,"ìĦ¸ë":2664,"ëĮĢë¥¼":2665,"Ġëª¸":2666,"ĠíķĦë":2667,"ĠíĳľíĺĦ":2668,"íĹ¤":2669,"íķĢ":2670,"Ġas":2671,"ĠìĹŃìĭľ":2672,"åº":2673,"Ġëį°ìĿ´":2674,"Ġex":2675,"ĠìĨĶ":2676,"Ġë§Įëĵł":2677,"ëĭ¤ëĬĶ":2678,"Ġì°©":2679,"Ġê³µíķŃ":2680,"Ġfl":2681,"ok":2682,"Ġë³´íĨµ":2683,"ì¹ĺëĬĶ":2684,"Ġë§Įëĵ¤ìĸ´":2685,"ëĵľë¦¬":2686,"Ġì£¼ìĹ°":2687,"ĠìĿ¼ìĽĲ":2688,"ĠíĻĺê²½":2689,"Ġbl":2690,"Ġsk":2691,"Ġíı´ë":2692,"ĠìĽĲëŀĺ":2693,"Ġëį°ìĿ´íĦ°":2694,"ĠìķĮëł¤ìł¸":2695,"ìĿ¸ìĿĦ":2696,"íĸĪì§Ģë§Į":2697,"Ġê·¸ê°Ģ":2698,"ìħľ":2699,"Ġìĸ´ëĸ¤":2700,"ìĬ¤íĭ°":2701,"Ġìĸ¸ìĸ´":2702,"ĠìĿ´ìłģ":2703,"ëĵľëĿ¼ë§Ī":2704,"ì²łëıĦ":2705,"ë¦¬ì§Ģ":2706,"ĠìĭľìĦ¤":2707,"Ġì»´íĵ¨íĦ°":2708,"ĠìĿĺíķľ":2709,"ĠìłĦëĿ¼ëĤ¨":2710,"ëĳ¥":2711,"Ġê³µíĻĶêµŃ":2712,"ê°ĳ":2713,"Ġë°ĽìķĦ":2714,"ĠíķĺìĿ´":2715,"ĠìŀĪëĬĶëį°":2716,"ìĬ¤íĦ´":2717,"Ġê²¬":2718,"ĠëıħìĿ¼ìĿĺ":2719,"ë³¼":2720,"Ġbe":2721,"Ġte":2722,"ìĿ´ìĸ´":2723,"Ġë°°ê²½ìľ¼ë¡ľ":2724,"ëįľ":2725,"ëĵľëĬĶ":2726,"ĠëĶĶì§Ģ":2727,"ĠìķĬìķĺ":2728,"Ġë°ľìłĦ":2729,"Ġì¡°ì§Ģ":2730,"ĠìĹ¬ê°Ŀ":2731,"ìŀ¥ìĿĺ":2732,"Ġæĸ":2733,"ìĽ¨ìĸ´":2734,"ĠíĽĦì§Ģ":2735,"Ġíľ´":2736,"ĠìļĶêµ¬":2737,"ìĦŃ":2738,"ìłľìĿĺ":2739,"Ġìłľëª©":2740,"ìĤ¬ìĹħ":2741,"ì°¸":2742,"ĠìķĦëĭĮ":2743,"ë¡ľëĬĶ":2744,"Ġì¢ħêµĲ":2745,"ĠìĶ":2746,"Ġë¬¸íĹĮ":2747,"íķĦë":2748,"ĠìłķëıĦ":2749,"ant":2750,"ê³łìĨį":2751,"Ġê¸°ëıħêµĲ":2752,"Ġì¶ľìĭľ":2753,"ĠìķĦìĭľìķĦ":2754,"ëĭ¨ìĿĺ":2755,"ë¯Ģë¡ľ":2756,"¢°":2757,"Ġê°ľíĨµ":2758,"ĠìĦ¤ëªħ":2759,"io":2760,"íĹ¨":2761,"ì²´ë¥¼":2762,"ĠìĮį":2763,"íģ¬ë¡ľ":2764,"ì¹ĺë¥¼":2765,"ìĦľê´Ģ":2766,"ëłĪìĬ¤":2767,"ì§ľ":2768,"å°":2769,"ìħĢ":2770,"ë¦¬ê³ł":2771,"ĠìĿ´ìķ¼ê¸°":2772,"ĠëŁ°":2773,"Ġë¹Ħë¡¯":2774,"ack":2775,"ë¬¼ê´Ģ":2776,"Ġíıīê·ł":2777,"ĠìĿµ":2778,"Ġë¹ĦíĮĲ":2779,"Ġíģ¬ê²Į":2780,"¦Ħ":2781,"Ġcl":2782,"ä»":2783,"ìĤ¬ìĻĢ":2784,"íĺĦë":2785,"Ĥł":2786,"ĠëĨĵ":2787,"ĠìĿ¼ìľ¼":2788,"íĭ±":2789,"ìĺ¤ì¹´":2790,"ĠìĤ¬ìĥģ":2791,"Ġìļ¸ìĤ°":2792,"up":2793,"ain":2794,"ĠëĤ®":2795,"Ġì§ĢëĤĺ":2796,"Ġê¸°ì¡´":2797,"ë²¨":2798,"ĠìŀĳìĤ¬":2799,"ĠìķĦìĭľìķĪ":2800,"ĠêµĲíĻ©":2801,"Ġë¶Īê°Ģ":2802,"ĠìĽ¹":2803,"Ġê±´ë¬¼":2804,"Ġì¢ħë¥ĺ":2805,"Ġë§Ĳíķľëĭ¤":2806,"Ġìĭľì²Ń":2807,"ĠêµŃìłľê³µíķŃ":2808,"ì½©":2809,"ë¬ĺ":2810,"§ģ":2811,"Ġìĺ¤ë¥¸":2812,"æĪ":2813,"ë§¥":2814,"Ġíģ¬ë¡ľ":2815,"íĬ¸ìĿĺ":2816,"°°":2817,"Ġìµľìļ°ìĪĺ":2818,"Ġì¤ĳìļĶíķľ":2819,"Ġë®¤ì§ģ":2820,"ĠìłľìĻ¸":2821,"Ġê°Ģì§Ħ":2822,"ê³¼ë¥¼":2823,"Ġê²½ìĥģë¶ģëıĦ":2824,"ìª½ìľ¼ë¡ľ":2825,"ë¯¸ëĦĲ":2826,"ìłĦìĹĲìĦľ":2827,"ĠìĬ¹ë¦¬":2828,"å¸":2829,"Ġë¥ĺ":2830,"Ġë°©ìĺģ":2831,"Ġë§ĪìĤ¬":2832,"¹ĦìķĦ":2833,"å¾":2834,"ĠìľłëĭĪ":2835,"å¤§":2836,"ê¸°ìĪł":2837,"ëĮĢíļĮ":2838,"ĠìĹ¬ê¸°":2839,"ëĮĢìĥģ":2840,"Ġë°Ķë¡ľ":2841,"Ġbo":2842,"ĠêµŃëĤ´":2843,"Ġê²°ìĬ¹":2844,"ĠíķĺìĺĢ":2845,"²Ī":2846,"ort":2847,"íĬ¼":2848,"ĠìĹĦ":2849,"ĠíĺķìĦ±":2850,"ĠëįĶë¶Ī":2851,"Ġë§ĮíĻĶ":2852,"Ġãģ":2853,"Ġë°´ëĵľ":2854,"íĶĦë¡ľ":2855,"ìĨĮë¥¼":2856,"Ġë¸ĮëĿ¼ì§Ī":2857,"ĠìĹ°ë°©":2858,"ik":2859,"Ġê±°ì³Ĳ":2860,"Ġìłķì¹ĺìĿ¸":2861,"Ġì»¨":2862,"ìĽĮëĵľ":2863,"Ġìµľì´ĪìĿĺ":2864,"Ã©":2865,"ĠëĵĿìłĲ":2866,"íıĲ":2867,"ĠìĻ¸êµŃìĿ¸":2868,"ìŀĦìĿĦ":2869,"¸ëĮĢíķĻêµĲ":2870,"ĠíķĻëħĦ":2871,"ĠìĿ¸ëıĦ":2872,"ĠìķĦíĤ¤":2873,"íĺĳíļĮ":2874,"Ġå¤§":2875,"ĠÐ":2876,"ëķĮ":2877,"efa":2878,"ĠìĪĺíĸī":2879,"ë¦´":2880,"Ġìĺ¤ëĬĺ":2881,"ëĵĢ":2882,"Ġíĺ¹ìĿĢ":2883,"ì²´ìĿĺ":2884,"ĠìĿĺìĽĲ":2885,"ëĭī":2886,"ì£¼ëĬĶ":2887,"ĠìĤ¬ìĿ´ìĹĲ":2888,"ĠíĿ¥":2889,"ìŀ¥ìĹĲ":2890,"Ġìķ¡":2891,"Ġmar":2892,"ĠëĲĺê³ł":2893,"Ġìĺ¤ë¸Į":2894,"ib":2895,"ëŀľ":2896,"ĠìłĦíĨµ":2897,"ĠìľĦìĹĲ":2898,"ĠíĽĦì¿ł":2899,"Ġìĺ®":2900,"íĨłë¦¬":2901,"Ġíĥĳ":2902,"ë¯¸ëĶĶ":2903,"Ġph":2904,"ĠìĿ´ìĻĢ":2905,"íĬ¸ëĤ¨":2906,"ä½":2907,"ìĿ´ì¹ĺ":2908,"Ġêµ¬ìĹŃ":2909,"ng":2910,"ĠíĬ¹ìĪĺ":2911,"Ġuefa":2912,"Ġíĥľìĸĳ":2913,"Ġê¸°ë°ĺ":2914,"ìłĿ":2915,"åŃĲ":2916,"ê´´":2917,"ì§Ħë":2918,"ìĿ¼ëŀľëĵľ":2919,"ê¹Ģ":2920,"Ġì°¨íĬ¸":2921,"Ĳë¦¬":2922,"ĠëĤĺìĿ´":2923,"æ°ı":2924,"Ġìĸµ":2925,"íĥĳ":2926,"ĠìĹ´ì°¨":2927,"ĠìĿ¼ê¹Įì§Ģ":2928,"Ġë°©íĸ¥":2929,"ore":2930,"ì¦ĺ":2931,"ĠìĤ¬ë¬´":2932,"ĠíĹ¬":2933,"ëįľëŀĢëĵľ":2934,"ìĿ¸ìĿĢ":2935,"Ġë§Īë¥´":2936,"ì²ľìĭľ":2937,"è¡":2938,"Ġìĭ¤íĮ¨":2939,"ëĵľë¡ľ":2940,"Ġro":2941,"¶¤":2942,"Ġëĭ¬ë¦¬":2943,"ìĪĺë¡ľ":2944,"ë¯¼ë":2945,"Ł³":2946,"Ġì§Ģíľĺ":2947,"ë¶ĢìĹĲ":2948,"Ġë¬¼ë¦¬":2949,"ĠìŀĪìĿĦ":2950,"Ġì´ĪëĮĢ":2951,"Ġë§ĪìĿĦ":2952,"¡¤":2953,"ĠëĦ¤ëįľëŀĢëĵľ":2954,"ĠìĦłë°ľ":2955,"ĠìĬ¤íħĮ":2956,"Ġso":2957,"ë©ĺ":2958,"Ġê²¨":2959,"ìŀĦë":2960,"ìĹ¬ìŀĲ":2961,"Ġpl":2962,"Ġì§ķ":2963,"ĠìĺĪìĪł":2964,"ĠìłĦìŀĲ":2965,"ê°Ķëĭ¤":2966,"éĿ":2967,"ĠìĦ¸ìĿĺ":2968,"ìĬ¤íĬ¸ëłĪ":2969,"ëł¸ëĭ¤":2970,"ĠëıĻë¬¼":2971,"ìĹ°íķ©":2972,"Ġëª½":2973,"êµ¬ìĹŃ":2974,"Ġëĭ¹ìĦł":2975,"ì¥Ĳ":2976,"Ġì²ĺìĿĮìľ¼ë¡ľ":2977,"ìŀ¥ìĹĲìĦľ":2978,"ìĦ±êµ°":2979,"ìłķíķľ":2980,"ìĬ¤ì¼Ģ":2981,"ìĿ´ìĹĪëįĺ":2982,"çİĭ":2983,"íķĺì§Ģë§Į":2984,"Ġìłķê·ľ":2985,"ĠíĮ¬":2986,"Ġãĥ":2987,"íķĺëĬĶëį°":2988,"Ġìłģìļ©":2989,"Ġíļį":2990,"Ġë¹Ī":2991,"©Ķë¦¬ì¹´":2992,"ĠíĿĳ":2993,"íĤ¹":2994,"ãĥ¼":2995,"Ġwith":2996,"ĠìĦłíĥĿ":2997,"æŃ":2998,"Ġì¹ł":2999,"íĺ¸ë":3000,"Ľ¸":3001,"ate":3002,"Ġme":3003,"ĠìĪĺìĽĲ":3004,"ĠìĹŃíķłìĿĦ":3005,"§Ĳ":3006,"ìŀĶ":3007,"ë¹Į":3008,"Ġla":3009,"ĠìŀĲê¸°":3010,"Ġë§ĪìĿĮ":3011,"Ġìĸ¼":3012,"Ġíķĺë©°":3013,"ìłł":3014,"íķĺìĺĢìľ¼ëĤĺ":3015,"ìĬ·":3016,"ĠìľĦíķĺìĹ¬":3017,"ê²©ìĿĦ":3018,"ĠìĬĪíį¼":3019,"ŀĢëĵľ":3020,"ìĦľë¥¼":3021,"ĠìĨĮíĶĦíĬ¸":3022,"Ġê²½ê¸°ìĹĲìĦľ":3023,"íĽĦë":3024,"ķħ":3025,"ë¦ŃíĦ°":3026,"ìĿ´ë¥¼":3027,"ìľĦë":3028,"Ġë¹ĦìĬ·":3029,"Ġê·¸ë¦¼":3030,"ge":3031,"Ġëª¬":3032,"ĠíĶĦëłĪ":3033,"Ġíĳľì¤Ģ":3034,"ì¤ĳìĹĲ":3035,"Ġì£¼ìĿ¸":3036,"Ġwe":3037,"Ġì±ĦëĦĲ":3038,"Ġìĸ´ëĬĲ":3039,"Ġë¯¸ìĪł":3040,"³´ë":3041,"åĪ":3042,"ë¦°ëĭ¤":3043,"ĠìĭľìŀĳíĸĪëĭ¤":3044,"Ġíķĺë£¨":3045,"Ġë¹ĦêµĲ":3046,"ìĺĪìĪł":3047,"íĬ¸ë¥¼":3048,"íĸĪìľ¼ëĤĺ":3049,"ial":3050,"ëªħìĿĦ":3051,"ëŀµ":3052,"Ġê²½ìĥģëĤ¨ëıĦ":3053,"ĠíĴĢ":3054,"ìłķë³´":3055,"ĠìĹŃìŀĦ":3056,"ìĿ¼ë³¸":3057,"Ġì¦ī":3058,"ĠìķĦíĶĦë¦¬ì¹´":3059,"ĠëĶĶì§ĢíĦ¸":3060,"æ³":3061,"Ġë¶Ħë¦¬":3062,"ĠìĹ°ê·¹":3063,"ĠëĮĢíķĺìĹ¬":3064,"ĠìłĦëĿ¼ëĤ¨ëıĦ":3065,"ver":3066,"Ġê¹Į":3067,"êµ°ìĿĦ":3068,"ìĤ¬íĤ¤":3069,"Ġëĥ":3070,"ê´Ģë¦¬":3071,"Ġë³ĢíĻĶ":3072,"ĠìŀĪëĭ¤ê³ł":3073,"ìĸµ":3074,"Ġê·¸ëĮĢ":3075,"Ġê³łëĮĢ":3076,"ëĿ¼ëıĦ":3077,"Ġæľ":3078,"ç¾":3079,"íĨ¨ë¦Ń":3080,"ĠìĺĪìłķ":3081,"Ġus":3082,"ĠìĿ´ëķĮ":3083,"ì§ĢìĹŃ":3084,"íĺĶëĭ¤":3085,"ìĤ°ìĭľ":3086,"ëĲĲëĭ¤":3087,"ìĿ´ê¸°ëıĦ":3088,"ìĨĮëħĦ":3089,"ìľµ":3090,"å¹":3091,"Ġë¬¸íķĻ":3092,"ĠìºĲë¦ŃíĦ°":3093,"Ġìļ°ì£¼":3094,"ĠìľłìĿ¼":3095,"ìĪĺëĬĶ":3096,"ĠíĸīëıĻ":3097,"įķ":3098,"Ġëª¨ìĸĳ":3099,"Ġì¢ħíķ©":3100,"Ġjo":3101,"å·ŀ":3102,"Ġë²łíĬ¸ëĤ¨":3103,"ê°Ħë":3104,"ast":3105,"ê°ĦìĿĺ":3106,"Ġëĭ¨ì²´":3107,"ëĮĢíķľ":3108,"ĠêµĲì°¨ë¡ľ":3109,"Ġì¡°ìĤ¬":3110,"íĻĶêµŃìĿĺ":3111,"ëĤĺëĬĶ":3112,"ì¹ł":3113,"ë¥´ê²Į":3114,"ìĭľì½Ķ":3115,"ĠãĤ":3116,"ë²½":3117,"Ġë¬¸ë":3118,"ĠìĹ°íĺģ":3119,"Ġíı¬ë¥´":3120,"ëĤ¬ëĭ¤":3121,"Ġíľĺ":3122,"Ġåį":3123,"ĬìĿĢ":3124,"ëĭĪìĬ¤":3125,"íķĺìĿ´":3126,"Ġì¢ĭìķĦ":3127,"íĮĶ":3128,"ìĦ¬":3129,"Ġcol":3130,"Ġsv":3131,"Ġì¢ĭìĿĢ":3132,"Ġå°":3133,"Ġby":3134,"³µ":3135,"ëĲĺë©´ìĦľ":3136,"¡Ģ":3137,"ry":3138,"ĠìľĦë¥¼":3139,"Ġcd":3140,"Ġê°ľìĭľ":3141,"¯¸ë":3142,"Ġìŀĺ":3143,"ich":3144,"ëĨį":3145,"ê³¼ëĬĶ":3146,"Ġì§Ģë°°":3147,"ĠìĪĺìĥģìŀĲ":3148,"Ġnew":3149,"ĠíķľêµŃìĿĺ":3150,"ĠëħĦëıĦ":3151,"ìĹ°ìĥģ":3152,"ìĬ¤íĬ¸ëłĪìĿ¼ë¦¬":3153,"ĠìĹĨìĿ´":3154,"ĠíĿĶ":3155,"ìłģìĿĦ":3156,"Ġlov":3157,"Ġë°ĸ":3158,"Ð°":3159,"Ġë°ĽìĿĢ":3160,"ìĬ¤íĨł":3161,"éĩĮ":3162,"ìĽ¨ìĿ´":3163,"Ġë¡¯":3164,"Ġíı´ëŀĢëĵľ":3165,"ë²¤":3166,"ëĶĶìĺ¤":3167,"ĠìķĮëłī":3168,"Ġìĥģëĭ¹":3169,"ł¸ëĭ¤":3170,"ĠìĿ¼ìłľ":3171,"íļĮë¥¼":3172,"ëŀĻ":3173,"Ġë²ĦìłĦ":3174,"Ġê¸°íļį":3175,"ĠëĤ´ë¶Ģ":3176,"ĠíĶĦë¡ľìłĿ":3177,"na":3178,"ĠìŀĳìĹħ":3179,"Ġê²½ìĺģ":3180,"Ġìķ¤":3181,"ĠíĺķìĭĿ":3182,"ĠìķĦë§Ī":3183,"ê²łëĭ¤":3184,"ëł¥ìĿ´":3185,"ĠíĢ":3186,"ĠìŀĶ":3187,"Ġed":3188,"ect":3189,"ìłķìĿĺ":3190,"Ġëŀ":3191,"Ġbr":3192,"ĠìĦ¼íĦ°":3193,"ë¥¸ëĭ¤":3194,"Ġíķ´ìĻ¸":3195,"ĠìĿ´ëŀĢ":3196,"Ġì¡°ìĦłìĿĺ":3197,"ìĿĺë¥¼":3198,"ĠìĦ¸ìĿ´":3199,"ue":3200,"ë¯¼ì£¼ì£¼ìĿĺ":3201,"ĠìĬ¤ìľĦ":3202,"Ġë³´íĺ¸":3203,"ĠìĹ¼":3204,"Ġê°ľêµĲ":3205,"ìĦ±ìĿĢ":3206,"ł¹":3207,"ĠìķĻ":3208,"ê°ĢìĿĺ":3209,"Ġit":3210,"Ġì¶ĺ":3211,"íŀĮ":3212,"ëī´":3213,"ĠëĵĿíĳľ":3214,"Ġë§Īë¦¬":3215,"ens":3216,"Ġì¶Ķìłķ":3217,"Ġë¸Ķë£¨":3218,"Ġåı":3219,"ĠíķĢ":3220,"Ġê°ľìĽĶ":3221,"íĦ°íħĮ":3222,"ìī¬":3223,"íķĺê±°ëĤĺ":3224,"ìĦłìĿĦ":3225,"und":3226,"ìĸ´ëĬĶ":3227,"íĭ°ëĤĺ":3228,"ĠíļįëĵĿ":3229,"ë¶Ģë¥¼":3230,"ìĽĲìľ¼ë¡ľ":3231,"Ġë¯¼ì£¼ëĭ¹":3232,"ĠìĬ¤ìĽ¨":3233,"ìĭľì¼°ëĭ¤":3234,"ĠìĿ¼ë°ĺìłģìľ¼ë¡ľ":3235,"Ġìĺ¤ìĬ¤íĬ¸ëłĪìĿ¼ë¦¬":3236,"ê²Ĳ":3237,"Ġì°¨ìłĦ":3238,"Ġë¶ģíķľ":3239,"Ġwor":3240,"Łī":3241,"ĠìĿ´ê²ĥìĿĢ":3242,"ĠìĿ´ëģĮ":3243,"Ġì¤ĳìĭ¬ìľ¼ë¡ľ":3244,"Ġê°Ģê¹Į":3245,"Ġë²ķë¥ł":3246,"ĠìŀĲìĭłìĿ´":3247,"ìłķìĹĲ":3248,"Ġwh":3249,"ìĿ¸ë¨¼":3250,"ìķ¤":3251,"ìĽĲìĿĢ":3252,"ĠìķĦëĤĺ":3253,"Ġê·ľëª¨":3254,"Ġê°ĢíĨ¨ë¦Ń":3255,"Ġì²«":3256,"ĠíĽĦë°ĺ":3257,"Ġê°ķìĽĲëıĦ":3258,"Ġì¼ĢìĿ´":3259,"Ġìłľì£¼":3260,"ĠìĹĲìĿ´":3261,"ìĿ¸ë¯¼ê³µíĻĶêµŃ":3262,"ĠëŁ°ëįĺ":3263,"Ġê½ĥ":3264,"Ġkg":3265,"uc":3266,"Ġëĵ±ìĹĲ":3267,"ëĲĺë©°":3268,"íİľ":3269,"ĠìĹĲëĦĪ":3270,"íĤ¬":3271,"Ġaf":3272,"ìºĲ":3273,"°ľ":3274,"ĠìĶ¨":3275,"ĠìĿ¸íĦ°ëĦ·":3276,"ĠìĻĦë":3277,"ë°į":3278,"Ġê·¸ë¥¼":3279,"ory":3280,"¦½":3281,"ĠìĦ¸ëł¥":3282,"ĠìŀĲëıĻì°¨":3283,"äºº":3284,"Ġìĸ¸ë¡ł":3285,"íļĮìĤ¬":3286,"Ġì§Ģì§Ģ":3287,"ëĮĢìĿĺ":3288,"ĠìŀĪì§Ģë§Į":3289,"ê³µìĤ¬":3290,"åŁİ":3291,"ĠìŀĪëĭ¤ëĬĶ":3292,"Ġê°ķíĻĶ":3293,"Ġìŀ¥ê´Ģ":3294,"ìĭľìŀ¥":3295,"Ġë°Ľê³ł":3296,"íĢ":3297,"Ġì¶ľíĮĲ":3298,"íĦ°íħĮìĿ¸ë¨¼":3299,"ĠëĦĵ":3300,"ìĤ¬ìĿ´íĬ¸":3301,"ìĿĢíĸī":3302,"ide":3303,"Ġìĺ¤ìĬ¤íĬ¸":3304,"ĠíķľêµŃìĸ´":3305,"ĠíĺĦìŀ¬ìĿĺ":3306,"Ġì¦Ŀê°Ģ":3307,"Ġìºł":3308,"ph":3309,"ìĽĮíģ¬":3310,"Ġì§Ģìĥģ":3311,"ĠìľĪëıĦ":3312,"ê±¸":3313,"¸£":3314,"ĠíĹĮë²ķ":3315,"ĠëıĻìĿ¼":3316,"ĠíĶĦë¡ľëĵĢ":3317,"íķĳ":3318,"Ġë¡¯ëį°":3319,"ĠìĨĮìľł":3320,"íķ´ìĿĺ":3321,"ìĤ°ìĹħ":3322,"ìŀī":3323,"ħĦ":3324,"ĠìĬ¹ê²©":3325,"Ġê°ľëħĲ":3326,"Ġìľłë¡ľ":3327,"Ġac":3328,"íĻĢ":3329,"Ġìĩ":3330,"Ġìŀĥ":3331,"Ġê¿":3332,"íĺĪ":3333,"Ġê³µìĤ°":3334,"Ġì¡°ìķ½":3335,"ìĸ´ê°Ģ":3336,"Ġì¹Ń":3337,"¸Ĳ":3338,"Ġê°ľìĹħ":3339,"ĠìĦľë¹ĦìĬ¤":3340,"ĠìĬ¤ìĽ¨ëį´":3341,"ĠìľĮë¦¬":3342,"ĠìĭĿë¬¼":3343,"Ġmy":3344,"ìļ°ìĬ¹":3345,"ìĸ´ëĤĺ":3346,"ĠìĿ´ìĥģìĿĺ":3347,"ìĿ´ì§Ģë§Į":3348,"Ħë§Ī":3349,"ld":3350,"Ġì§Ģíķĺì²ł":3351,"ë¬¼ë":3352,"ĠìĬ¹ê°ķìŀ¥":3353,"ì²ľêµ°":3354,"Ġê³łìĨį":3355,"ace":3356,"ì²´ë¡ľ":3357,"ëĢ":3358,"ç¥":3359,"ĠíĿĲ":3360,"êµĲíļĮ":3361,"Ġìĺ¬ëĿ¼":3362,"Ġìłķìĭł":3363,"Ġap":3364,"Ġë®¤ì§Ģ":3365,"ì²´ê°Ģ":3366,"êµŃë¯¼":3367,"te":3368,"ì¡°ìĿĺ":3369,"Ġgo":3370,"Ġfe":3371,"Ġê´Ģíķł":3372,"ĠìĦ¸ì¢ħ":3373,"Ġë¹ħ":3374,"ĠìĿ´ëŁ°":3375,"²¨":3376,"Ġê¸´":3377,"Ġë¯¸ëŀĺ":3378,"ìĦ¯":3379,"Ġë°Ľìķĺ":3380,"íĬ¸ëĿ¼":3381,"Ġë¹Ħíĸī":3382,"ĠëıĦìĽĢ":3383,"ĠëĦ£":3384,"Ġíķĺëĭ¤":3385,"Ġê³łìĸĳ":3386,"ëĿ¼ìĿĺ":3387,"Ġê·¸ë¦°":3388,"Ĳĺìĸ´":3389,"ķìĭľì½Ķ":3390,"ĠíĨµìĤ°":3391,"ĠëķĮë¬¸ìĿ´ëĭ¤":3392,"ĠìŀĲë¦¬":3393,"ĠêµĲíļĮ":3394,"Ġì¤ĳêµŃìĿĺ":3395,"ìĥģìĿ´":3396,"Ġë³´ìĿ¸ëĭ¤":3397,"Ġê¹Ģìĺģ":3398,"ê³ĦìĿĺ":3399,"Ġë³´ëĤ´":3400,"ĠíĻįì½©":3401,"ĠíķĦë¦¬":3402,"ëĵ¤ìĹĲ":3403,"Ġlg":3404,"ĠìŀĪìĸ´ìĦľ":3405,"Ġë³¼":3406,"Ġìļ°ìĪĺ":3407,"end":3408,"²ĦìĬ¤":3409,"ass":3410,"Ġìµľì´Īë¡ľ":3411,"¯¼ì£¼ëĭ¹":3412,"Ġê°ľë´ī":3413,"ĠìĹ°ì£¼":3414,"ies":3415,"ĠìĨĮê°ľ":3416,"Ġë¿Ĳ":3417,"ĠíĪ¬ìĪĺ":3418,"Ġë°ĶëĢ":3419,"ĠíķĻëł¥":3420,"ë¶Ģë¬¸":3421,"Ġëĸ¨ìĸ´":3422,"Ġìĺ¤íĽĦ":3423,"Ġì§Ģëªħ":3424,"ust":3425,"ĠìĹĲíĶ¼":3426,"ì²´ìľ¡":3427,"ĠìĻ¼":3428,"ĠìĦłìĪĺê¶Į":3429,"ĠëĲĺìĹĪê³ł":3430,"Ġad":3431,"ìĬ¤íħĮ":3432,"Ġíķĺì§Ģ":3433,"éķ":3434,"ĺë¦¬":3435,"Ġë¯¸ëĭĪ":3436,"ĠìĻ¸ë":3437,"ĠíļĮìĤ¬":3438,"ĠìĬ¤ì½Ķ":3439,"Ġë¹Ľ":3440,"ìĨĶ":3441,"ëĭ¹ìĿĺ":3442,"ord":3443,"íķĻìłģ":3444,"íķĻìĥĿ":3445,"íĺ¹":3446,"ŀµ":3447,"ìĬ¤ì¹´":3448,"Ġíĺģëªħ":3449,"ĠìĽĢ":3450,"ĠíĴĪ":3451,"ì³¤ëĭ¤":3452,"æµ":3453,"ìĭľì¼ľ":3454,"íĺ¸ë¥¼":3455,"Ġìĺ¤ìĤ¬ì¹´":3456,"Ġë¹Ħë°Ģ":3457,"ĠìķĦìĿ¼ëŀľëĵľ":3458,"ìĤ¬ìĿ´":3459,"Ġë°ĺìĿĳ":3460,"ĠìķĦì¹´ë":3461,"ĠìĿ¼ìĸ´ëĤĺ":3462,"ìŀĦìĬ¤":3463,"Ġì¶ľìĥĿ":3464,"ìĹ½":3465,"Ġëªħëł¹":3466,"ĠìĨĮíĶĦíĬ¸ìĽ¨ìĸ´":3467,"ĠìĤ¬ëĿ¼":3468,"ary":3469,"age":3470,"iz":3471,"êµĲíĨµ":3472,"ìĭľíĤ¨":3473,"Ġìľ¡ìĥģ":3474,"łĩê²Į":3475,"ë¦¬ìĻĢ":3476,"ìĽĥ":3477,"¯Ģë¡ľ":3478,"ìĤ¬íļĮ":3479,"Ġëį´ë":3480,"ĠëĳĲê³ł":3481,"ê¸°ìĻĢ":3482,"ìª½ìĹĲ":3483,"ĠìĹĺë¦¬":3484,"Ġìµľê·¼":3485,"ë¬¸ìĿĦ":3486,"ëĭ¨ìĿĦ":3487,"Ġìĺ¤ë¦¬":3488,"Ġëī´ìĬ¤":3489,"Ġíİ¸ê³¡":3490,"ix":3491,"Ġê°Ģë¦¬":3492,"ĠìĿ´ìĬ¤":3493,"ìŀĲë£Į":3494,"Ġì¤Ģìļ°ìĬ¹":3495,"Ġìĺ¤ìĬ¤íĬ¸ë¦¬ìķĦ":3496,"Ġëħ¼ëŀĢ":3497,"Ġëĵ±ìľ¼ë¡ľ":3498,"Ġë©Ķëĭ¬ë¦¬ìĬ¤íĬ¸":3499,"ìĶ©":3500,"ĠìĿ´ë¦ĦìĿĢ":3501,"Ġì°¬":3502,"±ħ":3503,"åŃ¸":3504,"ë¬¼ìĿĦ":3505,"Ġìľłíĺķ":3506,"íĭ°ëĵľ":3507,"íĶĪ":3508,"ĠëªħìĺĪ":3509,"ĠëĮ":3510,"ë²ķìĽĲ":3511,"ĠëĮĢì¤ĳ":3512,"ì¹ĺê°Ģ":3513,"ĠíĻľëıĻìĿĦ":3514,"ãĥ³":3515,"ëħķ":3516,"ĠìĭŃ":3517,"man":3518,"ĠìĿ´ìĬ¹":3519,"íķ´ë¥¼":3520,"ĠíĻķìŀ¥":3521,"Ġë¯¸êµŃìĿ¸":3522,"ĠìĦłìĿĺ":3523,"ĠìĹ¬íĸī":3524,"ê±´ë":3525,"Ġgr":3526,"Ġlove":3527,"Ġê·¸ëħĢëĬĶ":3528,"Ġë¶ĢìĹ¬":3529,"ìķĦëĵ¤":3530,"Ġë²ĦìĬ¤":3531,"ĠfcìĿĺ":3532,"ĠíĪ¬íĳľ":3533,"ê°Ģì§Ģ":3534,"ĠìĹĶì§Ħ":3535,"Ġë°Ķíĥķ":3536,"ëĤĺë¬´":3537,"ĠìłĦëĿ¼ë¶ģ":3538,"Ġì½Ķë¯¸ëĶĶ":3539,"Ġì¡°ìĦłë¯¼ì£¼ì£¼ìĿĺ":3540,"ê²¼ëĭ¤":3541,"ë¦¿":3542,"Ġì¸µ":3543,"ìĭ¬ìĿĦ":3544,"Ġê°ľêµŃ":3545,"íĦ°íħĮìĿ¸ë¨¼íĬ¸":3546,"ĠìłľíĴĪ":3547,"ìĦ±ê³¼":3548,"ìļ°ì£¼":3549,"Ġëĭ¤ì¹´":3550,"ĠìķĦìĤ¬":3551,"Ġë¶ĪêµĲ":3552,"ĠëĤ´ëł¤":3553,"Ġíİľ":3554,"ëĿ¼ìĬ¤":3555,"Ġì¶©ì²ŃëĤ¨ëıĦ":3556,"Ġë©Ģ":3557,"Ġsvg":3558,"Ġê±¸ì³Ĳ":3559,"ë¥´ê³ł":3560,"Ð¾":3561,"ì£¼ë¥¼":3562,"Ġop":3563,"ë¢°":3564,"ìŀĲì¹ĺ":3565,"ê¼":3566,"ĠìĹ°ìŀ¥":3567,"łµ":3568,"Ġìĭ¤íĹĺ":3569,"Ġht":3570,"Ġë§¨":3571,"ìĸ´ìĿĺ":3572,"ĠìĹ¬ë¦Ħ":3573,"íĴĢ":3574,"Ġno":3575,"ìĤ´ë":3576,"Ħë¥´ë":3577,"éģĵ":3578,"Ġì¢ħëª©":3579,"ĠëĤ´ê°ģ":3580,"ë¥¼ë":3581,"Ġì°¾ìķĦ":3582,"ĠìĹĨìĹĪëĭ¤":3583,"ë¬¸íĻĶìŀ¬":3584,"Ġfrom":3585,"ĠìĦłì¶ľ":3586,"ĠëħĦìĿĺ":3587,"ĠìĦ¸ëĮĢ":3588,"Ġë¶Ģì¡±":3589,"ìĨĮëĵľ":3590,"ĠíĮĮë¦¬":3591,"Ġê±´ì¶ķë¬¼":3592,"ë²ĦíĬ¸":3593,"ĠëĮĢë¶Ģë¶ĦìĿĺ":3594,"ê¾¸":3595,"ans":3596,"Ġë¸ĶëŀĻ":3597,"ĠêµŃíļĮ":3598,"Ġpart":3599,"Ġë¶ĦìĦĿ":3600,"Ġë¡ľìĬ¤":3601,"ĠìŀĲì¹ĺ":3602,"ë°ĶìĿ´":3603,"íĸĪëĭ¤ê³ł":3604,"Ġê³Ħë":3605,"Ġìłľíķľ":3606,"Ġì¡°ê±´":3607,"ìĤ¬ìĿ¼":3608,"Ġê²ĮìĿ´":3609,"ëĲ¨":3610,"ĠìļĶë¦¬":3611,"ĠëĨĢ":3612,"ìĨĮê°Ģ":3613,"ĠíĻ©ìłľ":3614,"Ð¸":3615,"ëĮĢëĬĶ":3616,"Ġëª©íĳľ":3617,"ìĦ±ìĹĲ":3618,"ĠìĺģìĹħ":3619,"ìĿ´ìĸ¸":3620,"ĠçĶ":3621,"Ġì¢ħë£Į":3622,"Ġë°Ķëĭ¤":3623,"Ġìĸ´ëł¤":3624,"ĠìľĮë¦¬ìĹĦ":3625,"ìłķìĿ´":3626,"ë©Ķëĭ¬":3627,"Ġë¶Ħìķ¼":3628,"Ġê¹Ģìłķ":3629,"ĠíĥĢìĿ´íĭĢ":3630,"Ġì§Ģëĥ":3631,"af":3632,"íķľêµŃ":3633,"Ġíı¬ë¥´íĪ¬":3634,"ç¸£":3635,"ĠìĤ¼ë":3636,"Ġë©¤ë²Ħ":3637,"ì¢ħìĿĺ":3638,"ıĦë":3639,"ĠíĺĪ":3640,"ìĭľíĤ¤ëĬĶ":3641,"Ġìłľì¡°":3642,"Ġë¬¸íĻĶìŀ¬":3643,"Ġíĺ¸ë¡ľ":3644,"Ġyou":3645,"Ġíķ´êµ°":3646,"ĠìĿ´ëĵ":3647,"ug":3648,"ĠìĹĳ":3649,"ĠíıīíĻĶ":3650,"Ġkë¦¬ê·¸":3651,"ĠëĤ¨ë¶Ģ":3652,"Ġì¹¸":3653,"ëī":3654,"Ġíķ©ê³Ħ":3655,"ĠìŀħíķĻ":3656,"ĠëĦ¤ìĿ´":3657,"ĠìĤ¬ëĭ¨":3658,"éĽ":3659,"«ĺ":3660,"ĠìĬ¤íĬľ":3661,"ì¼ľ":3662,"Ġvs":3663,"ìľĦìĹĲ":3664,"ĠìľłìĤ¬":3665,"ite":3666,"ĠìĭłìĦ¤":3667,"Ġë¨¼":3668,"ĠëıĻìĥĿ":3669,"Ġëĭ¬ëŁ¬":3670,"ĠìŀĦìĭľ":3671,"ĠëĤĺìĺ¨":3672,"íĺ¸ëĬĶ":3673,"Ġå¾":3674,"Ġë©ķìĭľì½Ķ":3675,"Ġìķ¼ë":3676,"Ġë¯¿":3677,"íĬ¸ëĬĶ":3678,"ĠìĺĪë¥¼":3679,"ëª°":3680,"ĠìļĶì½Ķ":3681,"ê³Ħë¡ľ":3682,"ĠìŀĦë":3683,"ìĬ¤ìĹĲ":3684,"ë¹Ļ":3685,"ŀĲ":3686,"Ġëª¨ìĬµìĿĦ":3687,"ĠëıĪ":3688,"Ġìĭľë¯¼":3689,"ĠìĿ´ë¥´":3690,"ne":3691,"ĠëįĶìļ±":3692,"ëĮĢê°Ģ":3693,"ure":3694,"ĠìĿ¼ìĿĦ":3695,"Ġê³ĦìĹ´":3696,"Ġë´":3697,"ìĺ¹":3698,"ìķĦëĬĶ":3699,"ice":3700,"ìłģìĿ´":3701,"ĠìĦ¸íı¬":3702,"ĠíĻĪëŁ°":3703,"ĠêµĲìŀ¥":3704,"ĠëĮĢìĤ¬ê´Ģ":3705,"íĬ¸ìĽĮíģ¬":3706,"ĠìŀĪê²Į":3707,"ĠìĿ´ìľłë¡ľ":3708,"ĠìĪĺìļ©":3709,"ë¶Ģë¥´íģ¬":3710,"ĠìłĦìĹĲ":3711,"Ġëķħ":3712,"įĺ":3713,"Ġë§º":3714,"ĠëĶĶìŀĲìĿ¸":3715,"ĠíĶ½":3716,"Ġë²łìĿ´ìĬ¤":3717,"Ġìĭľíĭ°":3718,"ì»¨":3719,"åľĭ":3720,"Ġíľ":3721,"ìĨĮë¦¬":3722,"ìĸ´ìĦľ":3723,"ĠëĬĺ":3724,"Ġê¹¨":3725,"ĠëĲĺìĹĪ":3726,"ë¡Ń":3727,"ĠìĨĮë¹Ħ":3728,"ĠìĤ´ë":3729,"Ġsm":3730,"Ġê¸°ìŀĲ":3731,"íķĺë§Ī":3732,"Ġêµ¬ëĭ¨":3733,"Ġìĭ¶":3734,"ë¬´ëĿ¼":3735,"ëĭµ":3736,"ìĦłìĿĺ":3737,"Ġë¯¸ëĤĺ":3738,"ìĽłëĭ¤":3739,"Ġíģ´ëŀĺ":3740,"ĠìĦłìĸ¸":3741,"ii":3742,"Ġë°©ë¬¸":3743,"Ġìľłëŀĺ":3744,"ĠìĭłìĿ¸":3745,"ĠìĿ¸ìłĳ":3746,"Ġë²łìĬ¤íĬ¸":3747,"ĠìĿ´ëĵ¤":3748,"ëŀ«":3749,"íĺĦìĿĺ":3750,"Ġíĥľìĸ´ëĤ¬ëĭ¤":3751,"ìĭľìĺ¤":3752,"Ġë°ĶëŀĮ":3753,"ĠìĹĲíĶ¼ìĨĮëĵľ":3754,"ìłģìĿĢ":3755,"ĠíķĺëĤĺìĿĺ":3756,"Ġê·¹ìŀ¥":3757,"ĠìķĦì§ģ":3758,"ĠíĮĮìĿ´":3759,"Ġíĳľìĭľ":3760,"ĠìķĮê³ł":3761,"Ġê²½ëĤ¨":3762,"Ġì¶ľìŀ¥":3763,"ìĨĮìĿĺ":3764,"ìķĦëħ¸":3765,"íĤ¤ëĬĶ":3766,"Ġì£¼ìĿ¸ê³µ":3767,"Ġë³´ìľł":3768,"Ġê¸°ì´Ī":3769,"æĻ":3770,"ìłĦìŀĲ":3771,"Ġë³´ëĭ¤":3772,"íķľëĭ¤ëĬĶ":3773,"ìľĪ":3774,"Ġmus":3775,"ìĨĮìĨį":3776,"ë§Īëĭ¤":3777,"Ġma":3778,"ĠìłĲëł¹":3779,"ĠìĤ¬ìļ©íķĺëĬĶ":3780,"¶Ħ":3781,"Ġê¸Ģë¡ľ":3782,"ìĿĺíļĮ":3783,"ond":3784,"Ġê´Ģê´ĳ":3785,"Ġì¹¼ë":3786,"ĠìĿ´ë¦Ħìľ¼ë¡ľ":3787,"ĠìľĦíĹĺ":3788,"ì§Ģì§Ģ":3789,"Ġê¾":3790,"ë¶ĢëĬĶ":3791,"ish":3792,"ĠìĽĢì§ģ":3793,"ëģ¼":3794,"Ġäº":3795,"Ġìĸ¸ê¸ī":3796,"ë³´ë¥¼":3797,"ĠìĿ¼ìĹĲëĬĶ":3798,"ë·°":3799,"ë¬´ë¥¼":3800,"Ġê°Ģë¬¸":3801,"ìĿ¸ìľ¼ë¡ľ":3802,"ĠëĮĢìĪĺ":3803,"Ġê·¸ëŁ°":3804,"Ġëĵľëŀĺ":3805,"Ġë²¤":3806,"ĠíļĮìŀ¥":3807,"ê·¸ë£¹":3808,"éĿ¢":3809,"£¬":3810,"Ġmc":3811,"Ġê¸°ì¤Ģìľ¼ë¡ľ":3812,"íģ¬ìĿĺ":3813,"Ġë²ĪìĹŃ":3814,"ìĽĲìĹĲ":3815,"Ġpar":3816,"ĠëĤĺíĥĢëĤ":3817,"Ġì§Ģë¦¬":3818,"ìĩĦ":3819,"ì¹ĺê³ł":3820,"íģ¼":3821,"ĠíĶ¼íķ´":3822,"Ġë§ĮëĤĺ":3823,"Ġìĺ¬ëŀ":3824,"ìļ°ë¦¬":3825,"ëıĦìĭľ":3826,"Ġê±°ì£¼íķľ":3827,"ĠíĹĿ":3828,"íķĺëıĦë¡Ŀ":3829,"Ġë®¤ì§Ģì»¬":3830,"ë²łìĿ´":3831,"Ġíİ¸ìŀħ":3832,"ĠíĺĦìŀ¬ëĬĶ":3833,"Ġì§ĢìĨį":3834,"Ġìĭľíĸī":3835,"ĠíķľëĤĺëĿ¼":3836,"Ġìŀīê¸ĢëŀľëĵľìĿĺ":3837,"Ġê²°ìĦ±":3838,"êµ¬ë¥¼":3839,"Ġë©ľ":3840,"ivers":3841,"ê½ĥ":3842,"ëªħìĿĺ":3843,"Ġëªĩ":3844,"Ġë¶Īêµ¬":3845,"ìĦ¸ìĿ´":3846,"ëª¨ë¦¬":3847,"ĠìĦ±ìŀ¥":3848,"Ġê³µìŀĳ":3849,"íķĺìĿĺ":3850,"ĠëĿ":3851,"ĠìĤ¬ëŀĮìĿ´":3852,"ĠìĺģíĻĶìĿ´ëĭ¤":3853,"ìĻĶ":3854,"ĠìŀĪìĹĪëįĺ":3855,"ĠìĪ¨":3856,"íķ¨ìľ¼ë¡ľìį¨":3857,"ĠìľłëĤĺìĿ´":3858,"ĠìĦ±ê²©":3859,"ung":3860,"ĠëĶ¸":3861,"ĠëĿ¼ìĿ´ë¸Į":3862,"Ġìŀħëĭ¨":3863,"ĠíĨµê³¼":3864,"ĠìĿ½":3865,"íĮĮíĬ¸":3866,"ĠìķĦì¹¨":3867,"ment":3868,"Ġê³¤":3869,"íĸĪëĬĶëį°":3870,"ĠìķĦë¦¬":3871,"Ġì§ĢìłķëĲĺìĹĪëĭ¤":3872,"ĠìĿ´íķ´":3873,"ĠìĻ¸êµĲ":3874,"ĠìĽ¹ìĤ¬ìĿ´íĬ¸":3875,"ìŀĲëĵ¤ìĿĢ":3876,"one":3877,"ĠìĿĮëł¥":3878,"ì½¤":3879,"æķ":3880,"Ġë°ķìĤ¬":3881,"Ġìĺ¤ë¥¸ìª½":3882,"ëĭ¤ê³ł":3883,"Ġë°ĿíĺĶëĭ¤":3884,"ìļĶìĭľ":3885,"ĠìĬµ":3886,"į°ë¯¸":3887,"ĠìłķíĻķ":3888,"ìłľëĬĶ":3889,"ë¦´ë":3890,"ĠëĵľëŁ¬":3891,"ĠìķĦëĤ´":3892,"ëĿ¼ìĿ´ëĤĺ":3893,"Ġë¬´ëĮĢ":3894,"Ġì´Īëĵ±íķĻêµĲ":3895,"íľ´":3896,"ì£¼ë¡ľ":3897,"ìľ¼ë¯Ģë¡ľ":3898,"Ġì¹ĺë£Į":3899,"èĪ":3900,"ĠìĿĺìĤ¬":3901,"ë²łë¥´":3902,"ĠìŀĲì£¼":3903,"ìĿ¼ë³´":3904,"ì½Ķëĵľ":3905,"ĠìĦ¤ë¦½ëĲľ":3906,"Ġê²¨ìļ¸":3907,"Ġê²½ìŁģ":3908,"ĠìķĪìłĦ":3909,"ìĬµëĭĪëĭ¤":3910,"Ġì§ĳíķ©":3911,"éĩ":3912,"Ġì¹´ëĵľ":3913,"Ġê¶¤":3914,"ë¹ĦìķĦ":3915,"ĠíĻĢ":3916,"Ġë¶ĢìĿ¸":3917,"ĠìĦ±ë¦½":3918,"ĠìĦľìļ¸ëĮĢíķĻêµĲ":3919,"ĠìłľëıĦ":3920,"ë´":3921,"ĠíĨµìĿ¼":3922,"ĪĦ":3923,"°ķ":3924,"ĠìĿ´íĥĪë¦¬ìķĦìĿĺ":3925,"íķĻìĿĦ":3926,"ĠìłľêµŃìĿĺ":3927,"ĠìĻľ":3928,"Ġê·¸ëĵ¤ìĿĺ":3929,"ê³µìĽĲ":3930,"Ġì»¬":3931,"¯¼ë":3932,"ps":3933,"Ġì£¼ìĿĺ":3934,"İìĿĢ":3935,"ëĿ¼ìĿ¸":3936,"ëĭĪìĸ´":3937,"Ġê²½ê¸°ìŀ¥":3938,"ìĿ¼ëŁ¬":3939,"ile":3940,"ê°ľë°ľ":3941,"æĸĩ":3942,"ĠìĿ´ë¡ľ":3943,"ëľ":3944,"Ġë¬¼ì§Ī":3945,"ĠëģĮ":3946,"¶Ī":3947,"Ġíİ¸ì§ĳ":3948,"æ´ŀ":3949,"éĸ":3950,"ĠìłľìŀĦìĬ¤":3951,"ì§ĵ":3952,"ly":3953,"å¿":3954,"ĠìĿ´ë©°":3955,"ĠìĪł":3956,"åħ¬":3957,"Ġë°°ì¹ĺ":3958,"Ġë°ľíĸī":3959,"Ġìŀ¥ìĨĮ":3960,"ê¸ĪìĿĦ":3961,"ĠìłķìĭĿ":3962,"Ġì°¨ë¡Ģ":3963,"ê²½ê¸°":3964,"êµ°ìĹĲ":3965,"ical":3966,"Ġìĺ¤ëĬĺëĤł":3967,"»į":3968,"ìĿ¸íĬ¸":3969,"ĠåĲ":3970,"íĮĮìĿ¼":3971,"Ġë°¤":3972,"ĠìłĦì£¼":3973,"ĠìĤ¬ìĿ´ìĿĺ":3974,"ĠëħĦê°Ħ":3975,"Ġíĥľíıī":3976,"Ġë¶ĢìĤ°ê´ĳìĹŃìĭľ":3977,"ts":3978,"Ġfm":3979,"Ġinter":3980,"ĠíļĮìĽĲ":3981,"Ġê²ĥìĿ´ëĿ¼ê³ł":3982,"ĠìĿ´ëĵ¤ìĿĢ":3983,"ĠìĻķêµŃ":3984,"íķĻìĿĺ":3985,"ë³¸ë¶Ģ":3986,"íķµ":3987,"ëıĪ":3988,"ĠìľłëĤĺìĿ´íĭ°ëĵľ":3989,"ëĭ¤ìļ´":3990,"ìĤ°ë©´":3991,"Ġim":3992,"ë¡ľìĿĺ":3993,"Ġê´ĳê³ł":3994,"å·Ŀ":3995,"Ł¼":3996,"Ġê¸°ìĤ¬":3997,"Ġì¡°ìĦ±":3998,"êµ¬ìĹĲ":3999,"ĠìĿ´ìĭľ":4000,"Ġë³Ģíĺ¸":4001,"ì¿łëĿ¼":4002,"Ñģ":4003,"ê²½ìłľ":4004,"Ġíı¬íķŃ":4005,"Ġman":4006,"Ġìĭľê¸°":4007,"ëıĻìķĪ":4008,"Ġê²½íĹĺ":4009,"Ġì¤":4010,"Ġìľłë¦¬":4011,"íĸĪìĿĦ":4012,"Ġê³¼ë":4013,"ĠêµŃë°©":4014,"ĠìĹĲëĵľ":4015,"ĠíĮ¨ë°°":4016,"Ġë§ĲíĸĪëĭ¤":4017,"ĠìłĦëĿ¼ë¶ģëıĦ":4018,"ìĿ¸ëĵ¤":4019,"ê³ĦìĹĲ":4020,"Ðµ":4021,"Ġíķ´ìĦĿ":4022,"ìĭľíĭ°":4023,"Ġëħ¸ëł¥":4024,"çĽ":4025,"Ġqu":4026,"Ġê·¸ëłĪ":4027,"éĢ":4028,"ìŀĲëĵ¤ìĿ´":4029,"ìĹĨìĿ´":4030,"ì¤":4031,"Ġfa":4032,"Ġíı¬íķ¨íķľ":4033,"Ġê²°íķ©":4034,"ê°Ļ":4035,"Ġìħ°":4036,"ê´ĢìĿĢ":4037,"Ĩį":4038,"Ġww":4039,"å¯º":4040,"Ġê°ĸê³ł":4041,"Ġíĺľ":4042,"Ġä¹":4043,"ĠìĭľíĹĺ":4044,"ĠìĬ¤íĭ°":4045,"ĠìĿ¸ëĶĶ":4046,"ì§Ģìħĺ":4047,"Ġì¤ĳìĹĲ":4048,"ìĿ¸ëį°":4049,"Ġìłľìĭľ":4050,"Ġê²ĥìĹĲ":4051,"ĠìľĪëıĦìļ°":4052,"ĠìľłëĮĢ":4053,"³Ħ":4054,"ì²łëıĦìĿĺ":4055,"ë¹Ħë¥¼":4056,"íĪ":4057,"ĠìĿ´ê³³":4058,"ĠìĬ¤ìĬ¤ë¡ľ":4059,"ĠìĺģìĹŃ":4060,"ĠìłķëıĦë¡ľ":4061,"ì´ī":4062,"Ġê²½ë¶ģ":4063,"ì¶ľìĹ°":4064,"ĠëıĻë¶Ģ":4065,"ind":4066,"Ġë¶ĢíĦ°":4067,"Ġê°ķëł¥":4068,"Ġsy":4069,"Ġëª¨ë¦¬":4070,"Ġë¯¼ë":4071,"ĠìĽĲìŀĳ":4072,"Ġë°ĶëĢĮ":4073,"ĠìļĶì²Ń":4074,"ĠìĪĺìĺģ":4075,"ĠìĨĮëħĢ":4076,"Ġê°Ģìłķ":4077,"ĠìĽĶë¶ĢíĦ°":4078,"ĠëĵĢ":4079,"íĨµìĭł":4080,"Ġì§ĢìĹŃìĿĺ":4081,"ĠíļĮìĿĺ":4082,"¾į":4083,"Ġíı¬ë¥´íĪ¬ê°Ī":4084,"ĠíĶĦë¡ľëĵĢìĦľ":4085,"ìĭĿìĿ´":4086,"Ġê¿Ī":4087,"ĠëĤĺëĬĶ":4088,"ìĥģìĹĲ":4089,"Ġìºĺë¦¬":4090,"Ġê°ľì¹Ń":4091,"§¤":4092,"Ġë¶Īêµ¬íķĺê³ł":4093,"Ġë¹Ħíķ´":4094,"íĻĶê°Ģ":4095,"ê¸°ìĹħ":4096,"íĶ¼ìķĦ":4097,"ê³łìĨįëıĦë¡ľ":4098,"Ġëĵ±ë¡Ŀ":4099,"ĠìĹĲìĬ¤":4100,"ĠìĦłìĥĿ":4101,"ëª½":4102,"ĠìĦ¸ìĽĮ":4103,"Ġë¨¸ë":4104,"ĠëĤ¨ìª½":4105,"Ġì°¸ì¡°":4106,"ì¤Ħ":4107,"Ġì´ĿìĦł":4108,"ĠìĤ¬ìĿ´íĬ¸":4109,"ĠìľĦìĿĺ":4110,"Ġë§Īë²ķ":4111,"ĠíĽĪëł¨":4112,"ational":4113,"ë©´ìĹĲ":4114,"Ġë³µê·Ģ":4115,"ĠëĤĺë¨¸":4116,"Ġë¶Īë¦¬":4117,"Ġêµ°ìĿ¸":4118,"ert":4119,"Ġëĭ¬ìĦ±":4120,"ĠìłľìķĪ":4121,"Ġë§Īìĵ°":4122,"ĠìĪĺì¤Ģ":4123,"Ġë¯¸ìĥģ":4124,"iss":4125,"Ġì¡°ê°ģ":4126,"Ġì¸ł":4127,"our":4128,"ì¤ĳìķĻ":4129,"ì§¸ë¡ľ":4130,"ìłķì±ħ":4131,"ë®¤":4132,"ìĿ¸ë¬¼":4133,"ĠçĻ":4134,"Ġê°¤":4135,"ĠëªħìĿĦ":4136,"Ġìŀ¬íĮĲ":4137,"Ġê°Ģë¥´":4138,"ê²½ì°°":4139,"åĮ":4140,"ĠæĪ":4141,"ç¤":4142,"ĠíĨµìĭł":4143,"ĠìĺģíĨł":4144,"Ġìµľê³łìĿĺ":4145,"Ġag":4146,"ìĿ¸ê°Ģ":4147,"ìĹĪëįĺ":4148,"Ġì²Ļ":4149,"ìĿ¸ì§Ģ":4150,"ë¡¤":4151,"ĠíĬ¹ìłķ":4152,"ëĵ¤ëª©":4153,"ÑĢ":4154,"Ġê²¸":4155,"ĠíĶĦë¡ľìłĿíĬ¸":4156,"íı¬ë¥´":4157,"ĠíĹĿê°Ģ":4158,"ĠíĿ¡":4159,"Ġìĭ¤ìłľë¡ľ":4160,"ach":4161,"ĠíĦ°íĤ¤":4162,"Ġì§ĢëĤľ":4163,"Ġì²ĺë¦¬":4164,"ĠíķĺëĤĺìĿ´ëĭ¤":4165,"ĠíĶĦë¦¬ë¯¸":4166,"Ġë§¡ìķĺëĭ¤":4167,"Ġìī½":4168,"ĠìĹ°ì¶ľ":4169,"ĠìłĦìĦ¤":4170,"ĠëĤĺëĵ¤ëª©":4171,"ĠíĬ¸ë¦¬":4172,"ĠìĿĺíķĺìĹ¬":4173,"Ġì¤ĳëĭ¨":4174,"ĠìĹĲìĦľëĬĶ":4175,"Ġìľłëªħíķľ":4176,"ìķĦìĭľìķĦ":4177,"ĠìĻĦìłĦíŀĪ":4178,"Ġë¶ģìª½":4179,"íıīê°Ģ":4180,"Ġì´ī":4181,"ĠìĹĨìĿĮ":4182,"Ġë°ĿíĺĢ":4183,"Ġìĺ¤ëŀĺ":4184,"Ġë§Īì°¬":4185,"Ġì¡´ìŀ¬íķľëĭ¤":4186,"Ġë¶Ģìłķ":4187,"Ġê°ĢëĬ¥íķĺëĭ¤":4188,"å®Ĺ":4189,"å¥":4190,"ëĭ¤ìĿ´":4191,"ĠëĦ¤íĬ¸ìĽĮíģ¬":4192,"ĠìĨĮìŀ¬ë¡ľ":4193,"ction":4194,"ĠìĿĢíĩ´":4195,"ŁŃ":4196,"Ġêµ¬ë¶Ħ":4197,"Ġíİ¼":4198,"Ġë§İëĭ¤":4199,"åİ":4200,"Ġê°ľíĺģ":4201,"íı¬ëĭĪìķĦ":4202,"Ġë³´ìĪĺ":4203,"Ġìŀ¥ìķł":4204,"Ġì°½ìĽĲ":4205,"ê°Ħëĭ¤":4206,"ìĤ¬ë¬´":4207,"Ġë¯¸ëĶĶ":4208,"ĠìĥĮ":4209,"ĠíķĺëĬĺ":4210,"ĠìĦ¸ê°Ģ":4211,"ĠìķĮëł¤ì§Ħ":4212,"ĠëķĮê¹Įì§Ģ":4213,"Ġsing":4214,"ìļ°ëĵľ":4215,"íı´":4216,"ock":4217,"ĠíĥĪëĿ½":4218,"ì²´ëĬĶ":4219,"ê³ĦëĬĶ":4220,"hz":4221,"ìĿĺìĽĲ":4222,"ĠëĤ¨íİ¸":4223,"ìħĶëĦĲ":4224,"ĠìķĦì¹´ëį°ë¯¸":4225,"ĠëĽ°ìĸ´ë":4226,"Ġcr":4227,"è¨":4228,"ì§ĢëıĦ":4229,"ë¿":4230,"ìĸ´ë¯¼ì£¼ëĭ¹":4231,"Ġê°ģë³¸":4232,"¬¼ë":4233,"ìĦłìĪĺ":4234,"Ġíķ´ê²°":4235,"ìĦľíĬ¸":4236,"ĠíĺķìĤ¬":4237,"ĠìķĦë¦Ħ":4238,"Ġë°ľëĭ¬":4239,"ĠìĿ´ë¥":4240,"ìĤ°ìĿĦ":4241,"ĠëĤ¨ìĦ±":4242,"ĠëĶ°ë¥¸":4243,"ĠìĿ´ëĵ¬":4244,"ĠìĭĿë¯¼":4245,"ĠëŁ¬ìĭľìķĦìĿĺ":4246,"ìĦľìĿĺ":4247,"ĠìķĮëłīìĤ°":4248,"íĺķìĿĦ":4249,"ĠìĽĶìĹĲëĬĶ":4250,"Ġëĭ¤ëĭĪ":4251,"Ġì½Ķëĵľ":4252,"ĠìĬ¤íİĺìħľ":4253,"ĠëįĶë¶Īìĸ´ë¯¼ì£¼ëĭ¹":4254,"ence":4255,"Ġì¹´ìĿ´":4256,"Ġë¬´ìĨĮìĨį":4257,"Ġê¼¬":4258,"ìķĦë¥¼":4259,"ìłĲìĿ´":4260,"ĠìĿ´ìĻ¸":4261,"ìĥģìľ¼ë¡ľ":4262,"Ġíı¬ì§Ģìħĺ":4263,"ĠíĻķìĿ¸":4264,"ë©ĶìĿ´":4265,"Ġëĵ±ê³¼":4266,"ê°ĲìĿĦ":4267,"Ġë¨¼ìłĢ":4268,"ĠëĭĪìĭľ":4269,"Ġì²´ê²°":4270,"Ġê±°ëĳĲ":4271,"ë¬´ìĽĲ":4272,"ĠìĹĶíĦ°íħĮìĿ¸ë¨¼íĬ¸":4273,"ìĤ¬ëł¹":4274,"ìĤ¼ê±°ë¦¬":4275,"ĠìķĦë¥´íĹ¨":4276,"Ġì°°":4277,"Ġê·¸ëĵ¤ìĿĢ":4278,"¥¿":4279,"ire":4280,"ĠìĬ¤íĮĮ":4281,"ĠëĤĺëī":4282,"íĻľëıĻ":4283,"ì£¼êµ°":4284,"ĠëĩĮ":4285,"ĠëĭĽ":4286,"Ġìŀĳìļ©":4287,"ìĥģìĿĢ":4288,"åĭ":4289,"æ²":4290,"Ġë¶ģë¶Ģ":4291,"ĮĢíķĻêµĲ":4292,"Ġì§§":4293,"ìłĦìĿĺ":4294,"Ġmo":4295,"êµ¬ì¹ĺ":4296,"ĠìĦľë¶Ģ":4297,"Ġì¤ĳê°Ħ":4298,"ath":4299,"ìľĦë¡ľ":4300,"ĠìĹ°ëĮĢ":4301,"Ġë³´ìĿ´":4302,"ê¸°ê°Ħ":4303,"ìĥĿíĻľ":4304,"ĠìĦ¸ëĬĶ":4305,"ìĭľë¦¬ì¦Ī":4306,"ä¿":4307,"Ġìŀĳê³¡ê°Ģ":4308,"ìĪŃ":4309,"ì²´êµŃ":4310,"ë¯¼ì£¼ëĭ¹":4311,"ĠìĿ´ì§ĳ":4312,"ĠìĿĺíļĮ":4313,"ë§ĪìĿĦ":4314,"Ġì²ľíĻ©":4315,"ĠëıĻìª½":4316,"Ġê·¸ëħĢìĿĺ":4317,"Ġunivers":4318,"Ġë§ĪìĿ´íģ¬ë¡ľ":4319,"ĠìŀĪëıĦë¡Ŀ":4320,"ì§ĢìĹĲìĦľ":4321,"ë²ķìĿ¸":4322,"ĠìĻ¼ìª½":4323,"íĶĦëłĪ":4324,"Ġê±°ë¦¬":4325,"ìķĦëĤĺ":4326,"ys":4327,"ê´ĢìĿĦ":4328,"Ġê³¨ëĵł":4329,"ì§ģìĿĦ":4330,"êµŃìłľ":4331,"ìľłíĤ¤":4332,"ĠìłĦìĭľ":4333,"ìłĢìļ°":4334,"ĠìĬ¤íĬ¸ë":4335,"Ġìĥģì§ķ":4336,"Ġê·¸ëĮĢë¡ľ":4337,"Ġíĳľê¸°":4338,"ĠëĮĢìĿĳ":4339,"Ġê±´ê°ķ":4340,"íķĻíļĮ":4341,"å£":4342,"ĠìķĪìłķ":4343,"ĠìĥĿìĦ±":4344,"Ġìŀĩ":4345,"Ġì¦Ĳ":4346,"Ġep":4347,"ìĤ°êµ°":4348,"Ġê·ľìłķ":4349,"Ġsch":4350,"ĠìłĦíķ´":4351,"íĭĢëŀľëĵľ":4352,"ìĭľë¡ľ":4353,"ĠëıĦì°©":4354,"ëĭ¨ìĹĲ":4355,"ĠìĿ´ë¥´ë":4356,"ëĭ¥":4357,"vd":4358,"Ġëį´ë§Ī":4359,"Ð½":4360,"Ġcar":4361,"ĠëłĪëĵľ":4362,"ìķĦê°Ģ":4363,"Ġìĭ¤ìłľ":4364,"Ġì¶Ķì§Ħ":4365,"Ġê¹ĢìĦ±":4366,"ëª»":4367,"Ġíķ©ë³ĳ":4368,"Ġê·¼ì²ĺ":4369,"Ġëĭ¨ìĪľ":4370,"ĠìĿ´ëĵ¬íķ´":4371,"Ġworld":4372,"ĠíķĺëĤĺë¡ľ":4373,"ĠìĪĺë¹Ħ":4374,"ìĭĿìĿĺ":4375,"ĠìĤ¬ìļ©íķľëĭ¤":4376,"Ġëª»íĸĪëĭ¤":4377,"ĠêµĲíĨł":4378,"Ġëĵ¤ìĸ´ê°Ģ":4379,"ĠìħĢ":4380,"ìļ¸ë":4381,"Ġë¦°":4382,"Ġê·¼ê±°":4383,"ĠìĹ¬ê²¨":4384,"Ġnh":4385,"īìĿĢ":4386,"Ġìłĳê·¼":4387,"ìĦłìĿ´":4388,"Ġæĺ":4389,"ĠëķĮëĬĶ":4390,"ë¸Ĳ":4391,"ìĻĢëĬĶ":4392,"æī":4393,"ê¸°íļį":4394,"Ġì¡°ìłķ":4395,"Ġë¶ķ":4396,"ë§ĪìĬ¤":4397,"ìĭľìĦ¤":4398,"ë¡¬":4399,"Ġë§¹":4400,"Ġìĥģíĺ¸":4401,"íı¼":4402,"ĠëĦĲë¦¬":4403,"Ġë²½":4404,"ëĿ¼ëħ¸":4405,"ĠìķĬìķĦ":4406,"ĠëĤĺë¬´":4407,"ĠíķĢëŀĢëĵľ":4408,"Ġìĭľì²Ńë¥ł":4409,"Ġê²½ìļ°ê°Ģ":4410,"Ġë§ĪìĿ´íģ´":4411,"ĠëĮĢìĤ¬":4412,"Ġë°ľìĤ¬":4413,"Ġìºĺë¦¬íı¬ëĭĪìķĦ":4414,"ëıĦìĹĲ":4415,"Ġë©ĶìĿ´ìłĢ":4416,"Ġë¹Ħë¡¯íķľ":4417,"ĠëĤ¨ë¶ģ":4418,"Ġê¸Īì§Ģ":4419,"Ġê°ķìłĲ":4420,"Ġìĺ¤íĶĪ":4421,"ĠëĮĢë¥Ļ":4422,"ĠêµŃìĻķ":4423,"ern":4424,"ĠìłĦëĤ¨":4425,"ĠëĨĴìĿ´":4426,"ëħ¼":4427,"ì§Ģê²Į":4428,"ìĺ¤ëĬĶ":4429,"Ġpc":4430,"Ġê°Ŀ":4431,"Ġë²łëĦ¤":4432,"ç¤¾":4433,"ê·ľëª¨":4434,"Ġëĭ¤ë§Į":4435,"Ġì£¼ëħĦ":4436,"ĠíĮĮê²¬":4437,"Ġê°Ģìł¸":4438,"ë¨":4439,"ĥĪëĭ¤":4440,"íķŃê³µ":4441,"Ġvol":4442,"ĠëĪĦë":4443,"ĠìĥĿë¬¼":4444,"ª¬":4445,"Ġì¹´ë©Ķ":4446,"ĠìľĦë¡ľ":4447,"ìĭłìĿĦ":4448,"æł":4449,"olog":4450,"Ġê±°ë¶Ģ":4451,"ĠìĤ¬ëŀĮëĵ¤ìĿ´":4452,"íĽĦìĿĺ":4453,"Ġê¸°ìĹ¬":4454,"ìļ°ì£¼ìĹ°ìĥģ":4455,"ëĲĺê¸°":4456,"Ġê°Ģìŀħ":4457,"Ġìĺ¤ìĬ¤":4458,"ĠìĨĮëħĦ":4459,"Ġíķ´ìķĪ":4460,"ah":4461,"ĠìłĦì²ł":4462,"ìŀĲëıĻ":4463,"ĵ±":4464,"íĽĦë¡ľ":4465,"ĠìķĬëĭ¤":4466,"Ġì¤Ģê³µ":4467,"ĠìĿ¸íķľ":4468,"Ġë°Ķë¥´":4469,"ìĿ¸ê³¼":4470,"ĠìķĦëŀ":4471,"Ġë¶Ħíı¬":4472,"Ġë°Ķíĥķìľ¼ë¡ľ":4473,"ê°Ģë¥¼":4474,"Ġbar":4475,"ĠìŀĪìľ¼ëĤĺ":4476,"Ġê³¼ìłķìĹĲìĦľ":4477,"ĠæŃ":4478,"ê³µìĹħ":4479,"ĠìķĦë¥´íĹ¨íĭ°ëĤĺ":4480,"ĠìĤ¼êµŃ":4481,"ĠìĦľìª½":4482,"Ġê´Ģì¸¡":4483,"æĽ¸":4484,"ĠíĻľìļ©":4485,"ë§ĮìĿ´":4486,"ĠìĦ±ëĤ¨":4487,"Ġìĭłë¬¸":4488,"ìĭľê°Ħ":4489,"Ġë°ķìłķ":4490,"ĠëıĻê³Ħ":4491,"ìĸ´ì§Ħëĭ¤":4492,"ìŀĲíĤ¤":4493,"Ġë§¤ì£¼":4494,"ìĿ¸ë¯¼ê³µíĻĶêµŃìĿĺ":4495,"åł":4496,"ĠìłĦíĻĺ":4497,"ê°Ģì§Ģë¡ľ":4498,"ĠìĿ¼ëĮĢ":4499,"ë§ĮìĿĦ":4500,"Ġì£½ìĿĢ":4501,"Ġë°ĺëŀĢ":4502,"ìĭ¸":4503,"ital":4504,"Ġë¦¬ê·¸ìĿĺ":4505,"ica":4506,"Ġë³´ì»¬":4507,"íŀĪë¡ľ":4508,"Ġì£¼ëıĦ":4509,"Ġì§Ģì§Ħ":4510,"ĠìĹ¬ê¸°ìĦľ":4511,"ë¶Ģê°Ģ":4512,"Ġìĸ´ë¦°ìĿ´":4513,"ĠìĿĮìķħê°Ģ":4514,"ëĩĮ":4515,"Ġtvn":4516,"Ġì¶©ì²Ńë¶ģëıĦ":4517,"ĠìłĦë°ĺ":4518,"ë£¬":4519,"ê¿":4520,"Ġìĺ¬íķ´ìĿĺ":4521,"ĠìĿ¸ìĪĺ":4522,"ìĸĢ":4523,"ëĿ¼ë¥¼":4524,"ĠíĥĦìĥĿ":4525,"ĠëĤ©":4526,"ë¦¼ë":4527,"Ġì£¼ë§Ĳ":4528,"Ġë²Ķì£Ħ":4529,"Ġëª©ìłģìľ¼ë¡ľ":4530,"ë£¨ìĬ¤":4531,"Ġë³¼ë":4532,"ëħĦë":4533,"ĠíĻĭ":4534,"Ġë¶Ģëª¨":4535,"Ġëĥī":4536,"Ġë¹ĦìĬ·íķľ":4537,"ì¦ĪìĿĺ":4538,"ĠìĭľëĮĢìĿĺ":4539,"ëĭ¨ìĿ´":4540,"íĬ¸ê°Ģ":4541,"Ġë§ĮìĹĲ":4542,"ê²½ìĿĦ":4543,"ĠìŀĳìłĦ":4544,"ĠìķĦë¥´ë":4545,"ĠìĦ±ìłģ":4546,"ë¡±":4547,"Ġíĺĳëł¥":4548,"ĠìĤ¶":4549,"Ġê¸°ìĸµ":4550,"ĠëıĻë§¹":4551,"Ġì²ŃìĨĮëħĦ":4552,"Ġëħ¸ë¥´":4553,"ë¹Ħëĵľ":4554,"ìļ°ëĬĶ":4555,"Ĳľëĭ¤":4556,"ĠìłģìĿ´":4557,"ë¬¸íķĻ":4558,"Ġê¹Ģì¢ħ":4559,"ì§ĢìĻĢ":4560,"ep":4561,"Ĥ¸":4562,"Ġë¦":4563,"ìĦ¸ë¥¼":4564,"ĠëĮĢíķĻìĽĲ":4565,"ĲìĿĺ":4566,"²Ħë":4567,"ĠìĦłìĪĺìĿ´ëĭ¤":4568,"Ġë¶Īë¦¬ëĬĶ":4569,"ìľĦìĿĺ":4570,"ë¶ķ":4571,"Ġíļ¨ê³¼":4572,"Ġìŀ¬ìľĦ":4573,"ìĤ°ë¦¬":4574,"ì£¼êµĲ":4575,"ìģ":4576,"ĠìĤ¬ìļ©íķł":4577,"Ġkt":4578,"ĠìľĦíķ´ìĦľ":4579,"ĠìĨĮìŀ¥":4580,"ĠìĿ´ìŀ¬":4581,"Ġê°ĢëĬĶ":4582,"íĻĶìĿĺ":4583,"Ġê²½ê¸°ìĹĲ":4584,"ëıĻìĥĿ":4585,"ĠìĿ´ìĬ¬":4586,"ĠìķĦìĿ´ëıĮ":4587,"ìľĦëĬĶ":4588,"¸ëĵľ":4589,"§¨":4590,"ĮĢíķĻ":4591,"ĠìĬ¤íĬľëĶĶìĺ¤":4592,"Ġëĭ¹ìĽĲ":4593,"ì¹´ëĵľ":4594,"ĠíĥĢì¹´":4595,"Ġê´Ģëł¨ëĲľ":4596,"ì£¼ìĿĺìŀĲ":4597,"ĠìłľìĿ´":4598,"ĠìĬ¤íĥ":4599,"Ġë¯¸ìķ¼":4600,"ĠëĤĺì¹´":4601,"Ġëª¨ìĬ¤íģ¬":4602,"ĠìĿ´ì£¼":4603,"ĠìĻĦìĦ±":4604,"ĠìłĬìĿĢ":4605,"Ġì§ĢìĹŃìĹĲ":4606,"Ġå¼":4607,"ëĭ¨ì²´":4608,"ìĿĮìķħ":4609,"ì¹´ìĿ´ëıĦ":4610,"Ġë¹¨":4611,"Ġì¤ĳíķĻêµĲ":4612,"Ġìĺ¤ìĬ¤íĬ¸ëłĪìĿ¼ë¦¬ìķĦ":4613,"íį¼ëĵľ":4614,"ĠìĨĶë¡ľ":4615,"íĭ°ìķĦ":4616,"Ġëĵ£":4617,"ĠíķľëĤĺëĿ¼ëĭ¹":4618,"ance":4619,"íĥĢë¡ľ":4620,"íķ¨ìĿĦ":4621,"ç§":4622,"Ġcomp":4623,"Ġebs":4624,"äºĭ":4625,"ĠëĮĢíķ´ìĦľ":4626,"ĠíĤ":4627,"ìłķì¹ĺ":4628,"ĠìĹĲê²Į":4629,"ĠìĻĦê³µ":4630,"Ġem":4631,"ĠìĥģëĮĢë¡ľ":4632,"Ġps":4633,"Ġë¬¸ìŀĲ":4634,"ë©¸":4635,"ĠíĺĳíļĮ":4636,"èĩ":4637,"Ġì²´íı¬":4638,"ëĲĺìĹĪìľ¼ëĤĺ":4639,"ĠëĦ¤ìĿ´ë²Ħ":4640,"ĠìĿ¼ìĿ´":4641,"ìĤ°ëıĻ":4642,"ìľĦê°Ģ":4643,"ĠìĭľìĹĲ":4644,"ĠíĹ¤ìĿ´":4645,"Ġë§Īëĵľë¦¬":4646,"Ġëįĺ":4647,"ìĻ¸ë":4648,"Ġê°ķíķľ":4649,"ç«":4650,"ìĤ¬ê±°ë¦¬":4651,"ĠìłĦë¶ģ":4652,"Ġê¸°ê³Ħ":4653,"ĠìĿĢíĸī":4654,"ĠìĹĲëıĦ":4655,"Ġë§Īì°¬ê°Ģì§Ģë¡ľ":4656,"ĠëĮĢì²´":4657,"çļ":4658,"ĠíĬ¹ì§ĳ":4659,"²¤":4660,"Ġê·Ģì¡±":4661,"ìĺ¤íĶĦ":4662,"ĠíŀĪëį°":4663,"ĠíĶĮëłĪ":4664,"ì»´":4665,"Ġë°©ìĨ¡êµŃ":4666,"Ġì²ľìķĪ":4667,"ick":4668,"æĶ":4669,"Ġìļ°ìĬ¹ìĿĦ":4670,"Ġë¨¸ë¦¬":4671,"Ġä¸ī":4672,"ë¯¹":4673,"Ġê°ľìłķ":4674,"ĠìĦłìĪĺë¡ľ":4675,"ìĨĮëĬĶ":4676,"ĠìłĦëŀµ":4677,"íķĺëĭ¤ê°Ģ":4678,"ĠíķĦìļĶíķľ":4679,"Ġíĺ¼ë":4680,"Ġê°ĢëĬ¥íķľ":4681,"ì¦ĪíĤ¤":4682,"Ġì¶ľë°ľ":4683,"Ġìª½":4684,"ĠìĿ´ëłĩê²Į":4685,"Ġì¹¼ë¦¬":4686,"ìĭ±íĦ´":4687,"ĠìłĦëĭ¬":4688,"ĠíĨµì¹ĺ":4689,"ĠìłĦì°¨":4690,"ĠìĤŃ":4691,"Ġìī¬":4692,"Ġê²½ê¸°ë¥¼":4693,"ë§İìĿĢ":4694,"Ġë§Įìķ½":4695,"ĠìķĪëıĻ":4696,"éĻ½":4697,"Ġêµ¬ì¶ķ":4698,"ĠíķŃìĥģ":4699,"Ńī":4700,"ë³ĳìĽĲ":4701,"ê°Ĳëıħ":4702,"ìĬ¤ìĹĲìĦľ":4703,"ĠìķĦìļ°":4704,"ëĭĲ":4705,"Ġost":4706,"Ġëŀĺ":4707,"Ġíħį":4708,"Ġíĺķíĥľë¡ľ":4709,"¡±":4710,"ìĭłìĿĺ":4711,"Ġdvd":4712,"ĠìĹł":4713,"ë¶Ħë":4714,"íĻĶëĲľ":4715,"Ġê°ľíİ¸":4716,"lo":4717,"ìĹĲë¥´":4718,"az":4719,"Ġë°ĽìķĦëĵ¤":4720,"ĠíķĦë¦¬íķĢ":4721,"¶Ļ":4722,"êµ¬ê°Ģ":4723,"ost":4724,"ĠìĹĲëĬĶ":4725,"ĠåŃ":4726,"ĠìĻķì¡°":4727,"Ġì¤ĳìĹĲìĦľ":4728,"Ġdig":4729,"ĠìµľìĨĮ":4730,"íĸĪëĭ¤ëĬĶ":4731,"ãģĦ":4732,"ì¤Ģëĭ¤":4733,"Ġì½Ķì¹ĺ":4734,"pe":4735,"Ġê²ª":4736,"ìĸ´ëıĦ":4737,"ë°°ìļ°":4738,"Ġê²ĥìĿ´ìĹĪëĭ¤":4739,"ëĪĦë¦¬":4740,"Ġë°©ìĸ´":4741,"Ġìĭ¤íĸī":4742,"Ġver":4743,"¾Į":4744,"á»":4745,"ĠíĥĢìĿ´ìĻĦ":4746,"ê³łë¥¼":4747,"Ġë¶Ģë¥¸ëĭ¤":4748,"ĠìĤ¬ëł¹":4749,"Ġíķ¨ìĪĺ":4750,"ì²©":4751,"íķľëĭ¤ê³ł":4752,"ì§Ģë§Ī":4753,"íķĺê¸°ë¡ľ":4754,"éķĩ":4755,"Ġë¸Įëŀľëĵľ":4756,"ink":4757,"Ġë³¸ëŀĺ":4758,"Ġêµ°ì£¼":4759,"éĻ¢":4760,"ì¼ĢìĿ´":4761,"Ġpng":4762,"ìŀĲìĿ´":4763,"Ġë³´ë³ĳ":4764,"Ġê°Ħë":4765,"Ġì¡¸ìĹħìĭĿ":4766,"Ġë§ĲìĿĦ":4767,"Ġê²½ìļ°ìĹĲëĬĶ":4768,"ĠìłĦìļ©":4769,"Ġê²ĥê³¼":4770,"aw":4771,"ìĸĳêµ°":4772,"Ġëª»íķľ":4773,"ĠìĨįíķĺëĬĶ":4774,"ìŀĲìĹĲ":4775,"ë³´ëĵľ":4776,"ĠìĹĦë§Ī":4777,"ĠìĿ´ë¦ĦìĿ´":4778,"ĠìĪĺë§İìĿĢ":4779,"Ġhtt":4780,"Ġê´´":4781,"ĠíĻĶíķĻ":4782,"Ġë²łìĿ´ì§ķ":4783,"Ġdr":4784,"Ġê³µê³µ":4785,"ĠìĿ¸ë¯¼":4786,"êµ¬ëĬĶ":4787,"Ġìłľê¸°":4788,"ìŀ¥ê³¼":4789,"Ġê°ģì¢ħ":4790,"Ġìĺģìĥģ":4791,"ëıĦë¥´":4792,"Ġê·¸ëłĩ":4793,"ìĭľëĬĶ":4794,"Ġëĭ¨ê³Ħ":4795,"ĠìĿ´ìłķ":4796,"ĠëģĿìĹĲ":4797,"cl":4798,"Ġê²ĢìĤ¬":4799,"ĠíĬ¸ëŀĻ":4800,"ç¦":4801,"ëĤĺê°Ģ":4802,"Ġì§Ģìłģ":4803,"Ġëĵ±ê¸ī":4804,"Ġê²½ì£¼":4805,"íģ¬ëĿ¼ìĿ´ëĤĺ":4806,"ì¶ķêµ¬":4807,"ê´ĢìĿ´":4808,"ĠëĨįìĹħ":4809,"ìĹĩ":4810,"ĠíĨłë¡ł":4811,"¸ëª¨":4812,"ĠìłĢìĦľ":4813,"ëĮĢìĹĲ":4814,"ĠëĤĺë¨¸ì§Ģ":4815,"Ġë¡ľë²ĦíĬ¸":4816,"Ġë°Ķê¾¸":4817,"ai":4818,"ë¡ľê·¸":4819,"à¸":4820,"Ġê³łëĵ±":4821,"ĠìĦ¤ìłķ":4822,"íĦ°ë¦¬":4823,"ìĹŃìĿĦ":4824,"ĠíĻ©ê¸Ī":4825,"ĠìĿ´íķĺ":4826,"Ġì¶©ëıĮ":4827,"ëĤĺëĿ¼ìĿĺ":4828,"Ġë²¨ê¸°ìĹĲ":4829,"ĠìĬ¤ì½ĶíĭĢëŀľëĵľ":4830,"ĠíĶĮë¡ľ":4831,"èª":4832,"Ġkbo":4833,"ĠíĺĦë":4834,"ĠìŀĲê²©":4835,"Ġì¼Ħ":4836,"ìŀĳìļ©":4837,"Ġæ°":4838,"Ġìĺ¹":4839,"Ġmf":4840,"ĠìĭłëĿ¼":4841,"ĠëĮĢíĳľìłģìĿ¸":4842,"ëĥ¥":4843,"Ġë¶Īëł":4844,"ict":4845,"ĠìĪĺìłķ":4846,"Ġìĺ¤ìłĦ":4847,"Ġì§ĢëĥĪëĭ¤":4848,"ĠìľłíĤ¤":4849,"Ġê±´êµŃ":4850,"ĠìĿ¸ìĭĿ":4851,"Ġì§ĳëĭ¨":4852,"Ġê¸¸ìĿ´":4853,"ĠìĹ°ìĺĪ":4854,"Ġê³¨ìĿĦ":4855,"ë¥´ìĿĺ":4856,"ĠìķĪìĹĲ":4857,"ìĹ°êµ¬ìĨĮ":4858,"íİł":4859,"ĠìŀĪê¸°":4860,"ĠëĬ¥ëł¥":4861,"ë¯¼ì¡±":4862,"ĠìŀĳìĦ±":4863,"ì¡Įê³ł":4864,"íĥĲ":4865,"Ġê³µíı¬":4866,"ĠìĤ¬íĽĦ":4867,"Ġì²´ë":4868,"ä¸Ģ":4869,"Ġìłķìĥģ":4870,"¹Ī":4871,"ime":4872,"ĠìĪĺìŀħ":4873,"ê°ĢíĥĢ":4874,"Ġíĥľíıīìĸĳ":4875,"ĠìĺĨ":4876,"åĲĽ":4877,"orm":4878,"³´ëĭ¤":4879,"Ġì¤Ģë¹Ħ":4880,"ëĿ¼ìĹĺ":4881,"å½":4882,"Ġê°ĦìĿĺ":4883,"ìĤ¬ê±´":4884,"Ġíģ´ëĿ¼":4885,"ĠìķĦëĭĪëĭ¤":4886,"Ġì¦īìľĦ":4887,"Ġê³ĦìĤ°":4888,"Ġë³´ëıĦ":4889,"ìĸ´ìĬ¤":4890,"Ġë¶ĢìŀĦ":4891,"ĠìĿĺíķĺë©´":4892,"ä¸Ń":4893,"Ġê³ĦìĬ¹":4894,"ë¬¸ë":4895,"Ġìļ°íģ¬ëĿ¼ìĿ´ëĤĺ":4896,"Ġë¯¸ëĵľ":4897,"Ġê·¼ë¬´":4898,"Ġë§Īëĵľë¦¬ëĵľ":4899,"Ġjr":4900,"ì¡°ìĦł":4901,"ìĻķìĿĺ":4902,"ĠëĤĺíĥĢëĤ´":4903,"íĺķìĿĺ":4904,"Ġì£¼ê°Ħ":4905,"Ġì¶ľìĭłìĿĺ":4906,"Ġêµ¬ìĦ±ëĲĺìĸ´":4907,"ĠëĤĺëĪ":4908,"ĠìĿ¸êµ¬ëĬĶ":4909,"xt":4910,"ĠëĸłëĤĺ":4911,"Ġê²ĥëıĦ":4912,"Ġëĭ¤ë£¨":4913,"Ġìĭľê°ģ":4914,"Ġê²ĢìĿĢ":4915,"ĠìĹ°ë§¹":4916,"Ġìĭłê²½":4917,"Ġëħ¹ìĿĮ":4918,"Ġíıīìĸĳ":4919,"Ġíĺ¸íħĶ":4920,"Ġdf":4921,"Ġëļ":4922,"ëĤ¸":4923,"Ġê°Ĵ":4924,"ë¸Įë¦¬":4925,"ìķĦë©Ķë¦¬ì¹´":4926,"ĠìĿ¸ìĤ¬":4927,"ìķĦìĿ´":4928,"act":4929,"Ġë¬ĺìĤ¬":4930,"Ġìĸ¼êµ´":4931,"Ġë¯¸êµŃìĹĲìĦľ":4932,"hn":4933,"íķĺìĺĢëĬĶëį°":4934,"ë©´ìĿĦ":4935,"ìĿĦë":4936,"ìłľêµŃ":4937,"¥íĦ°":4938,"ĠìŀĪì§Ģ":4939,"ĠëĮĢíķ´ìĦľëĬĶ":4940,"ĠëıĻë£Į":4941,"Ġìłľê±°":4942,"è¦":4943,"ĠìĭľëıĦ":4944,"ĠëĤŃ":4945,"ĠìĥģìĹħ":4946,"Ġëª¨ìĬ¤íģ¬ë°Ķ":4947,"Ġìĸ¼ë§Ī":4948,"ĠëĤĺíĥĢëĤĺ":4949,"Ġå·":4950,"ĠìĽĮìĭ±íĦ´":4951,"ĠìĿ¼ìļĶìĿ¼":4952,"Ġë²Īì§¸ë¡ľ":4953,"íķĺëĤĺ":4954,"Ġê¸°ë¡ĿíĸĪëĭ¤":4955,"Ġë¶Ģë¥´":4956,"Ġsingle":4957,"ĠìķĦë©Ķë¦¬ì¹´":4958,"Ġë½":4959,"ĠìĿ´ê³ł":4960,"Ġìłķë¦¬":4961,"ë¬¼ìĿĺ":4962,"ìľ¼ë©´ìĦľ":4963,"Ġë¯¸ìĤ¬ìĿ¼":4964,"ĠìĿĢíķĺ":4965,"ult":4966,"Ġë²Ĺ":4967,"Ġìŀ¥êµ°":4968,"åĿ":4969,"Ġé«ĺ":4970,"ìłĦìĿ´":4971,"Ġë²ĪìĿĺ":4972,"ĠìľłìĿ¼íķľ":4973,"ĠìĽĲìŀĲ":4974,"Ġge":4975,"Ġì°¨ìĽĲ":4976,"ê¸°ìĥģ":4977,"Ġì´Ŀë¦¬":4978,"ĠìĪŃ":4979,"ìĦłê±°êµ¬":4980,"ĠìĿ´ìĬ¤ëĿ¼ìĹĺ":4981,"ëį°ìĿ´":4982,"ĠëĤĺê³ł":4983,"ë¹Ľ":4984,"ĠëĤ³":4985,"dr":4986,"Ġfeat":4987,"Ġê¸°íĽĦ":4988,"Ġë¯¸ëĶĶìĸ´":4989,"ĠìķĪíĥĢ":4990,"Ġìłľìłķ":4991,"Ġss":4992,"ëĲĺê¸°ëıĦ":4993,"Ġì¡°ìĹ°":4994,"ff":4995,"ĠëĴ·":4996,"ĠìĬ¹ìłĲ":4997,"ĠåįĹ":4998,"ìķĪêµ°":4999,"ĠìĿ¸ì¡°":5000,"ms":5001,"ĠìĭľëĤĺ":5002,"ĠíĶĦë¦¬ë¯¸ìĸ´":5003,"Ġä»":5004,"ĠíĥľíĴį":5005,"Ġìµľëĭ¤":5006,"ìĹĲê²ĮëĬĶ":5007,"ĠíĬ¸ëłĪ":5008,"Ġë³´ë¬¼":5009,"ë¯¼êµŃ":5010,"æº":5011,"ìĿ¼ë¡ľ":5012,"Ġgu":5013,"Ġë®":5014,"ame":5015,"ĠìĤ¬íķŃ":5016,"ĠìĿĺê²¬":5017,"Ġëª»íķĺê³ł":5018,"ĠíĻķëĮĢ":5019,"ì£½":5020,"Ġë§Īë¦¬ìķĦ":5021,"ĠìĽĲëħĦ":5022,"å¼":5023,"°©ìĨ¡":5024,"Ġì²´ìľ¡":5025,"Ġíİĺë¥´":5026,"Ġìĭľìŀ¥":5027,"Ġê³łêµ¬":5028,"ĠìĿ´ëĤĺ":5029,"Ġì¹ľìĿ¼":5030,"ĠìķĦëĤĺìļ´":5031,"íį¼ìĬ¤":5032,"ĠíķĻìĤ¬":5033,"Ġíķĺê¸°":5034,"èŃ":5035,"ĠìĹĨìĸ´":5036,"ì¹ĺìĽĲ":5037,"ier":5038,"Ġê²½ìľł":5039,"ata":5040,"Ġall":5041,"ê³±":5042,"ê³¼ìĹĲ":5043,"Ġë°ķë¬¼ê´Ģ":5044,"Ġë¬´ìŀ¥":5045,"ë¥¼ë¦°":5046,"ì»·":5047,"ĠìĦľìĭĿ":5048,"ë²ķìĿĦ":5049,"ĠìĮĵ":5050,"Ġë£¨ìĿ´":5051,"ĠìĤ¬ìļ©ëĲľëĭ¤":5052,"ĠíĶĦëŀĢ":5053,"ĠìĬ¹ì°¨":5054,"ëıĻìĹĲ":5055,"ĠìłĦìĤ¬":5056,"ĠìĪĺíķĻ":5057,"Ŀ¼ëĬĶ":5058,"Ġuniversity":5059,"ĠìķĦìĺ¤":5060,"íķĺìĭľ":5061,"Ġíİł":5062,"Ġë¬¼ë¡ł":5063,"Ġafc":5064,"Ġå¹":5065,"Ġel":5066,"ĠíĮĢìĿĺ":5067,"çĶ°":5068,"Ġë¡¤":5069,"ĠëĮĦ":5070,"å»":5071,"Ġê¹ĢëıĻ":5072,"°±":5073,"å¹³":5074,"ì¹ĺìĿĺ":5075,"ĠëĴ¤ìĹĲ":5076,"Ġë°ĳ":5077,"Ġjt":5078,"Ġëĵ±ìŀ¥ìĿ¸ë¬¼":5079,"pl":5080,"ë§ĪíĬ¸":5081,"Ġê³µê¸ī":5082,"Ġæľ´":5083,"Ġê²Ĳ":5084,"±Ģ":5085,"ë¶Ģë¡ľ":5086,"Ġíĸīë³µ":5087,"ĠìĻĶëĭ¤":5088,"ëªħìĿ´":5089,"Ġê³łìłķ":5090,"Ġëĭ¤ë¥´":5091,"Ġë¬´ê¸°":5092,"Ġæĸ°":5093,"Ġìĺ¤íĨł":5094,"íķľêµŃëĭ¹":5095,"ĠìĪ«":5096,"ĠìĿ´ë²Ī":5097,"ëªĩ":5098,"Ġê²ĮìĬ¤íĬ¸":5099,"ìłĦìŁģ":5100,"ë°Ľìķĺëĭ¤":5101,"ĠìĭľìŀĳíķĺìĺĢëĭ¤":5102,"ĠìĭľìĿ¸":5103,"å®ī":5104,"ìķĪìĿĦ":5105,"ëĮĢíķĻìĽĲ":5106,"ìķĺê³ł":5107,"Ġë¬¸ìĦľ":5108,"ĠíĸīìĤ¬":5109,"ĠìĿ´ìļ©íķĺìĹ¬":5110,"ĠíĸīìĦ±":5111,"Ġcent":5112,"Ġëªĩëªĩ":5113,"ì¢ħíķ©":5114,"Ġì£¼ìĭĿ":5115,"ĠìĬ¤íģ¬":5116,"Ġì½©":5117,"ł¸":5118,"ìĭľìĬ¤":5119,"Ġgre":5120,"ì¡°ìĤ¬":5121,"Ġë³´ë©´":5122,"ĠæĿ±":5123,"Ġms":5124,"ìĬ¤ëŁ¬":5125,"ĠìĿ´ìĦ±":5126,"ĠëıĦìĦľê´Ģ":5127,"ĠëĤ®ìĿĢ":5128,"éĥ¡":5129,"ì¿¨":5130,"ĠìŀĪìĹĪê³ł":5131,"Ġì£¼ëĬĶ":5132,"ë©Ķëĭ¬ë¦¬ìĬ¤íĬ¸":5133,"ĠìłľìĻ¸íķľ":5134,"ĠìĨĮë°©":5135,"Ġë³¸ëªħ":5136,"ë´ĩ":5137,"Ġìĺ¨ëĿ¼ìĿ¸":5138,"Ġê°ķë¦ī":5139,"Ġì±ĶíĶ¼ìĸ¸ìĬ¤":5140,"ĠëĭĪì½ľ":5141,"ìĬĪíĥĢ":5142,"ĠíķŃëª©":5143,"tr":5144,"ĠìĿ¸ê·¼":5145,"ĠìĹħë¬´":5146,"§Īëĭ¤":5147,"íĶĦê°Ģ":5148,"Ġêº":5149,"ĠìĽĶê¹Įì§Ģ":5150,"Ġìĺ®ê²¨":5151,"ìĭľë¥¼":5152,"Ġê°ĢëĤĺ":5153,"ìĽł":5154,"ìŀ¥ê´Ģ":5155,"ìĤ°ìĿĺ":5156,"ë°ķë¬¼ê´Ģ":5157,"Ġå®ī":5158,"ìłĲìĹĲìĦľ":5159,"Ġì§ĢìĹŃìĹĲìĦľ":5160,"Ġë¥´ë":5161,"ĠìĤ¬íĨł":5162,"ĠìĥĪëĪĦë¦¬":5163,"åºľ":5164,"Ġë¡ľëĵľ":5165,"Ġê¸Īìľµ":5166,"ĠëħĦìĿĦ":5167,"ÑĤ":5168,"ìĿ´ê¸°":5169,"Ġìŀ¥ê¸°":5170,"Ġë¬¸ìłľë¥¼":5171,"Ġë¬¸ìłľê°Ģ":5172,"ê°Ģë¡ľ":5173,"ìĿ¸ëĵ¤ìĿ´":5174,"ĠíĮĮìĽĮ":5175,"Ġê³µêµ°":5176,"ĠëĦĪë¬´":5177,"Ðº":5178,"Ġì½ĺìĦľíĬ¸":5179,"ĠíĶĦëĿ¼":5180,"ëĭ¨ìĿĢ":5181,"ics":5182,"Ġë¶īìĿĢ":5183,"Ġab":5184,"Ġê°ľìĹħíķľ":5185,"ê°Ķ":5186,"ĠìķĦëĤĺìļ´ìĦľ":5187,"Ġíķľìłķ":5188,"ĠíŀĪë¡ľìĭľë§Ī":5189,"Ġê·¸ëł¤":5190,"ĠìĿ´ìĬ¬ëŀĮ":5191,"ĠìĤ¬íļĮì£¼ìĿĺ":5192,"ĠíĦ°ë¯¸ëĦĲ":5193,"ese":5194,"Ġê°Ģê¹Įìļ´":5195,"ĠìķĦëŀį":5196,"ìĽĲêµ°":5197,"å³":5198,"Ġì£¼ë¯¼":5199,"Ġì±ĶíĶ¼ìĸ¸ìĭŃ":5200,"çī":5201,"Ġer":5202,"Ġì§ĪëŁī":5203,"Ġdigital":5204,"Ġser":5205,"Ġë²ķìłķ":5206,"ìĿ´ìĤ¬":5207,"Ġëī":5208,"ìĭľíĤ¤ê³ł":5209,"ĠìĤ¬ìŀ¥":5210,"Ġê´´ë":5211,"Ġë°°ê¸ī":5212,"ê´Ħ":5213,"Ġìĸ´ëĸ»":5214,"æĿ±":5215,"Ġê³³ìĹĲ":5216,"ĠìĿĦ":5217,"Ġåº":5218,"ê´´ë":5219,"ì¶Ķìĸ´":5220,"Ġê´Ģê³Ħë¥¼":5221,"Ġho":5222,"Ġëħ¸ë²¨":5223,"ign":5224,"ĠìĤ¬ëŀĮëĵ¤":5225,"ĠìĹĲìĸ´":5226,"Ġå¯":5227,"son":5228,"Ġê¸°ìŀ¬":5229,"ĠìĿ¸ëıĦë":5230,"ê¶ĮìĿĺ":5231,"ĠìĬ¤íİĺìĿ¸ìĿĺ":5232,"Ġì±ħìŀĦ":5233,"ĠìłĢìŀ¥":5234,"Ġmon":5235,"ĠéĦ":5236,"ĠíĹĪìļ©":5237,"ĠìĦ±ì§Ī":5238,"ĠìĿ¼ìĸ´ëĤľ":5239,"ì§ĢìĤ¬":5240,"Ġë³Ħë":5241,"ìķ¤ìł¤":5242,"ìķĦë¦¬":5243,"ëĭĽ":5244,"ëĭĪë²ĦìĬ¤":5245,"Ġë¸Įë¦¬":5246,"Ġì£¼ëª©":5247,"ê¸°ëħĲ":5248,"ë¡Ńê²Į":5249,"Ġë§Īíģ¬":5250,"Ġê°ĲëıħìĿĺ":5251,"Ġcf":5252,"ĠìŀĲìĿ´ìĸ¸":5253,"ĠìĤ¬ìĭ¤ìĿĦ":5254,"Ġì·¨ê¸ī":5255,"ome":5256,"old":5257,"Ġíķ©ë¥ĺ":5258,"ë¬¼ë¡ľ":5259,"ĠìĪĺê°Ģ":5260,"ĠìĦłê³ł":5261,"íĶĮëłĪìĿ´":5262,"ĠìĿ´ëŀĺ":5263,"ĠëĦĺìĸ´":5264,"Ġë¶ĦìŁģ":5265,"ìłĲìľ¼ë¡ľ":5266,"ĠìĦ¤ê³Ħ":5267,"ĠìļĶì½Ķíķĺë§Ī":5268,"Ġì¡°ìĦłë¯¼ì£¼ì£¼ìĿĺìĿ¸ë¯¼ê³µíĻĶêµŃ":5269,"ëĤ¬":5270,"Ġåľ":5271,"åĬ":5272,"Ġinst":5273,"land":5274,"ĠíļĮìłĦ":5275,"ëŀĺíĶĦíĬ¸":5276,"Ġup":5277,"Ġê·¼ëĮĢ":5278,"êµĲìĿĺ":5279,"Ġkore":5280,"se":5281,"Ġë§ĮëĵľëĬĶ":5282,"Ġì¡°ìĦłìĭľëĮĢ":5283,"Ġíĥĳìŀ¬":5284,"Ġë¡ľìĬ¤ìķ¤ìł¤":5285,"ìĥģê³¼":5286,"ĠìĤ¬ìĿ´ìĹĲìĦľ":5287,"íĸīìłķ":5288,"ìĭĿìĿĢ":5289,"ëŁ¬ë¦¬":5290,"Ġë²Īíĺ¸":5291,"ĠëįĶë¶Īìĸ´":5292,"Łĵ":5293,"Ġê°ķëĤ¨":5294,"ĠìĬ¬ë¡ľ":5295,"ĠìķĪìĸĳ":5296,"ĠìĤ¬ëĬĶ":5297,"Ġê³łì¢ħ":5298,"Ġëª©ìłģ":5299,"Ġìłķë¶ĢëĬĶ":5300,"ĠìĹĲëĦĪì§Ģ":5301,"ŀŃ":5302,"ë¡ľë¥¼":5303,"ìĦ¸íı¬":5304,"ĠìĥĪëĪĦë¦¬ëĭ¹":5305,"ëĭĪìķĦìĿĺ":5306,"ĠìľłìĹĶ":5307,"ëĿ¼ë©´":5308,"ĠëĳĺëŁ¬":5309,"Ġë§Īëł¨":5310,"ĠíıŃë°ľ":5311,"ìĸ´ëĵ¤":5312,"sh":5313,"ĠíĽĦì¿łìĺ¤ì¹´":5314,"íĻĶëĭ¹":5315,"ê¸°ê³ł":5316,"ìŀĲìĿ´ëĭ¤":5317,"Ġìĺ¬ë¦¬":5318,"ìĺĢê³ł":5319,"ìŀĲëĵ¤":5320,"ë©´ë":5321,"Ġì§ĳì¤ĳ":5322,"Ġëĭ¨íİ¸":5323,"ĠëĨįêµ¬":5324,"íķĻë¶Ģ":5325,"Ġì¶ľì²ĺ":5326,"Ġì§ģíĽĦ":5327,"ĠìĿ¸ìĥĿ":5328,"Ġëª½ê³¨":5329,"Ġê°ľìĦł":5330,"ta":5331,"Ġë¬´ìĹŃ":5332,"ë¦¬ëĤĺ":5333,"íķ´ì¡Įëĭ¤":5334,"ase":5335,"Ġìłķë¶ĢìĿĺ":5336,"ĠëĮĢìŀ¥":5337,"Ġê³½":5338,"Ġê°ĲìĨĮ":5339,"Ġìłķì¹ĺìłģ":5340,"Ġå»":5341,"Ġê¹Įì§Ģ":5342,"Ġìĸ´ëĸ»ê²Į":5343,"Ġä¸Ń":5344,"ĠìķłíĶĮ":5345,"Ġëĭ¤ìĦ¯":5346,"ĠíĺĦìĭ¤":5347,"Ġë¯¼ê°Ħ":5348,"Ġì²´ì½Ķ":5349,"ĠíĿ¬ë§Ŀ":5350,"ì¹´ë¥´":5351,"ĠëĤĺì¤ĳìĹĲ":5352,"ĠíĮĲëĭ¨":5353,"łī":5354,"ĠìłĢíķŃ":5355,"anc":5356,"ĠëĿ¼ìĿ¸":5357,"ĠìĥĿëªħ":5358,"ëŁŃ":5359,"ĠìłĦê°ľ":5360,"Ġë§Įëĵ¤ìĸ´ì§Ħ":5361,"ê³µìĿĺ":5362,"Ġê´Ģì°°":5363,"ìĦłìĿĢ":5364,"Ġìŀ¬ì§ģ":5365,"ä¹¡":5366,"ĠìĪĺëĬĶ":5367,"Ġì£¼ìĸ´":5368,"ħ¸ë":5369,"Ġì¹¼":5370,"ĠìľĦìĽĲíļĮ":5371,"ĠìĿĺë¯¸íķľëĭ¤":5372,"ì¦Īë¯¸":5373,"Ġë¶ĪëŁ¬":5374,"Ġìı":5375,"ç¶":5376,"ĠëıĦìļĶ":5377,"Ġê±´ëĦĪ":5378,"Ġë¶Īë¦°ëĭ¤":5379,"Ġíĺķìłľ":5380,"ĠìłĦëł¥":5381,"ĠìĦ¸ë¥´ë":5382,"æ¨":5383,"Ġíľ´ë":5384,"Ã¡":5385,"ĴĮ":5386,"ìłĦíŀĪ":5387,"Ġì§ĢìĹŃìĿĦ":5388,"Ġëħ¸ë¶Ģ":5389,"íĭ¸":5390,"ium":5391,"æł¡":5392,"Ġê¹Ģíĥľ":5393,"ìķĦë²Ħì§Ģ":5394,"Ġíķ´ë°©":5395,"ì¼Ī":5396,"ĠìĤ¬ëŀĮìĿĢ":5397,"êµĲëıĦ":5398,"Ġìĭľì¹´":5399,"Ġê°ķì¡°":5400,"ê°Ģìĭľ":5401,"Ġmb":5402,"Ġdes":5403,"Ġë²łë¥¼ë¦°":5404,"ìĨĮíĶĦíĬ¸":5405,"íĻĶìĹĲ":5406,"ìĹŃìľ¼ë¡ľ":5407,"Ġê³łêµ¬ëł¤":5408,"ĠíĶ¼ìķĦëħ¸":5409,"Ġê´Ģë£Į":5410,"ĠíĻĶìĦ±":5411,"ĠìĿĺë£Į":5412,"Ġê¸°ì¡´ìĿĺ":5413,"Ġì°¨ìĿ´":5414,"ĠìłĲìĿĦ":5415,"ì§Ģê¸°":5416,"ê³¼ìłķ":5417,"Ġë£":5418,"Ġart":5419,"Ġë¶ĢëĮĢ":5420,"åĽ":5421,"ìĨĮìĹĲ":5422,"ĠìĪĺë¦½":5423,"Ġq":5424,"ĠíĤ¬":5425,"ĠíĶĮëŀ«":5426,"Ġëį°ìĿ´ë¹Ħëĵľ":5427,"Ġíķĺê²Į":5428,"Ġë°°ìļ°ìĿ´ëĭ¤":5429,"íķĺìĹĲ":5430,"Ġê¸°ëĬ¥ìĿĦ":5431,"Ġmed":5432,"ìĿĺìĿĺ":5433,"ton":5434,"ì¡°íķ©":5435,"Ġê²½ìĦ±":5436,"ĠíĹ¨ë¦¬":5437,"ìĬ´":5438,"Ġë°ľë§¤ìĿ¼":5439,"ê°ľìĿĺ":5440,"ĠëłĪì½Ķëĵľ":5441,"ĠíĥĢìĿ´ê±°":5442,"Ġì£¼ì°¨":5443,"ë¥´ë°Ķ":5444,"ìĭłë¬¸":5445,"Ġë¶ĢíĻľ":5446,"ĠìĽĲìłķ":5447,"Ġchr":5448,"Ġsw":5449,"Ġìķ¡ìħĺ":5450,"íĥĢë§Ī":5451,"ĠíĬ¹ë³Ħì¶ľìĹ°":5452,"Ġì¶ľìŀħ":5453,"Ġì¤Ħê±°ë¦¬":5454,"Ġë§Įëĵ¤ìĹĪëĭ¤":5455,"èĢ":5456,"ìĤ¬ìłĦ":5457,"ĠëĤĺê³łìķ¼":5458,"Ġìĩł":5459,"æ³ķ":5460,"ĠìĿ¼ìłķ":5461,"´Ķ":5462,"ĠëĤłì§ľ":5463,"Ġë¹ĦíĬ¸":5464,"Ġë°ĸìĹĲ":5465,"íĨ±":5466,"ĠíĬĢ":5467,"åİŁ":5468,"ëªħìĿĢ":5469,"Ġëģ¼":5470,"Ġìļķ":5471,"Ġìłģê·¹":5472,"ve":5473,"Ġlive":5474,"uk":5475,"ĠéĻ":5476,"ìĭłìĿ´":5477,"ãĤ¤":5478,"ĠìĿ´ì¤ĳ":5479,"æ±":5480,"Ġì§ĢìĭĿ":5481,"į°ìĬ¤":5482,"Ġmin":5483,"Ġìŀ¬ìłķ":5484,"íĭ°ë¸Į":5485,"Ġë°ĺë©´":5486,"Ġke":5487,"ĠíĻĶë¬¼":5488,"Ġíķĺëĵľ":5489,"ìĹĪìľ¼ëĤĺ":5490,"Ġdi":5491,"ĠëĮĢíĺķ":5492,"Ġê·¸ëŀĺìĦľ":5493,"Ġë³¸ë¶Ģ":5494,"æ·":5495,"Ġê¹Ĭ":5496,"ĠëĲĺìĹĪìľ¼ë©°":5497,"Ġì¦Ŀê±°":5498,"Ġê°ľìĭł":5499,"ĠìļĶíķľ":5500,"ĠéĿ":5501,"ĠíķĺìŀĲ":5502,"ĠìŀĲìĭłìĿĦ":5503,"ìŀĲëĵ¤ìĿĺ":5504,"ĠëĿ¼íĭ´":5505,"Ġë§ĲëłĪìĿ´":5506,"Ġê¹Ģíķ´":5507,"ìłģìľ¼ë¡ľëĬĶ":5508,"íħį":5509,"ĠìĿ¼ë³¸êµŃ":5510,"åĸ":5511,"ĠìºĲëĤĺëĭ¤ìĿĺ":5512,"Ġê³łíĸ¥":5513,"ĠìĬ¤ë¯¸":5514,"ĠíŀĺìĿĦ":5515,"èģ":5516,"ĠìĭłìĦ±":5517,"ĠíĶĮëłĪìĿ´ìĺ¤íĶĦ":5518,"ìłģìĿ´ê³ł":5519,"Ġëĸ¨ìĸ´ì§Ħ":5520,"ĠíļĮì°¨":5521,"ê´Ģìľ¼ë¡ľ":5522,"ĠìĤ´íķ´":5523,"ëĭ¹ìĿĢ":5524,"ë¶Ļ":5525,"ìĭľê°Ģ":5526,"Ġë¬´ëłµ":5527,"íģ¬ëŀĺíĶĦíĬ¸":5528,"Ġoff":5529,"ina":5530,"ĠìľłëĭĪë²Ħ":5531,"ĠëĭĮ":5532,"ë¶ĢìĿ¸":5533,"è»į":5534,"Ġë¶Ģê·¼":5535,"amp":5536,"ĠìĿ¸ê°ĦìĿĺ":5537,"Ġstr":5538,"Ġæĸĩ":5539,"å¾·":5540,"ĠìĿ¼ë°ĺìłģìĿ¸":5541,"éł":5542,"ĠëŁ¬ë¸Į":5543,"ĠìĤ¬ìļ©íķĺìĹ¬":5544,"Ġë¶Ħê¸°":5545,"ëħģ":5546,"ĠìŀĪìĹĪì§Ģë§Į":5547,"íĮĮìĿĺ":5548,"uth":5549,"ìĽĢìĿĦ":5550,"Ġak":5551,"Ġì£¼ìĹĪëĭ¤":5552,"ê¶ĮìĿ´":5553,"æŃ£":5554,"ere":5555,"Ġìĭ¬ë¦¬":5556,"Ġìĭľìĥģ":5557,"ĠìľłëıĦ":5558,"ĠìĤ¬ìļ´ëĵľ":5559,"ìĹ°ë§¹":5560,"Ġì°¸ìłĦ":5561,"ĠíĨµíķĺìĹ¬":5562,"Ġjtbc":5563,"Ġê°ĢìĻĢ":5564,"ê¹¨":5565,"Ġì¸¡ìłķ":5566,"êµ°ê³¼":5567,"Ġê³µë¦½":5568,"ë¥ľ":5569,"Ġmusic":5570,"ĠíĨłìļĶìĿ¼":5571,"ìĦľë¡ľ":5572,"ìĺĢìľ¼ë©°":5573,"ĠíĨµíķľ":5574,"Ġë¶Ģìŀĳ":5575,"ŀĹ":5576,"ĠìĤ¬ëŀĮìĿĺ":5577,"ĠíĻķìłķ":5578,"ê²ĮìŀĦ":5579,"Ġê³µìĤ¬":5580,"ĠìĦŃ":5581,"ĠíĪ¬ëĭĪë²ĦìĬ¤":5582,"ëıĦìĦľê´Ģ":5583,"Ġë§¤ìĿ¼":5584,"Ġid":5585,"ĠìĹĳìĬ¤":5586,"Ġê³¨ëĵľ":5587,"ìļ°ì²´êµŃ":5588,"ë¹ł":5589,"Ġsup":5590,"ĠíĬ¸ë¡ľ":5591,"ĠìĦľë¹Ħ":5592,"urn":5593,"Ġìŀ¥ì¹ĺ":5594,"ë¶ĦìĿĦ":5595,"å¤©":5596,"ìŀĲëıĻì°¨":5597,"Ġì§Ģê¸ĪìĿĺ":5598,"êµ¬ë¡ľ":5599,"ãĥ¼ãĥ":5600,"Ġê²½íĸ¥":5601,"Ŀ¼ê³ł":5602,"Ġìī½ê²Į":5603,"Ġë¡ľë§¨":5604,"Ġì´Īë°ĺ":5605,"ĠìĿ´ë¯¼":5606,"Ġë°°ìĹŃ":5607,"ĠíĨµê³Ħ":5608,"¤¼":5609,"ĠìĿ¸íĦ°ë·°":5610,"ĠíĥĿ":5611,"Ġì²¨":5612,"ĠìłľìŀĳëĲľ":5613,"íĥĢìĿ´":5614,"ĠíĹĿê°Ģë¦¬":5615,"Ġìłķì°©":5616,"Ġì¤ĳê³Ħ":5617,"ĠìĥģíķĺìĿ´":5618,"ìĨĮë¡ľ":5619,"íķĻìĽĲ":5620,"ĠìĿ´ìĺģ":5621,"ëĭ¹íķľ":5622,"Ġë¶Īê°ĢëĬ¥":5623,"ĠëŀŃ":5624,"Ġì¡¸ìĹħìĥĿ":5625,"Ġíĥģ":5626,"ê·¹ìŀ¥":5627,"ĠìĻĢìĿ´":5628,"¾°":5629,"ĠëĵĿíĳľìľ¨":5630,"ë¿Ĳ":5631,"Ġsl":5632,"ĠìĽĲì¹Ļ":5633,"Ġìĭľëĵľ":5634,"ĠìķĦíĭ°":5635,"Ġê¸°ë¡ĿìĿĦ":5636,"ĠìĪĺìĤ¬":5637,"íĪ¬ìĬ¤":5638,"ìľĦìĽĲìŀ¥":5639,"ìĬ¤íĬ¸ë¡ľ":5640,"Ġê³µê²©ìĿĦ":5641,"²Ķ":5642,"ë§ĮìĿĺ":5643,"Ġsn":5644,"ê°Ĵ":5645,"Ġì¤ĳêµ¬":5646,"Ġday":5647,"idae":5648,"ê´ĳìĹŃìĭľìĿĺ":5649,"ĠíĶĮëŀĺ":5650,"°Ľ":5651,"ìĹ´ë":5652,"ĠìĤ¬íļĮìłģ":5653,"ĠëĤĺìĺ¤ëĬĶ":5654,"ä¸»":5655,"Ġìŀĺëª»":5656,"ĠìĿ´ìłľ":5657,"Ġëĳ¥":5658,"æĥ":5659,"ĠìłĢëħģ":5660,"Ġos":5661,"ĠìĦĿìĤ¬":5662,"ìĿ¸ëĵ¤ìĿĢ":5663,"ĠìĿ¸ì²ľê´ĳìĹŃìĭľ":5664,"ìĹ¼ë":5665,"Ġìļ°ìĦł":5666,"ê³¼ëĮĢíķĻ":5667,"Ġjohn":5668,"Ġìłķë³´ë¥¼":5669,"ĠêµĲì²´":5670,"ĠëģĬ":5671,"Ġë³´ì¡°":5672,"ĠìŀĦëĮĢ":5673,"©Ķë¦¬ì¹¸":5674,"Ġright":5675,"ĠìĬ¤íĶ¼ë":5676,"ĠìĦľêµ¬":5677,"ë§ĪìĿ´":5678,"Ġì´Į":5679,"Ġone":5680,"ê°Ģê°Ģ":5681,"Ġìľłíĺķë¬¸íĻĶìŀ¬":5682,"ĠìĿ´ì¢ħ":5683,"íĥĦë":5684,"ĠìĿ´íĽĦìĹĲ":5685,"Ġê°ķëł¥íķľ":5686,"ìľłëŁ½":5687,"Ġiii":5688,"ĠìĿ´ì§ĳíĬ¸":5689,"Ġëĭ¨ëıħ":5690,"ĠåĪ":5691,"Ġë¹¼":5692,"ë¦¬ì¼Ģ":5693,"Ġëª©ìĨĮë¦¬":5694,"Ġì²Ńì£¼":5695,"Ġhd":5696,"Ġëħ¼ë¬¸":5697,"Ġìļ©ìĿ¸":5698,"ĸìĹĲ":5699,"ĠíħĮë§Ī":5700,"ma":5701,"ĠìłĦíĪ¬ìĹĲìĦľ":5702,"ëĶĶìĽĢ":5703,"ĠìĿ¸ëıĦëĦ¤":5704,"ĠìľłìłĦ":5705,"Ġìĺ¬ëŀĲëĭ¤":5706,"ëªħíķľ":5707,"ëį¤":5708,"ĠìĤ¬ìļ©íķľ":5709,"ìĬ¤íĮħ":5710,"ëĭĪëĬĶ":5711,"Ġper":5712,"Ġë³ĳìĽĲ":5713,"Ġë¦¬ëįĶ":5714,"ëħ¸ë¯¸":5715,"ĠíĶ¼íĦ°":5716,"Ġë¿Ĳë§Į":5717,"Ġê³µìľł":5718,"éİ":5719,"ìķĹ":5720,"ĠëĤĺìĿĺ":5721,"Ġê³µì£¼":5722,"íĸīìĿĦ":5723,"Ġì°½ë¦½":5724,"ĠëłĮ":5725,"ëĲĲ":5726,"ĠìĨĮìĪĺ":5727,"Ġëĵ±ìŀ¥íķĺëĬĶ":5728,"Ġëĭµ":5729,"Ġë³Ģíĺ¸ìĤ¬":5730,"Ġì´¬ìĺģíķľ":5731,"Ġç¾":5732,"Ġì¶©ë¶Ħ":5733,"ëĶĺ":5734,"Ġë¿Į":5735,"ĠëĬĲëĤ":5736,"ition":5737,"ì§Ĳ":5738,"Ã£":5739,"ç¾©":5740,"Ġìĭľì¹´ê³ł":5741,"íħĮëĦ¤":5742,"ĠìĿ´ì¹ĺ":5743,"Ġíķ´ìĦ¤":5744,"íĬ¹ë³ĦìŀĲì¹ĺ":5745,"ä¼":5746,"Ġìį¼":5747,"Ġê·ł":5748,"Ġflag":5749,"ëĤ¨ëıĦìĿĺ":5750,"Ġind":5751,"ê³Ħê°Ģ":5752,"ank":5753,"¬¼ë¡ľ":5754,"Ħ¡":5755,"Ġíı¬ì¼ĵ":5756,"ĠìĤ¬ìļ©ëĲĺëĬĶ":5757,"Ġë²łë¥´ë":5758,"ł¨":5759,"Ġdo":5760,"ëŁīìĿĦ":5761,"Ġëĭ¹ìĭľìĿĺ":5762,"íķĦëĵľ":5763,"ìĦ±ìľ¼ë¡ľ":5764,"Ġë³´ì¡´":5765,"ĠíĶĦë¦°":5766,"ĠìĤ½":5767,"Ġè¥¿":5768,"ĠìĤ´ìĿ¸":5769,"Ġìłķì°¨":5770,"¶Ĳ":5771,"Ġì¡°ê¸Ī":5772,"ĠìĬ¤íĨł":5773,"ë®":5774,"ĠìľĦì¹ĺíķĺê³ł":5775,"ìĹĲë§Į":5776,"Ġìĸ´ìĽĮëĵľ":5777,"ìľĦëĮĢ":5778,"ê¾¼":5779,"ê²½ìĿĺ":5780,"Ġíķ´ìĸĳ":5781,"isc":5782,"Ġhist":5783,"ëĤĺì¹´":5784,"Ġê³Ħê¸ī":5785,"ë¦¬ìķĦìĿĺ":5786,"Ġéģ":5787,"ì¹¼":5788,"ĠìĿ¸ê°Ģ":5789,"Ġpd":5790,"çĲ":5791,"ĠíĶĮëĿ¼":5792,"Ġíİĺë¥´ë":5793,"Ġìĺ¤íİĺ":5794,"æĺİ":5795,"Ġê¹ĢíĺĦ":5796,"ìĻľ":5797,"ĠìľĦíĺĳ":5798,"ĲĺëĬĶ":5799,"ì¼Ħ":5800,"net":5801,"ìĹĪëĬĶëį°":5802,"Ġê¸Ģë¡ľë²Į":5803,"į¸":5804,"åħĥ":5805,"Ġì²ŃëħĦ":5806,"to":5807,"Ġê°Ģë¡ľ":5808,"Ġwar":5809,"ĠìĦ±ìĿ¸":5810,"pr":5811,"ĠìĹ¬ìłĦíŀĪ":5812,"Ġìŀłìĭľ":5813,"Ġic":5814,"Ġpe":5815,"Ġë§Įì¡±":5816,"ìħ°":5817,"ëĵ¤ë¡ľ":5818,"Ġnhk":5819,"ĠíĥĢê³ł":5820,"ëł¸":5821,"ë¦¬ë¡ľ":5822,"ĠëķĮìĹĲëĬĶ":5823,"hy":5824,"å¤«":5825,"çľ":5826,"ĠëĤĺíı":5827,"æľ¬":5828,"ì¡°ë¥¼":5829,"ê´Ģê´ĳ":5830,"Ġë¶Ħíķł":5831,"ëĭĪìĿĺ":5832,"Ġìļ´ìļ©":5833,"Ġì±ĦíĥĿ":5834,"ê°ĢìĿ´ëĭ¤":5835,"Ġëĭ¤íģĲ":5836,"íĤ¤ìķĦ":5837,"ìĿ´ëįĺ":5838,"ëı¼":5839,"ì°Į":5840,"ĠëĮĢêµ¬ê´ĳìĹŃìĭľ":5841,"ĠìķĦìĬ¤":5842,"Ġíķĺë©´ìĦľ":5843,"ëıĦìĻĢ":5844,"Ġê¹Ģë¯¼":5845,"ë¦¬íĬ¸":5846,"ë¦¬ê¸°":5847,"ĠìĿ´ë£¨ìĸ´ìł¸":5848,"ìĤ¬ë¬´ìĨĮ":5849,"éĥ¨":5850,"ë¡ľê°Ģ":5851,"Ġìĥģíĸī":5852,"ìĭ¤ìĿĦ":5853,"ì²´ìĬ¤íĦ°":5854,"Ġìŀ¥ì°©":5855,"ëĦ¤ìĬ¤":5856,"Ġì§ģìĹħ":5857,"ëĶĶìħĺ":5858,"ìĭľìĻĢ":5859,"Ġìĺ¤ìĺ¤":5860,"Ġë§Īì¸ł":5861,"Ġê²½ìļ°ëıĦ":5862,"Ġì¤ĳíĻĶìĿ¸ë¯¼ê³µíĻĶêµŃ":5863,"ä¾":5864,"æĢ":5865,"ĠíļĮë³µ":5866,"Ġfre":5867,"ëĮ":5868,"Ġì¦Ŀëªħ":5869,"ash":5870,"ĠìĿ´íĽĦë¡ľ":5871,"íĤ¤ìĬ¤íĥĦ":5872,"Ġì£¼ë¯¼ë":5873,"ì¡Įìľ¼ë©°":5874,"Ġê·ĢêµŃ":5875,"own":5876,"Ĩĵ":5877,"Ġíģ´ëŀĺìĭĿ":5878,"Ġì£¼êµĲ":5879,"ĠìŀĲë³¸":5880,"æĪĲ":5881,"ĠìĤ¬ë¦½":5882,"ê´ĢìĿĺ":5883,"Ġëĵ±ìĿĢ":5884,"Ġìķ¼ìĬ¤":5885,"ëĮĢë¬¸":5886,"ë¨¼íĬ¸":5887,"Ġëªħìľ¼ë¡ľ":5888,"Ġë£¨ìĿ´ìĬ¤":5889,"ìĤ¬ëĭ¨":5890,"ork":5891,"Ġíķ©ê²©":5892,"íĶĦëĬĶ":5893,"íģ¬ìĬ¤":5894,"ëĬĦ":5895,"ale":5896,"Ġì¡±":5897,"Ġcan":5898,"ĠëĮĢìĦ±":5899,"ìķĦíĮĮíĬ¸":5900,"ĠìĿ´ê¸°":5901,"¥¬":5902,"Ġìľµ":5903,"ìĹ°ëĮĢ":5904,"ëĲĺìĹĪëįĺ":5905,"Ġì°½ìĦ¤":5906,"ĠìĪĺìĹ¬":5907,"ĠíĥĢìĽĮ":5908,"Ġê¹ĢëĮĢ":5909,"ĠíĽĦê¸°":5910,"åĥ":5911,"ì²´ìĹĲ":5912,"ĠìĿ¼ë³¸ìĸ´":5913,"ĠìłĦìĹŃ":5914,"ĠìĬ¤ìľĦìĬ¤":5915,"Ġfo":5916,"Ġì¡°íķ©":5917,"Ġë°ĽëĬĶ":5918,"Ġêµ¬ì¡°ë¥¼":5919,"Ġíļ¡":5920,"ĠìĹ°ìĦ":5921,"ĠìĿ¸íķĺìĹ¬":5922,"ĠíĮĲíĥĢ":5923,"ĠìĥĿíĻľìĿĦ":5924,"ĠìĿĺíķ´ìĦľ":5925,"ĠìľĦì¹ĺíķ´":5926,"unt":5927,"Ġë¬»":5928,"ĠëıĻìŀĳ":5929,"Ġsu":5930,"ĠíĶĮëŀ«íı¼":5931,"íİĻ":5932,"ba":5933,"Ł´":5934,"ê³¡ë¦¬":5935,"ĠëĽ°ìĸ´ëĤľ":5936,"fm":5937,"ĠìĦ¸ë¶Ģ":5938,"ĠíĮĲê²°":5939,"Ġë½ĳ":5940,"ë²Īì§¸":5941,"Ġë§¤ëħĦ":5942,"ë°±ì§Ī":5943,"Ġê°ĢìĿĦ":5944,"íķĺëł¤ëĬĶ":5945,"ëĳĲê³ł":5946,"ĠëĮĢê¸°":5947,"Ġìķ½ìĨį":5948,"Ġë§Ľ":5949,"Ġì°¸ìĦĿ":5950,"ìĸ¸ë":5951,"Ġì§ĵ":5952,"ê³Ħíļį":5953,"ĠìĿ¸ëıĦëĦ¤ìĭľìķĦ":5954,"Ġì¢ħë¡ľ":5955,"ĠëłĪìĺ¤":5956,"ĠëĮĢíļĮìĹĲìĦľ":5957,"è«":5958,"ê°ĻìĿĢ":5959,"ĠìĹ¬ê°Ŀì²łëıĦ":5960,"ë©Ķëĭ¬ìĿĦ":5961,"Ġë³´ìĿ´ëĬĶ":5962,"ĠìĿ´ìĪĺ":5963,"Ġë¬´ìĹĩ":5964,"ëĳĶ":5965,"ĠìķĦë¦Ħëĭ¤ìļ´":5966,"íĶĦìĿĺ":5967,"ì§ĦìĿĦ":5968,"ĠëıĦìĽĢìĿĦ":5969,"ì¡±ìĿĺ":5970,"ê¹Įì§ĢìĿĺ":5971,"ëĲĺìŀĲ":5972,"ĠìķĦëĿ¼":5973,"ë¨¸ìĬ¤":5974,"íĨµíķ©":5975,"ë¹Ħê°Ģ":5976,"Ġstar":5977,"į¤":5978,"Ġë¯¸ìĬ¤íĦ°":5979,"Ġê³łìłĦ":5980,"íĮ©":5981,"ë²Ħê·¸":5982,"Ġë¸Įë£¨":5983,"Ġë°±ìŀĳ":5984,"ĠëıĻìĿ¼ë³¸":5985,"Ġì§ĳíĸī":5986,"ĠëĤĺì¹´ë":5987,"Ġì§ķìĹŃ":5988,"ĠìĿ´ì§Ģ":5989,"Ġfw":5990,"Ġì¤ĳìĿĺ":5991,"ĠëıĦì¿ł":5992,"íķĺëĭ¤ê³ł":5993,"ìĹĪì§Ģë§Į":5994,"ĠìĤ¬ë¡Ģ":5995,"Ġíķ´ë¦¬":5996,"ĠìķĬìĿĦ":5997,"ĠìŀĦì§Ħ":5998,"Ġëĭ¤ì¼Ģ":5999,"ĠìĨįìĹĲ":6000,"ĠëĮĢë¦½":6001,"ëŁīìĿ´":6002,"ëıĻìĿĦ":6003,"ĠéĽ":6004,"ëĬ¬":6005,"Ġì§Ħìŀħ":6006,"ĠéĦŃ":6007,"ĠìŀĲë¦¬ë¥¼":6008,"ĠíĬ¸ëŀľ":6009,"Ġíĥľìĸ´ëĤľ":6010,"br":6011,"Ġë¹Ħìļ©":6012,"ìŀĲìĹĲê²Į":6013,"Ġê·¸ê³³":6014,"ĠìĸĳìĦ±":6015,"ìĿ¼ìĿĺ":6016,"Ġec":6017,"ĠíģĲ":6018,"ĠìĬ¹ë¦¬ë¥¼":6019,"Ġì¶©ëĤ¨":6020,"ìĹĲìĿ´":6021,"ĠëħĦëĮĢìĹĲ":6022,"ì§Īëŀľëĵľ":6023,"ubl":6024,"Ġìĭľê¸°ìĹĲ":6025,"Ġë°©ìĭĿìľ¼ë¡ľ":6026,"Ġê·¹ìŀ¥íĮĲ":6027,"Ð¾Ð":6028,"ìĹŃìĿ´ëĭ¤":6029,"ĠìĪĺë¡Ŀê³¡":6030,"ĳĶ":6031,"orn":6032,"ĠìĨįìĹĲìĦľ":6033,"ĠìĬ¤íĥł":6034,"ĠìłĪëĮĢ":6035,"ëĭ¹ìĿĦ":6036,"ĠìŀĲìĿ´ìĸ¸ì¸ł":6037,"Ġë¡ľìĬ¤ìķ¤ìł¤ëłĪìĬ¤":6038,"ë¦¬ëĭ¤":6039,"íĹ¬":6040,"Ġìŀ¥ë©´":6041,"Ġëĵ±ìĹĲìĦľ":6042,"me":6043,"Ġìĺ¤íĶĦ":6044,"ĠìĿ¸ìĽĲ":6045,"ì°¨ë¥¼":6046,"Ġê°Ģê²©":6047,"êµĲìĪĺ":6048,"ĠìłĦíĺĢ":6049,"Ġë³´ìķĪ":6050,"ĠìĤ¬ëŀĮëĵ¤ìĿĢ":6051,"Ġë³´ìŀī":6052,"ĠíķľìŀĲ":6053,"Ġìĺ¤ë¥´":6054,"Ġìĭľìŀĳíķľ":6055,"Ġë³ĳìĤ¬":6056,"Ġpol":6057,"ĠìĤ¬ëŀĮìĿĦ":6058,"au":6059,"ìĿ¼ìĿĦ":6060,"Ġëĭ¨ì§Ģ":6061,"ê·¸ëłĪ":6062,"ìŀĲìľł":6063,"ëĵ¯":6064,"ĠëĤĺëĪĦ":6065,"Ġê·¸íķ´":6066,"Ġì²łíķĻ":6067,"ê³łê¸°":6068,"Ġë¦¬ì²ĺ":6069,"ê·¸ë¡ľ":6070,"ĠíĽĦìĨĲ":6071,"ĠëĤĺìĻĢ":6072,"Ġì±ĶíĶ¼ìĸ¸ìĬ¤ë¦¬ê·¸":6073,"ĠìŀĲìĦ¸":6074,"ìķ½ìĿĦ":6075,"ĠìĬ¤íĥĢëĶĶìĽĢ":6076,"Ġê³µìĽĲ":6077,"ë¬¼ìĿ´":6078,"«ĵ":6079,"Ġì¢ħì¢ħ":6080,"ĠíĶĦë¦¬ë¯¸ìĸ´ë¦¬ê·¸":6081,"ĠëıĻëĤ¨":6082,"éļ":6083,"Ġê¶Įíķľ":6084,"ĠìĿ´ë£¨ìĸ´ì§Ħ":6085,"Ġå¤©":6086,"gr":6087,"íĶ¼ìĬ¤":6088,"Ġíĸīìłķêµ¬ìĹŃ":6089,"ĠìĿ¼ë³¸êµŃìľł":6090,"ĠêµŃë¬´":6091,"Ġgen":6092,"Ġëħ¹ìĥī":6093,"per":6094,"ĠíĺĲìĿĺ":6095,"les":6096,"ĠìĦľìĸĳ":6097,"der":6098,"ĠìĿ¸ê³µ":6099,"íķ´ëıĦ":6100,"Ġkn":6101,"Ġëį´ë§Īíģ¬":6102,"pt":6103,"ĠìĦ¸ìļ´":6104,"©´ìĦľ":6105,"ìĥģìĹĲìĦľ":6106,"ĠëıĻêµ¬":6107,"ĠìĻ¸ìĹĲëıĦ":6108,"Ġëī´ì§Īëŀľëĵľ":6109,"ìĭľíĹĺ":6110,"ĠìķĦë²Ħ":6111,"Ġê°ľì¡°":6112,"ĠìĿ´ê²ĥìĿ´":6113,"ĠëıĦì¿ĦëıĦ":6114,"íļĮìŀ¥":6115,"Ġìĭľê°ĦìĿ´":6116,"Ġmv":6117,"ĠëıĻìķĦ":6118,"Ġë¹Ħìľ¨":6119,"Ġëħ¼ë¦¬":6120,"Ġê´Ģìĭ¬ìĿĦ":6121,"ĥĪ":6122,"Ġì¹¨ê³µ":6123,"ĠíĮĮê´´":6124,"ìķ¼ìĭľ":6125,"ĠìĤ¬ë²ķ":6126,"ìłĦë¬¸":6127,"æµ·":6128,"ĠåĮ":6129,"ë²Īíĺ¸":6130,"ĠìķĮíĮĮ":6131,"ĠìķĦì£¼":6132,"ìŀħëĭĪëĭ¤":6133,"ë¡ľìĬ¤":6134,"íķ´ì§Ħ":6135,"Ġair":6136,"Ġëĵľëŀĺê³¤":6137,"ĠíķľêµŃë°©ìĨ¡":6138,"¹Ħë":6139,"ĠíĻĭì¹´ìĿ´ëıĦ":6140,"Ġë³´ëĬĶ":6141,"ĠìĤ¼ê°ģ":6142,"Ġes":6143,"ĠìľĦìĽĲìŀ¥":6144,"Ġê¸īìłľ":6145,"ĠìĺģìĽħ":6146,"Ġìľ¨":6147,"ĠìĿĮìĭĿ":6148,"ìºł":6149,"Ġíķľë²Ī":6150,"ĠíĮĢìĿ´":6151,"Ġë¯¸ëĵľíķĦë":6152,"ë¥ĺìĿĺ":6153,"êµŃìĿ´":6154,"Ġìŀ¥ìĪĺ":6155,"ĠëĿ¼ìĿ´ìĺ¨":6156,"ĠìĦłì¡°":6157,"ëĭ¹ìĿ´":6158,"ê³łëĵ±":6159,"Ġê³Ħìķ½ìĿĦ":6160,"ĠìĿ´ëªħ":6161,"Ġë³´ê¸ī":6162,"Ġì°į":6163,"ĠíĴĭ":6164,"Ġëıħë¦½ìļ´ëıĻ":6165,"port":6166,"ĠíİĺìĿ´ì§Ģ":6167,"ìĽĮì¦Ī":6168,"ĠíĪ¬ìŀĲ":6169,"ìķĺìľ¼ë©°":6170,"ë¦¬íŀĪ":6171,"ĠìłĳìĨį":6172,"Ġë³µìŀ¡":6173,"Ġê³µë¶Ģ":6174,"ĠìĤ¬ìĭ¤ìĥģ":6175,"ĠìĹ´ëĮĢ":6176,"íĳ":6177,"ĠíıīìĿ¼":6178,"Ġíķľëĭ¤ëĬĶ":6179,"Ġgl":6180,"ĠíķĻìĪł":6181,"Ġì¤Ģê²°":6182,"Ġì§§ìĿĢ":6183,"ĠìĪĺì¶ľ":6184,"Ġë²ķì¹Ļ":6185,"ĠêµĲìĤ¬":6186,"Ġê·¸ë¡ľ":6187,"Ġì¤ĳíĻĶë¯¼êµŃ":6188,"ìĬ¤ì»µ":6189,"Ġëĸ¨ìĸ´ìł¸":6190,"ĠìĤ¬ìľł":6191,"ĠìĹ°ìŀ¬":6192,"Ġêµ¬ì²´":6193,"Ġë¶Īê³¼":6194,"Ġì½Ķë¦¬ìķĦ":6195,"ë¡łê°Ģ":6196,"è³":6197,"Ġë¯¸ëĵľíķĦëįĶ":6198,"ì°į":6199,"Ġíķĺíĸī":6200,"Ġë°ľíĳľíĸĪëĭ¤":6201,"ĠíĿĺ":6202,"ë¬¸ìĹĲ":6203,"ĠëĤ´ìĹĲìĦľ":6204,"ìŀĲê¸°":6205,"ê·¼ë":6206,"ĠíĻķë³´":6207,"ĠìĿĺìłķë¶Ģ":6208,"Ġì¹´ë¥¼":6209,"ĠìłĲì°¨":6210,"ìĹĨëĬĶ":6211,"Ġê¹Ģìļ©":6212,"Ġì²´ìłľ":6213,"ħ¶":6214,"ĠëĳĲìĤ°":6215,"Ġê¹ĢìĿ¼":6216,"ĠëĤ´ìļ©ìĿĦ":6217,"ì£¼ìĹĲìĦľ":6218,"ĠìŀĲìĤ´":6219,"íĥĢìļ´":6220,"ĠìºĶ":6221,"Ġê¹Ģì§Ģ":6222,"Ġëª©íı¬":6223,"ĠìŀŃ":6224,"ĠëĮĢíķŃ":6225,"ìĺ¤ë¦¬":6226,"Ġê°ľìĦ¤":6227,"ìĺ¤ìĬ¤":6228,"Ġì½ĶëĦĪ":6229,"Ġë³µíķ©":6230,"ìķĦë¡ľ":6231,"ì£¼ê°Ģ":6232,"Ġì§ģìĽĲ":6233,"ss":6234,"ĠíŀĲ":6235,"ìĸ´ìĻĢ":6236,"èĪĪ":6237,"ĠìĬ¤íĤ¤":6238,"Ġëĭ¥íĦ°":6239,"ĠìĽħ":6240,"ë¦ŃìĬ¤":6241,"Ġê²°ìĬ¹ìłĦ":6242,"ëĤ©":6243,"ise":6244,"ĠìĭłíĻĶ":6245,"ĠìĤ´ê³ł":6246,"ĠìłķëıĦìĿĺ":6247,"Ġì§ĦíĻĶ":6248,"íŀĲ":6249,"ĠåĬ":6250,"íĤ¨ëĭ¤":6251,"ìķĪìĿĺ":6252,"ĠëĮĢê·ľëª¨":6253,"ĠìĽĥ":6254,"Ġé»":6255,"Ġè¶Ļ":6256,"ĠìĿĳìļ©":6257,"ä½¿":6258,"ìĦ¸ê³Ħ":6259,"éĤ":6260,"ode":6261,"ĠìĭľìŀĳëĲĺìĹĪëĭ¤":6262,"ëĦ¬":6263,"Ġì£¼ìŀ¥íĸĪëĭ¤":6264,"ìĽ°":6265,"ª¨íĨł":6266,"åįĹ":6267,"æĽ":6268,"ì£¼ê³ł":6269,"ĠìĦ¸ê¸°ìĹĲ":6270,"Ġê¸°íĺ¸":6271,"Ġíĥľìĸ´ëĤĺ":6272,"ìĿ´ìĻĢ":6273,"Ġìĭłíĺ¸":6274,"ìĶ¬":6275,"ĠíĸĪì§Ģë§Į":6276,"ëĵľìĿĺ":6277,"ìķ¼êµ¬":6278,"ĠëĤ´ê°Ģ":6279,"ĠìĿ´ëģĦëĬĶ":6280,"Ġì¤ĳë¶Ģ":6281,"ĠëĲĺì§Ģ":6282,"íħĲì¸ł":6283,"ĠìłĦëıĻ":6284,"ìļ°ì¹ĺ":6285,"íĸĪê¸°":6286,"áº":6287,"ãĤ¹":6288,"Ġì§ĢëĤ´":6289,"Ġíĳ":6290,"ĠæĻ":6291,"ìĭ¬ìĿ´":6292,"ann":6293,"ĠíķĺìľĦ":6294,"ĠìķĶìĤ´":6295,"åĳ":6296,"Ġíı¬ì¼ĵëª¬":6297,"ĠìĺĪìĤ°":6298,"ĠíĨµìĥģ":6299,"Ġpo":6300,"Ġì¤Ħë¦¬":6301,"ìķĦíĤ¤":6302,"ê°ĦëĮĢ":6303,"ìķĦìĦľ":6304,"Ġê°ķìłľ":6305,"Ġë¶Īëªħ":6306,"ĠëķĮìĹĲ":6307,"ĠëĤĺëīĺ":6308,"´ëłĪ":6309,"ĠìĹŃìĿĦ":6310,"Ġpa":6311,"ëŁ¼ë":6312,"ĠëĮĢìĥģìľ¼ë¡ľ":6313,"ëį¸ë":6314,"Ġíģ´ë¦¬":6315,"Ġsf":6316,"ĠìĹĨê³ł":6317,"Ġê°ĢìļĶ":6318,"ife":6319,"ream":6320,"ĠìłĦê³µ":6321,"ĠìľĦë°ĺ":6322,"ëĵ¤ëıĦ":6323,"ìĤ¬ìĹĲìĦľ":6324,"pa":6325,"Ġë§Įíģ¼":6326,"èĹ":6327,"ìĤŃ":6328,"Ġë¹Ħë¡Ģ":6329,"Ġë³¸ê´ĢìĿĢ":6330,"Ġëħ¸ìĺĪ":6331,"ê¹Įì§ĢëĬĶ":6332,"ìļ°ëĿ¼":6333,"Ġê¸°ì¢ħ":6334,"Ġë¬´íļ¨":6335,"Ġå¼µ":6336,"Ġê³łìľł":6337,"Ġê°ĸì¶Ķ":6338,"ĠëĤĺìĦľ":6339,"Ġgro":6340,"ĠìĿ´ìłĦìĹĲ":6341,"Ġbest":6342,"Ġë°©ì¶ľ":6343,"ĠíĺĦíĻ©":6344,"ìĤ¬ìĬ¤":6345,"ri":6346,"ĠíĶĦë¡ľìĦ¸":6347,"ìĿ´ìĹĲ":6348,"Ĳĺê³ł":6349,"íĴĪìĿĦ":6350,"Ġì¤ĳë³µ":6351,"Ġì·¨ëĵĿ":6352,"ĠëĭĽíı°":6353,"ì¹´ìĿĺ":6354,"Ġíķ©ìĿĺ":6355,"Ġë²¡":6356,"ĠíħĮìĿ´":6357,"ĠíĺķíĥľìĿĺ":6358,"ĠìĿ¸ê¸°":6359,"Ġë³¸ê²©":6360,"ë±ħ":6361,"Ġíģ´ë¡ľ":6362,"Ġëĭ¨ìĿ¼":6363,"ëĭĺìĿĺ":6364,"Ġì¶ľë§Ī":6365,"ĠìľĦìĦ±":6366,"íĸīìľĦ":6367,"éĮ":6368,"íĺķìĿ´":6369,"íħĮìĿ´ìħĺ":6370,"Ġê°ĸì¶ĺ":6371,"ìĹ°êµ¬ìĽĲ":6372,"ĠìĨĲìŀĲ":6373,"Ġav":6374,"ëł´":6375,"Ħ·":6376,"Ġìĺ¤íŀĪ":6377,"Ġë§Īì¼Ģ":6378,"íķĺê³łìŀĲ":6379,"ìĤ¬ëŀĳ":6380,"ĠìķĦìĤ¬íŀĪ":6381,"íĦ°ë¯¸ëĦĲ":6382,"ĠíĥĪì¶ľ":6383,"ĠìĿ´ëĭĿ":6384,"Ġê¹Ģìŀ¬":6385,"ê³łë¡ľ":6386,"íĥĢë¥´":6387,"Ġê³łë¬¸":6388,"att":6389,"ë¹Ħì¹ĺ":6390,"ìĿ¸ëĵ¤ìĿĺ":6391,"ê³¼ë¡ľ":6392,"ì£¼ë¯¼":6393,"Ġcomm":6394,"Ġì°½ì¡°":6395,"ĠìķĦë¬´ë":6396,"ĠìĿ¸ê¸°ë¥¼":6397,"ĠìļĶë¯¸":6398,"ĠëĤ¨ëıĻ":6399,"ĠëıĦìłĦ":6400,"Ġë©ĶìĿ´ì§Ģ":6401,"ĠëĮĢê³µ":6402,"ë³Ħë":6403,"ĠíĽĦë³":6404,"Ġìĺ¬ìĬ¤íĥĢ":6405,"Ġê³ĦíĨµ":6406,"Ġë¡Ŀ":6407,"íı¬ë¡ľ":6408,"Ġê°ľê´Ģ":6409,"ë¬¸ëĮĢ":6410,"ìĹ¬ê°Ŀ":6411,"ake":6412,"Ġì§ĢëıĦìŀĲ":6413,"int":6414,"Ġë¹Ļ":6415,"ĠíĪ¬ìĸ´":6416,"çĶŁ":6417,"Ġë¯¸ì¹ĺ":6418,"å®¶":6419,"ìĹ°ìĨį":6420,"Ġì¤ĳìĦ¸":6421,"Ġë·":6422,"ĠíĪ¬ìŀħ":6423,"ĠìĺĪë¹Ħ":6424,"íĻĺê²½":6425,"Ġì§Ģìĸ´":6426,"ìĦĿìĿĦ":6427,"ĠìĦ¤ì¹ĺëĲĺìĸ´":6428,"ìĬ¤ëŁ¬ìļ´":6429,"íĻĶë¡ľ":6430,"Ġë³´ìĬ¤":6431,"Ġìĺ·":6432,"Ġíķľëĭ¤ê³ł":6433,"ëĤĺìĻĢ":6434,"ĠëıĦì¤ĳ":6435,"ĩ¨":6436,"ĠìķĦìĿ´ìĬ¤":6437,"ìĪĺìĻĢ":6438,"Ġnot":6439,"ĠìĻ¸ìĹĲ":6440,"Ġê²Ģì°°":6441,"ĠëĴ¤ë¥¼":6442,"Ġë°ĺë³µ":6443,"êµŃìĿĢ":6444,"ĠëĤ¨ìĸĳ":6445,"êµŃê°Ģ":6446,"ìļ°ìĿĺ":6447,"Ġë¸ĮëłĪ":6448,"ology":6449,"íķ¨ìĹĲ":6450,"ê³½":6451,"ëħ¸ìĬ¤":6452,"åħī":6453,"Ġì¼Ī":6454,"Ġìłķì§Ģ":6455,"Ġher":6456,"íĮ¬":6457,"ĠëģĿëĤĺ":6458,"Ġìĭ±ê°Ģ":6459,"ĠìĻĶ":6460,"ì§Ģêµ¬":6461,"Ġë®Į":6462,"ìĮ":6463,"ìļ°ê³ł":6464,"ìŀ¬íĮĲ":6465,"are":6466,"Ġíģ°":6467,"Ġë¸Įë¡ľ":6468,"ë¬´ë¶Ģ":6469,"ĠêµŃê²½":6470,"ĠìĦ¸ë¡ľ":6471,"Ġë©¸ë":6472,"Ġìķµ":6473,"ëł¤ê³ł":6474,"ìłĲìĹĲ":6475,"ĠìŀĪìĹĪìľ¼ëĤĺ":6476,"ëĵ¬":6477,"Ġë¬¸ìĭł":6478,"Ġë¹ĦêµĲìłģ":6479,"ĠíķĺëĬĶëį°":6480,"Ġæ²":6481,"ĠíĿĶíŀĪ":6482,"ê³µíķĻ":6483,"ĠìłģìĿĢ":6484,"Ġíģ¬ë¡ľìķĦ":6485,"ī¯":6486,"ê²Ķ":6487,"Ġrec":6488,"yl":6489,"Ġì¤ĳë°ĺ":6490,"Ġnet":6491,"ĠíĶĦë¡ľê·¸ëŀĺ":6492,"è²":6493,"ĠìĿ´ë§Ī":6494,"ĠìĿ¼ì¢ħ":6495,"Ġëĭ¨ë°±ì§Ī":6496,"Ġå¿":6497,"Ġíı¬íĬ¸":6498,"ĠìĭľëĮĢìĹĲ":6499,"íĸĦ":6500,"ë²łìĿ´ìĬ¤":6501,"Ã¼":6502,"Ġê±´ë¦½":6503,"ĠxÃ£":6504,"ĠíĮĢìĿĢ":6505,"Ġéĸ":6506,"Ġê·¸ìĹĲ":6507,"ìķ¼ìĪĺ":6508,"ĠíĬ¹ë³Ħíķľ":6509,"ĠíĿ°":6510,"ĠìłĢì§Ģ":6511,"Ġì¸¡ë©´":6512,"íĽĪìŀ¥":6513,"Ġë£Į":6514,"Ġê°ķìłĲê¸°ìĿĺ":6515,"ê¶¤":6516,"íĶĦëĿ¼":6517,"Ġë¹ĦëĤľ":6518,"ë¦¬ì½Ķ":6519,"Ġëį®":6520,"ĠëĲĺë©´ìĦľ":6521,"ĠíĸĪìľ¼ëĤĺ":6522,"ìĬ¤ëŁ½":6523,"ĠìłĢìŀĳ":6524,"ĠìĿ´ë£¬":6525,"ĠìŀĲë§¤":6526,"ĠìĭľìĤ¬":6527,"ê·¸ëŀ¨":6528,"Ġê¹Ģìĥģ":6529,"ĠìķĮë°Ķ":6530,"Ġìłķê¸°":6531,"Ġë¬´íķľ":6532,"Ġíķľìĸĳ":6533,"ëĤľëĭ¤":6534,"íĨłëĭĪ":6535,"ĠëıĻìĿ¼íķľ":6536,"ĠëĤ´ìĹĲ":6537,"ëłĪìĿ´ìħĺ":6538,"Ġêµ¬ìĦ±ëĲľ":6539,"ĠíĿ¡ìĪĺ":6540,"ĠìĭłìķĻ":6541,"Ġê³¼ìłķìĿĦ":6542,"ĠëıĻíķ´":6543,"ëĮĢìĭł":6544,"Ġå°¹":6545,"Ġë²łë¥´":6546,"íķĺëł¤ê³ł":6547,"ĠíħĮëŁ¬":6548,"Ġëŀľ":6549,"ĠëħĦê³¼":6550,"Ġì½ĶíĮĮ":6551,"Ġìļ©ìĸ´":6552,"Ġorg":6553,"ĠìĤ¬ìļ°":6554,"ì¹¼ë":6555,"Ġì§Ģë°©ìĿĺ":6556,"du":6557,"ĠìĪĺìĨ¡":6558,"ĠìĦ¸ìĽłëĭ¤":6559,"Ġìļ°ìĹĲ":6560,"Ġaw":6561,"ĠëĦ¥":6562,"ìĭľíĤ¬":6563,"ë¦¬ì¦ĺ":6564,"ĠíĶĦëŀŃ":6565,"ĠìĤ¬ìļ©ëĲĺìĹĪëĭ¤":6566,"ĠìĬ¤íĥĢíģ¬ëŀĺíĶĦíĬ¸":6567,"Ġë§ĪìĤ°":6568,"åĵ":6569,"ìķĺëįĺ":6570,"ĠëıĻë°©":6571,"ìĹ¬ìŀĲê³łëĵ±íķĻêµĲ":6572,"¼Ī":6573,"Ġì§Ħì£¼":6574,"Ġë£¨ë§Ī":6575,"ëĲĺìĹĪëĬĶëį°":6576,"ĠíķľëķĮ":6577,"Ġë©ĶìĿ¸":6578,"ëĵľëłĪ":6579,"Ġæµ":6580,"Ġì²ľìĹ°":6581,"Ġìĭľê°ĦìĿĦ":6582,"ì£¼ìĹĪëĭ¤":6583,"Ġíı¬ìľł":6584,"Ġêµ¬ë¯¸":6585,"ãĨį":6586,"ĠëįĶë¸Ķ":6587,"Ġìŀ¥ëĤ¨":6588,"ĠìĿ´ìļ©íķľ":6589,"ĠëĲĲëĭ¤":6590,"£¡":6591,"ìĦľìĹĲ":6592,"æ¼":6593,"Ġì§Ģë°Ķ":6594,"ĠëĤ´ìħĶëĦĲ":6595,"ĠìĥĿëħĦ":6596,"ê²łëĭ¤ê³ł":6597,"ĠëĵľëĿ¼ìĿ´":6598,"ëĭ¤ë©´":6599,"ĠìĦ¸íĬ¸":6600,"Ġë³Ħëªħ":6601,"ĠìŀĪìĹĪìľ¼ë©°":6602,"ê¶Ĳ":6603,"Ġæ·":6604,"ĠíŀĪìĸ´ë¡ľ":6605,"Ġê·ľì¹Ļ":6606,"ĠìĬ¤íĨłë¦¬":6607,"ĠìĨĮë¹ĦìĹĲ":6608,"Ġmet":6609,"Ġê³łìļ©":6610,"Ġë§Įì£¼":6611,"ĠìĥĿì¡´":6612,"ì¹´ë¯¸":6613,"Ġë¡ľë´ĩ":6614,"Ġê°ĢìĿ´":6615,"Ġå´Ķ":6616,"å¦":6617,"ĠìĦľìĿ¼ë³¸":6618,"Ġìłķë³µ":6619,"ì²ĺìĬ¤":6620,"ĠíķŃë³µ":6621,"Ġë°ĺëıĦ":6622,"Ġíķľìĭł":6623,"ĠëĪĦêµ¬":6624,"Ġê¹ĢìĶ¨":6625,"åľ°":6626,"Ġë¸ĮëĿ¼ìļ´":6627,"ĠíĤ¹":6628,"Ġë¶Īë²ķ":6629,"íģ¬ëĬĶ":6630,"íŀĪì½Ķ":6631,"Ġìĸ¸ìłľ":6632,"¹ł":6633,"ê²½ìĺģ":6634,"ĠìĪĺëıĦê¶Į":6635,"ĠëıĦë§Ŀ":6636,"ë¯¼ì£¼ìĹ°íķ©":6637,"ì½ĶìĬ¤":6638,"ê³ĦëĮĢ":6639,"Ġëĭ¤ë¦¬":6640,"ĠíĥľêµŃ":6641,"ìķĦëĿ¼":6642,"ë¡łìĿĦ":6643,"ë¯¸ë¡ľ":6644,"ĠìĨĮëł¨ìĿĺ":6645,"ĠìļĶìĨĮ":6646,"ĠíķľíĻĶ":6647,"Ġì§Ģë°©ëıĦ":6648,"Ġíķµìĭ¬":6649,"Ġê°ķìĿĺ":6650,"ĠíĻķìĭ¤":6651,"Ġmhz":6652,"ĠìĦ¸ê³ĦìĹĲìĦľ":6653,"Ġë¬¼ëŁ¬":6654,"Ġë§¡ê³ł":6655,"ì§Ģë©´ìĦľ":6656,"ì§ĦíĿ¥":6657,"Ġì¹´ë¥":6658,"Ġë©¸ë§Ŀ":6659,"Ġê°Īëĵ±":6660,"Ġì°¸ìĹ¬íķĺìĺĢëĭ¤":6661,"èı":6662,"ëĿ¼ë¦¬":6663,"ìłģìĿ´ëĭ¤":6664,"Ġëª¨íĹĺ":6665,"ëŁīìĿĺ":6666,"ĠëĮĢìĽĲ":6667,"ĠëıĻìĿĺ":6668,"use":6669,"ĠìĬ¤ë§ĪíĬ¸":6670,"¼ëĵľ":6671,"Ġëªħëĭ¨":6672,"ĠìĿĺíķĻ":6673,"ĠëħĦê²½":6674,"Ĥ´ë":6675,"Ġíķľê¸Ģ":6676,"ĠìķĮê²Į":6677,"ĠìŀĪìĿĮ":6678,"ë¯¸ìĪł":6679,"ëįĶëĿ¼ëıĦ":6680,"Ġë¬´ëį¤":6681,"Ġë°©ìĤ¬":6682,"ĠìĿ¼ë³¸ìĹĲìĦľ":6683,"ë³´ëĭ¤ëĬĶ":6684,"ĠìĻĦë£Į":6685,"Ġëª¨ë°Ķ":6686,"Ġë¶ģêµ¬":6687,"ë¡ľëĤĺ":6688,"Ġíķľë°ĺ":6689,"ìħĪ":6690,"ĠìĿ´ìļ©íķ´":6691,"łĪìĬ¤":6692,"ê²ł":6693,"Ġê¸ĪìĨį":6694,"Ġê³µíĻĶêµŃìĿĺ":6695,"ìĹħìĿĦ":6696,"ëĭ¤ë¥¸":6697,"ìĭľì²Ń":6698,"ail":6699,"Ġì°°ìĬ¤":6700,"be":6701,"Ġìłľì¶ľ":6702,"ĠìĹŃìľ¼ë¡ľ":6703,"Ġìĺ¤ëŀľ":6704,"ë¹ĦìĿĺ":6705,"ĠíķĻë¬¸":6706,"ĠìĸĳìŀĲ":6707,"Ġìĭłì²Ń":6708,"ìķĦëĤ´":6709,"ì´":6710,"Ġë¯¸ìĵ°":6711,"Ġíı¬ê¸°":6712,"Ġì¶Ķì¸¡":6713,"Ġê±°ëĮĢíķľ":6714,"Ġë¶Ģíķĺ":6715,"Ġinf":6716,"Ġê²½ê³Ħ":6717,"ĠìŀĲëĬĶ":6718,"Ġë¯¸ëĭĪìĭľë¦¬ì¦Ī":6719,"ë°Ģë¦¬":6720,"ĠìĺĪìĥģ":6721,"łĪìĿ´ìħĺ":6722,"åĴĮ":6723,"ĠìĿ´ìĿµ":6724,"ĠíķĻìĬµ":6725,"Ġíķ´ìĦľ":6726,"ìķĦëĵľ":6727,"Ġê¹ĢìĪĺ":6728,"iel":6729,"Ġíķĺë©´":6730,"ëŁ´":6731,"Ġíģ¬ëłĪ":6732,"Ġìį¨":6733,"ìĭľìĬ¤íħľ":6734,"Ġì§ĢëĭĮ":6735,"Ġìĸ´ëĶĶ":6736,"ì²¨":6737,"ĠëıĻìĸĳ":6738,"Ġë¦¬ì²ĺëĵľ":6739,"Ġæ´":6740,"Ġì§ĢëĭĪ":6741,"ĠìĽĶíĻĶ":6742,"Ġë¶Ģìĥģ":6743,"ĠìķĪëĵľë¡ľ":6744,"ìĿ´ëŀĢ":6745,"ìħī":6746,"ì°½êµ°":6747,"ìĦłìĹĲ":6748,"Ġet":6749,"ê°ľíĺģ":6750,"Ġêµ¬ìĨį":6751,"ax":6752,"Ġcp":6753,"ĠìĥĿê¸´":6754,"ĠìĺĪëĬ¥":6755,"êµŃë¯¼íķĻêµĲ":6756,"ĠìĦ¸ë¦¬ìĹĲ":6757,"ãģª":6758,"Ġìĭľì¦ĮìĿĦ":6759,"Ġì§ĢìĹŃìĿĢ":6760,"ë¯¸íĦ°":6761,"ĠíĮĮëĿ¼":6762,"Ġì½¤":6763,"Ġìĭ¤ìłĲ":6764,"ĠíĻķìĿ¸ë":6765,"¬´ëĿ¼":6766,"Ġì½ĶìĬ¤":6767,"ãĥ«":6768,"Ġê±°ìłĪ":6769,"ĠìłĢìĪł":6770,"Ġë§ĪìĿ´íģ¬ë¡ľìĨĮíĶĦíĬ¸":6771,"Ġìĺ¤íŀĪëł¤":6772,"ĠíĶĦëŀĳíģ¬":6773,"ìĿ´ìĹĪìľ¼ëĤĺ":6774,"ĠìĹŃìĤ¬ìĥģ":6775,"Ġê°ĢìĬ¤":6776,"ä¸ī":6777,"ëļ":6778,"Ġent":6779,"ìĪĺë¡Ŀ":6780,"Ġê¹Ģì§Ħ":6781,"ower":6782,"Ġíķĳ":6783,"Ġev":6784,"ĠìĥĿê²¨":6785,"ĠíĮ¨ìħĺ":6786,"ë®¤ëĭĪ":6787,"ĠìĹ¬ìĪĺ":6788,"Ġpress":6789,"ìĿĺìłķ":6790,"ĠìŀĦëªħëĲĺìĹĪëĭ¤":6791,"ê±°ìļ´":6792,"ë¯¸ìĿĺ":6793,"Ġìŀ¡ì§Ģ":6794,"íĦ°ìĬ¤":6795,"ëł¥ìĿĢ":6796,"¸ëĤĺ":6797,"ĠíĻĶìŀ¥":6798,"Ġjap":6799,"Ġìĺ¤ë¦¬ì§Ģ":6800,"²½":6801,"ëĳĳ":6802,"ĠìºĲìĬ¤íĮħ":6803,"ĠìķŀìĦľ":6804,"íģ´ë¦¬":6805,"Ġëħ¼ìŁģ":6806,"ìĹĲë¥¸":6807,"íĥĢëĤĺ":6808,"ê¸°ë¡Ŀ":6809,"Ġìľłíķľ":6810,"ì¡°ê°Ģ":6811,"inal":6812,"Ġdj":6813,"Ġê¹Ģê²½":6814,"ĠíĸĪê³ł":6815,"ĠìĹ°ìĦ¸ëĮĢíķĻêµĲ":6816,"Ġíģ´ëłĪ":6817,"è¡Į":6818,"ĠêµĲë¥ĺ":6819,"íĮĮíģ¬":6820,"ìĭľíĥĢ":6821,"Ġchrist":6822,"éĸĢ":6823,"ì±Ħë":6824,"ĠìĪĺíĽĪ":6825,"ë¶ģëıĦìĿĺ":6826,"Ġë¹ħíĨł":6827,"ĠìĬ¤íĭ°ë¸Ĳ":6828,"ĠëĲĺë©´":6829,"ë¡ľë¡ľ":6830,"Ġì§Ģê¸ī":6831,"ĠëĮĢë¦¬":6832,"ĠìļĶìĥĪ":6833,"Ġì²´ê³Ħ":6834,"ìļ©ìľ¼ë¡ľ":6835,"å²":6836,"Ġìĺ¤ì¹´":6837,"Ġìĸ´ëłµ":6838,"sk":6839,"ĠìĽĲìĨĮ":6840,"Ġëħ¸ìĬ¤":6841,"Ġtrans":6842,"Ġconc":6843,"ìĹ¬ìĦľ":6844,"Ġì£¼ê³ł":6845,"æľĥ":6846,"Ġìłķë¶Ģê°Ģ":6847,"ëĲĺìĹĪì§Ģë§Į":6848,"ĠìĹ°ìĤ°":6849,"Ġä½":6850,"ìĦ¸ìļĶ":6851,"Ġì¡°ìĦłë¯¼ì£¼ì£¼ìĿĺìĿ¸ë¯¼ê³µíĻĶêµŃìĿĺ":6852,"ĠëĤ¨êµ¬":6853,"å¸Ŀ":6854,"ĠëĤĺì¹ĺ":6855,"Ġíĳľë©´":6856,"ìĸ¸ìĿĦ":6857,"Ġìķ½ê°Ħ":6858,"íħľ":6859,"¸ëŁ¬":6860,"Ġhttp":6861,"ìĬ¬ë§ģ":6862,"Ġìļ´íķŃ":6863,"ĠíĻĶê°Ģ":6864,"ĠìĤ°ë§¥":6865,"ìĻķíĽĦ":6866,"ëĿ¼ê°Ģ":6867,"ĠëķĮìĿĺ":6868,"ĠëĿ¼ìĿ´íĬ¸":6869,"ĠìĭĿë¯¼ì§Ģ":6870,"ĠëłĪìķĮ":6871,"æ¥":6872,"ëĭ¹ìĹĲ":6873,"ĠíĮĮíģ¬":6874,"Ġë°ľìĥĿíķľ":6875,"Ġng":6876,"ë°ĽìĿĢ":6877,"ìĹĲê²ĮìĦľ":6878,"ëĵľìĭľ":6879,"Ġë¯¸íĦ°":6880,"Ġìĭ¬ê°ģ":6881,"Ġì¡°ì¢ħ":6882,"ĠëĮĢëĮĢ":6883,"êµŃìŀ¥":6884,"ëıĦë¦¬":6885,"ĠëĿł":6886,"Ġìĺ¤íĤ¤":6887,"ìłľìĹĲ":6888,"ä¸ĸ":6889,"mer":6890,"íĢ´":6891,"ĠìĿ´ë²¤":6892,"ì¸łíĤ¤":6893,"ë¨¸ëĭĪ":6894,"Ġëľ¨":6895,"ì§ĦìĿĺ":6896,"Ġhy":6897,"Ġì²ľë¬¸":6898,"Ġbro":6899,"³¼":6900,"ĠìĦłêµĲ":6901,"Ġë®ĮíĹ¨":6902,"íĶĦë¥¼":6903,"iew":6904,"ìłķìĿĢ":6905,"ìĺĮ":6906,"ĠìĿ¸ê¶Į":6907,"ì¶°":6908,"ĠìĿ´ìķ¼ê¸°ë¥¼":6909,"ë¦¬ìĭľ":6910,"çŁ³":6911,"Ġë§Īì¹ĺ":6912,"ĠåĽ":6913,"ĠêµŃë¯¼ë":6914,"ĠíĽ¨":6915,"Ġíķ´ëĭ¹íķĺëĬĶ":6916,"ìĿ¸ìĹĲ":6917,"ë²Ħëĵľ":6918,"ĠëĮĢëŀµ":6919,"íĥĢì¹´":6920,"Ġì£¼ê´Ģ":6921,"ĠëıĦíĺ¸":6922,"ĠìľłëŁ½ìĿĺ":6923,"ose":6924,"Ġì£¼ëĭĪìĸ´":6925,"ĠìłľìĿ¼":6926,"ì¡°íĮĲ":6927,"ì£¼ìĹĲ":6928,"Ġì¡°ë³Ħ":6929,"ĠíķľìĦ±":6930,"Ġtbs":6931,"ĠíĻĶìĿ´íĬ¸":6932,"ĠìłĦë¶Ģ":6933,"íİĺìĿ´":6934,"ìħĢë¡ľ":6935,"co":6936,"Ġcj":6937,"ê´Ģê³Ħ":6938,"è§":6939,"ĠìŀĲìľłíķľêµŃëĭ¹":6940,"Ġê·¸ëĵ¤":6941,"ìłľìŀĳ":6942,"ìłĲìĿĢ":6943,"Ġë©Ķìĭľ":6944,"ĠíĺĦìŀ¬ê¹Įì§Ģ":6945,"ì¡´ë":6946,"Ġê³łëł¤ëĮĢíķĻêµĲ":6947,"ç´":6948,"ê²Ģì°°":6949,"ĠìķĦëıĻ":6950,"Ġë°ķìĺģ":6951,"çļĩ":6952,"ĠëıĻìĽĲ":6953,"ìĿ´ìĹĪê³ł":6954,"Ġì¡°ìŀĳ":6955,"Ġë¡ľì¼ĵ":6956,"Ġì¤Ģê²°ìĬ¹":6957,"Ġê³µìĹħ":6958,"ĠëĦĵìĿĢ":6959,"Ġì·¨ìĨĮ":6960,"ìŀĲëĵ¤ìĿĦ":6961,"ĠíĿī":6962,"íıīêµ°":6963,"ĠìłĲìĹĲìĦľ":6964,"Ġë¸ĮëĿ¼ì§ĪìĿĺ":6965,"ëŀĦ":6966,"ê±´ìĦ¤":6967,"ĠíĻĺìĬ¹":6968,"ĠìķŀìĹĲ":6969,"iet":6970,"Ġë¦¬ë²Ħ":6971,"Ġë³ĢíĻĺ":6972,"Ġê°ĢëĬ¥ìĦ±ìĿ´":6973,"ĠåĮĹ":6974,"ĠìĹ°ìķł":6975,"ì²ľë©´":6976,"íķĺëĭ¤ëĬĶ":6977,"Ġë§¨ì²´ìĬ¤íĦ°":6978,"íĿ¡":6979,"Ġêµ¬ë¡ľ":6980,"Ġë©Ķëĭ¬":6981,"Ġíģ¬ëĿ¼":6982,"Ġì§Ħë³´":6983,"Ġë²łìĿ´ìĬ¤ë³¼":6984,"ĠíıīíĥĿ":6985,"ëĶ°":6986,"ìĬ¤íĬ¸ëĿ¼":6987,"Ġë¬´ìĤ¬":6988,"ĠìŀĪìĹĪëĬĶëį°":6989,"ism":6990,"ĠíĽ¨ìĶ¬":6991,"ĠìŀĲëħĢ":6992,"ê¼¬":6993,"Ġìľłëªħíķĺëĭ¤":6994,"ì´Ŀë¦¬":6995,"ëĨĢ":6996,"Ġrev":6997,"íı¬ìĬ¤":6998,"ĠêµĲíĻĺ":6999,"Ġê³łìĨįëıĦë¡ľ":7000,"ëĭĪì¹ĺ":7001,"Ġë©Ķëª¨ë¦¬":7002,"ade":7003,"ĠëĮĢíĳľíĮĢ":7004,"íĺķìĿĢ":7005,"Ġìĥģëĭ¹íŀĪ":7006,"Ġæ±":7007,"Ġeng":7008,"íĪ°":7009,"Ġì«ĵ":7010,"ìĭłìĿĢ":7011,"ëłĲ":7012,"Ġíķ´ìĤ°":7013,"Ġë§Īì¹¨":7014,"ìķĪìĹĲ":7015,"Ġì£¼ìŀ¬":7016,"ĠíİĺìĿ´":7017,"ĠëĬ¥ëł¥ìĿĦ":7018,"ìłģìĿĺ":7019,"ĠêµŃê°ĢìĿĺ":7020,"Ġê·¸ê²ĥìĿĦ":7021,"Ġíķ©ìĦ±":7022,"ĠìĨĮë¦¬":7023,"Ġê¹Ģê¸°":7024,"Ġë¹łë¥¸":7025,"Ġê°ľë´īíķľ":7026,"ì´Ŀëıħ":7027,"ì¼°ëĭ¤":7028,"Ġweb":7029,"Ġíĺ¸ìĦłê³¼":7030,"ĠìĹ¬ê°Ŀì²łëıĦìĿĺ":7031,"Ġëī´ë":7032,"ĠìĤ¬ë§Ī":7033,"irl":7034,"ĠÎ":7035,"ĠëĤłê°ľ":7036,"ĠìĿ´ìĶ¨":7037,"Ġìĸ»ìĹĪëĭ¤":7038,"Ġhar":7039,"Ġìĭ±ê°Ģíı¬ë¥´":7040,"Ġê°Ħëĭ¨":7041,"ĠìĤ¬ìļ©íķĺê³ł":7042,"ild":7043,"ìłĦìľ¼ë¡ľ":7044,"Ġê·¸ëŀĺíĶ½":7045,"Ġìĺ¤ë¦¬ì§ĢëĦĲ":7046,"ìļ°ì¡°":7047,"Ġê·¸ê²ĥìĿĢ":7048,"Ġtime":7049,"Ġìŀ¥ìĭĿ":7050,"ë¹Ħìĭľ":7051,"Ġç¥":7052,"Ġíģ¬ë¡ľìĬ¤":7053,"Ġì¶©ë¶ģ":7054,"ĠëıĻìĦ±":7055,"Ġê¸°ë°ĺìľ¼ë¡ľ":7056,"æĦ":7057,"Ġì£Ħ":7058,"Ġëĭ´ë":7059,"ìĪĺìĹĲ":7060,"ĠìłķìĽĲ":7061,"ĠìŀĲì²´":7062,"Ġwill":7063,"ĠíĻľë°ľ":7064,"Ġhel":7065,"Ġint":7066,"ìĤ¬ìĿ¸":7067,"ĠìłĦíĽĦ":7068,"ĠìĨĮë¹ĦìĹĲíĬ¸":7069,"ìĿ¸ìłĢ":7070,"ìŀ¥êµ°":7071,"ë¥´íĥĢ":7072,"Ġëª¨íĨł":7073,"ĠëĬ¦":7074,"ĠíħįìĤ¬ìĬ¤":7075,"ĠíĻĶìĤ°":7076,"Ġìĺ¤ëŀĺëĲľ":7077,"íĭĢëŁ¬":7078,"ĠìĥģìĬ¹":7079,"ĠëķĮë¶ĢíĦ°":7080,"Ġì°¨ìĿ´ê°Ģ":7081,"ĠìķĮë¦¬":7082,"Ġì¶ĶìłķëĲľëĭ¤":7083,"Ġê±°ëŀĺ":7084,"ations":7085,"Ġìħĭ":7086,"Ġê¸°ìŀ¬ëĲľ":7087,"ĠëĮĢê²°":7088,"ĠìĬ¤ì¹´ìĿ´":7089,"Ġë²Įìĸ´":7090,"Ġë¯¸ëĤĺë¯¸":7091,"ħĲ":7092,"ë²łìĬ¤":7093,"ĠìĤ¬ëŀĳìĿĺ":7094,"íĬ¸ëŀĻ":7095,"ĠìĤ¬ê±´ìĿĦ":7096,"Ġë°°ì¶ľ":7097,"Ġsec":7098,"ĠìĿ¸ì¢ħ":7099,"ëģĶ":7100,"ĠìĿ´íĽĦìĹĲëĬĶ":7101,"Ġì²ŃëĤĺëĿ¼":7102,"ĠìĦ±ëĬ¥":7103,"ĠëıħìŀĲ":7104,"Ġê±´ì¡°":7105,"Ġtext":7106,"Ġë¹Ħìĥģ":7107,"ĠìĿ´ìľłëĬĶ":7108,"ĠíĿ¬ìĥĿ":7109,"Ġëª¨ëĵľ":7110,"ëħ¸ëıĻ":7111,"Ġêµ´":7112,"Ġgb":7113,"ject":7114,"ĠìĬ¤ì¼Ģ":7115,"Ġì§ĢëĤ¸":7116,"íĺ¸ìĿĺ":7117,"Ġê°ľìµľëĲľ":7118,"Ġëª¨ë°ĶìĿ¼":7119,"Ġë°©íĸ¥ìľ¼ë¡ľ":7120,"Ġë§ĲëłĪìĿ´ìĭľìķĦ":7121,"ĠíķĺìĺĢê³ł":7122,"Ġintern":7123,"ĠíĥĢìŀĦ":7124,"Ġwww":7125,"Ġë§ĪìĬ¤íĦ°":7126,"Ġç¦":7127,"çĽ¸":7128,"Ġìļ©ìĤ°":7129,"ì§Ŀ":7130,"Ġë³´ìĺĢëĭ¤":7131,"Ġê°ĲìĤ¬":7132,"ìłĦìĿĢ":7133,"ëŁīìĿĢ":7134,"Ð»":7135,"Ġìĺ¤ëĭ¤":7136,"ê¶ĮìĿĢ":7137,"ĠìĿ´íĨł":7138,"ĠìĬ¤íĬ¸ë¦¬":7139,"ìĦľê°Ģ":7140,"ë¹ĦëĬĶ":7141,"ĠíĻĶìŀ¬":7142,"ĠìĿ¸ê¸°ê°Ģ":7143,"Ġìłľìĸ´":7144,"Ġval":7145,"íĻĶëĬĶ":7146,"Ġìĭłì¶ķ":7147,"Ġçİĭ":7148,"Ġê¸°ìĹħìĿ¸":7149,"ĠìĹĦì²Ń":7150,"ìĽĶëĵľ":7151,"ìĿ¼ìĿĢ":7152,"ìľłìĤ°":7153,"ìĥĿë¬¼":7154,"ë¹ĦëĶĶìĺ¤":7155,"ĠëĮĢìĿĺ":7156,"ĠìĿ´ìĿĢ":7157,"ìģľ":7158,"Ġë°ĶìĿ´ìĹĲë¥¸":7159,"Ġì¢ħë¥ĺìĿĺ":7160,"Ġíģ¬ë£¨":7161,"ĠíĨµíķ´ìĦľ":7162,"Ġamer":7163,"ĠìĪĺì§ĳ":7164,"Ġì²ĺìĿĮìĹĲëĬĶ":7165,"Ġëĵ±ìŀ¥íķľëĭ¤":7166,"ĠìĭľìĿĺ":7167,"ëĭ¹íĸĪëĭ¤":7168,"ĠìŀĦìĿĺìĿĺ":7169,"Ġê·¸ìĹĲê²Į":7170,"ĠíĸĪìľ¼ë©°":7171,"Ġìĺ¤íİĺëĿ¼":7172,"ìľĻ":7173,"ĠìĭłìĤ¬":7174,"ì½ĶìĿĺ":7175,"Ġê²°ê³¼ë¥¼":7176,"ë°ĽìķĦ":7177,"ä¹ĭ":7178,"ĠíĨłë¡łíĨł":7179,"Ġë¯¸ìĬ¤":7180,"Ġë°ĺëĵľìĭľ":7181,"ĠìĻķêµŃìĿĺ":7182,"ëĭ¨ìľ¼ë¡ľ":7183,"Ġë¬´ìĿ¸":7184,"Ġê³ĦíļįìĿĦ":7185,"ãĥ©":7186,"ĠìĿ´ëģĮê³ł":7187,"Ġìļ°ë¦¬ëĬĶ":7188,"ë°ĶëĿ¼":7189,"°·":7190,"èĻ":7191,"åŃ¸æł¡":7192,"ë¦Ħë":7193,"Ġkorea":7194,"ìŀł":7195,"ĠêµŃê¸°":7196,"ë³µì§Ģ":7197,"ĠìķĦë¬´":7198,"ĠíĮĲíĥĢì§Ģ":7199,"Ġíģ¬ê¸°":7200,"Ġì±Ħìļ©":7201,"Ġì§Īë³ĳ":7202,"ĠëıĦìĻĢ":7203,"íĬ¸ëĦĪ":7204,"Ġì§Ģë¶ķ":7205,"Ġè¾":7206,"Ġì¤ĳìĿ¸":7207,"ĠëŀĢ":7208,"ìĦłìľ¼ë¡ľ":7209,"ì¡°ì§ģ":7210,"ĠìĬ¤íħĮìĿ´ì§Ģ":7211,"Ġìĭ¬ìĤ¬":7212,"ë¥´ëĵľ":7213,"ìĿ¼ëĵľ":7214,"ëłĽ":7215,"Ġë©¸":7216,"ĠìĺĪìĪĺ":7217,"ĠìĹĲëĵľìĽĮëĵľ":7218,"Ġå¤ª":7219,"ĠìĹ°ê¸°ëĮĢìĥģ":7220,"ĠìľłíĬľ":7221,"ìĭľíĤ¨ëĭ¤":7222,"ìĪłìĿĦ":7223,"Ġê±°ì§ĵ":7224,"ĠìĤ¬ëŀĳìĿĦ":7225,"Ġì§ĢíĤ¤":7226,"Ġê¹Ģíı¬":7227,"ê³¡ëıĻ":7228,"ĠíĨµìłľ":7229,"Ġë¶Ģìŀ¥":7230,"Ġë³´ìŀ¥":7231,"fc":7232,"Ġë¶ģìĦľ":7233,"Ġì½ĺìĬ¤íĥĦ":7234,"ĠíĻįë³´":7235,"Ġì¾Į":7236,"ĠìĦ¸ê³ĦìĿĺ":7237,"ìĬ¬ëŁ¬":7238,"bert":7239,"ìĨĮìĦ¤":7240,"Ġìĺ¤ìĿ´":7241,"ĠæĹ":7242,"ĠìĿĺìĥģ":7243,"Ġê¾¸":7244,"ĠìĥģíĴĪ":7245,"ìĥīìĿĦ":7246,"Ġë¬µ":7247,"Ġê³µíĨµ":7248,"Ġå±":7249,"èĭ":7250,"Ġë°ľë§¤ëĲĺìĹĪëĭ¤":7251,"Ġko":7252,"Ġìļ´ìłĦ":7253,"Ġtw":7254,"íļĮê°Ģ":7255,"ê²Ģì°°ì²Ń":7256,"ëĦ¨":7257,"íİĺìĿ´ìĬ¤":7258,"Ġìķ¤ëĵľ":7259,"Ġì§Ĳ":7260,"ëĤĺìĿĺ":7261,"ĠíĽĹ":7262,"ì°¨ê°Ģ":7263,"æĶ¿":7264,"Ġìĵ":7265,"ìĬ¤íĭ°ë²Į":7266,"ĠëĮĦìĬ¤":7267,"ì¦Īì¹´":7268,"Ġìĭłë¢°":7269,"ĠìłĦíĮĮ":7270,"Ġìĥģë¥Ļ":7271,"ĠìŀĦê¸°":7272,"åĲİ":7273,"Ġê·¸ëŁ°ëį°":7274,"ê°ĦìĹĲ":7275,"Ġye":7276,"ìĩł":7277,"ì§Ģë©°":7278,"oll":7279,"ãĤĭ":7280,"Ġyo":7281,"Ġë¶Ģì²ľ":7282,"Ġì£¼ëĳĶ":7283,"ĠëĵĿíĳľìĪĺ":7284,"ĠëĿ¼ê³łëıĦ":7285,"Ġìŀ¬ê°ľ":7286,"Ġíı¬ì§ĢìħĺìĿĢ":7287,"Ġì§ĢìĽĲìĿĦ":7288,"ĠìľĦíķ´ìĦľëĬĶ":7289,"Ġê°ľë§ī":7290,"Ġìŀ¥êµĲ":7291,"íİĺë¥´":7292,"Ġë³´ìķĦ":7293,"Ġë°ĺìĺģ":7294,"Ġë³Ģê²½ëĲĺìĹĪëĭ¤":7295,"Ġtop":7296,"Ġëį§":7297,"íŀĪëĬĶ":7298,"Ġéĥ":7299,"ĠìĹ°ë£Į":7300,"ç©":7301,"ĠíĶĮëłĪìĿ´ìĬ¤":7302,"ë£©":7303,"ĠìĹ¬ìĻķ":7304,"Ġë°Ľì§Ģ":7305,"ĠìķĦë¯¸":7306,"Ġë¶ĻìĹ¬":7307,"æģ":7308,"Ġìĺģìŀħ":7309,"ĠìĿ´ìłĦìĿĺ":7310,"her":7311,"ark":7312,"ĠìļĶë¯¸ìļ°ë¦¬":7313,"ì¦ĿìĿĦ":7314,"ont":7315,"ĠëªħìĿ´ëĭ¤":7316,"ĠìĬ¹ê°Ŀ":7317,"Ġë°ľíĳľíķľ":7318,"Ġres":7319,"Ġsoc":7320,"ìĺ¤ìĿĺ":7321,"ìĬ¨ìĿĢ":7322,"ye":7323,"çµ":7324,"Ġarch":7325,"Ġë»":7326,"ĠìľĦëĮĢ":7327,"eng":7328,"Ġpop":7329,"ood":7330,"ĠìĦľë²Ħ":7331,"ĠçĻ½":7332,"ìķĦë¥´":7333,"Ġë²¡íĦ°":7334,"ìļ´íĬ¸":7335,"ĠìĭĿíĴĪ":7336,"ì»¤ìĬ¤":7337,"ana":7338,"ĠìľłìĦ±":7339,"ĠìĪ²":7340,"ĠéŁĵ":7341,"Ġê¹ĬìĿĢ":7342,"ìĪĺìĤ°":7343,"Ġì§Ģì¼ľ":7344,"íĮĲìĿĦ":7345,"Ġìĺģê´ĳ":7346,"Ġìļ°ìłķ":7347,"æ°´":7348,"êµŃìĿĦ":7349,"Ġë¸ĮëĿ¼ë":7350,"ley":7351,"Ġë¯¸êµ°":7352,"Ġê°ĪëĿ¼":7353,"Ġë¶ĢìĨį":7354,"ìĹ°ìĨįê·¹":7355,"Ġì¶ľë²Ķ":7356,"Ġì£¼ìłľê°Ģ":7357,"Ġê°¤ëŁŃ":7358,"ĠëıĦëĭ¬":7359,"Ġë¬´ìĭł":7360,"Ġê¸°ìĥģ":7361,"ĠìĿ¼ë³¸ìĹĲ":7362,"ì¿łìĬ¤":7363,"Ġì³":7364,"ĠëĤ¨ìĿĢ":7365,"Ġëį´":7366,"Ġíİ¸ìĿĺ":7367,"ĠìłķìĪĺ":7368,"Ġìĵ°ëĬĶ":7369,"Ġíı¬ìľłë¥ĺ":7370,"ft":7371,"ë°¥":7372,"ìĭľì¼°":7373,"ĠìĪĺìĦĿ":7374,"ìļ°ìĹĲ":7375,"ĠíĽĦìĹĲëĬĶ":7376,"ä»ģ":7377,"ĠëĤ¨ìĦľ":7378,"ĠìĽ¨ìĬ¤íĬ¸":7379,"Ġéķ":7380,"ĠìĤ¬ê°Ģ":7381,"Ġëĳĺì§¸":7382,"Ġê°Ķëĭ¤":7383,"ĠìĤ¬ìļ°ìĬ¤":7384,"Ġë¹Ħë¡Ŀ":7385,"Ġê³łìĭľ":7386,"Ġê²½ìļ°ëĬĶ":7387,"Ġê¸°êµ¬":7388,"è©":7389,"ĠìķĦëłĪ":7390,"íİ¸ë":7391,"Ġìĭľëª¨":7392,"Ġê³łë²ł":7393,"Ġcolor":7394,"Ð¹":7395,"Ġê³µìĿĦ":7396,"Ġë°±ìłľ":7397,"Ġê±¸ë":7398,"Ġmvp":7399,"Ġëĭ¨ìľĦ":7400,"ĠíĽĦìĨį":7401,"æĺĮ":7402,"ius":7403,"ëĮĢìĻĢ":7404,"ĠìĤ¬íĥľ":7405,"ĠìĿ´ê²ĥìĿĦ":7406,"ĠíĦ¸":7407,"Ġíģ¬ë¦¬":7408,"ì¡°ëĬĶ":7409,"è¼":7410,"íı¬êµ¬":7411,"ml":7412,"Ġmag":7413,"Ġds":7414,"ì¶ľíĮĲ":7415,"Ġêµ¬ìĦ±ìĽĲ":7416,"ì¦ĪëĭĪ":7417,"ĠëłĪìĿ´ë¸Ķ":7418,"Ġíķĺìļ°ìĬ¤":7419,"ĠìĥĪìłķì¹ĺ":7420,"íĨ¡":7421,"Ġë©´ìłģìĿĢ":7422,"Ġíĺ¼ëŀĢ":7423,"ıħ":7424,"ĠíİĺìĿ´ìĬ¤":7425,"ĠìĿ´ìĤ¬ìŀ¥":7426,"Ġìĭľê²Į":7427,"Ġíķ´ìłľ":7428,"Ġë¬´ê²Į":7429,"ë°ĸìĹĲ":7430,"Ġë°ľìĿĮ":7431,"ìķ¼ìĿĺ":7432,"ìĬ¬ëĿ¼ë":7433,"ute":7434,"¯Ķ":7435,"ĠìłĦë©´":7436,"ìĥģíĥľ":7437,"ĠìłľëĮĢë¡ľ":7438,"ĠìłĦìŁģìĿĦ":7439,"Ġë§Īíĭ´":7440,"ĠìĦľìļ¸íĬ¹ë³ĦìĭľìĿĺ":7441,"ìĭĿìľ¼ë¡ľ":7442,"ë¥´ë©°":7443,"Ġì²łíķĻìŀĲ":7444,"Ġjapan":7445,"Ġmat":7446,"Ġë®¤ì§ģë¹ĦëĶĶìĺ¤":7447,"Ġì´Ŀëıħ":7448,"ĠìłĦìŁģìĿ´":7449,"ĠìĿ´ë¥´ëĬĶ":7450,"ĠìĪĺëª©":7451,"Ġå¥":7452,"ĠìĬ¤íĶĦë":7453,"Ġê³³ìĹĲìĦľ":7454,"ê°ĢìĬ¤":7455,"ĠíĮĢìĿĦ":7456,"ë¦¬ìĸ´":7457,"¸ëĿ¼":7458,"ĠìĦľìļ¸ìĭľ":7459,"Ġíĸ¥ìĥģ":7460,"Ġtill":7461,"ĠçĽ":7462,"ĠìķĦë©Ķë¦¬ì¹¸":7463,"Ġì²ľë¬¸ëĮĢ":7464,"fer":7465,"Ġëľ»íķľëĭ¤":7466,"ê¸°ìķķ":7467,"ĠìĹĨëĭ¤ê³ł":7468,"Ġlife":7469,"Ġëľ»ìĿĦ":7470,"ĠìķĦìĿ´ëĶĶ":7471,"ìļ°ì¡°ìĹ°ìĥģ":7472,"Ġæ³":7473,"ĠíĨłëª¨":7474,"Ġìłľì£¼ë":7475,"Ġìŀ¬ë£Į":7476,"íģ´ëłĪ":7477,"ë¥´ë§Į":7478,"ëĮĢìłĦ":7479,"ë¶ĢìĻĢ":7480,"Ġë¹¼ìķĹ":7481,"çĻ":7482,"Ġchar":7483,"çķ":7484,"ìĿ´ë¡ľ":7485,"Ġíı¬íķ¨ëĲĺìĸ´":7486,"ĠìĿ¼ìĿ¼":7487,"Ġìŀ¥ìķħ":7488,"íĺķìľ¼ë¡ľ":7489,"ë°Ľê³ł":7490,"Ġìĭľê°Ģ":7491,"Ġste":7492,"ìĭľìĬ¤ì½Ķ":7493,"ĠìķĦíħĮëĦ¤":7494,"Ġë°©ë²ķìĿĦ":7495,"Ġíķ´ìĥģ":7496,"ĠçĦ¡":7497,"ĠíĦ°ëĦĲ":7498,"ì²ľë¦¬":7499,"Ġë¶Ģë¥´ëĬĶ":7500,"Ġëĭ¤ë¥´ëĭ¤":7501,"Ġë°Ķê¿":7502,"ì¢ħìĿ´":7503,"ì¹ĺë¡ľ":7504,"Ġê¸ĪìļĶìĿ¼":7505,"Ġstud":7506,"ìŀĲìĽĲ":7507,"íĺ¸ê°Ģ":7508,"ìĻľëŀĢ":7509,"ĠëĮĢë¹Ħ":7510,"Ġêµ°ìĿĺ":7511,"ë§·":7512,"ien":7513,"ìľ¼ëł¤":7514,"ëıĻìĿĺ":7515,"Ġê²ĥì²ĺëŁ¼":7516,"Ġë³´ê´Ģ":7517,"ĠíıīìķĪ":7518,"Ġíļ¨ìľ¨":7519,"ĠìĨįìĿĺ":7520,"Ġê²°ë°©":7521,"ĠìĤ¬ë§ĿíķĺìĺĢëĭ¤":7522,"ĠíŀĻ":7523,"Ġty":7524,"íĭ°ìĬ¤":7525,"Ġì£¼ìĦĿ":7526,"Ġê¸°ìĪłìĿĦ":7527,"ĠíĥĲìĤ¬":7528,"ĠìĭłìĿĺ":7529,"Ġìĭ±ìĸ´":7530,"ĠìĦ¸ë¥´ë¹ĦìķĦ":7531,"Ġca":7532,"Ġnational":7533,"ħìĬ¤":7534,"ê°ĢëĿ½":7535,"ìŀ¥ìķł":7536,"íĨłìĬ¤":7537,"Ġnc":7538,"íĤ´":7539,"ĠìķĦë¹ł":7540,"ĠëĤ¨ìļ°ì£¼ìĹ°ìĥģ":7541,"Ġì¶Ķì²ľ":7542,"ĠíķŃìĦ±":7543,"íį":7544,"ıĦë¡ľ":7545,"ĠëĳĲìĹĪëĭ¤":7546,"ĠìĿĺíĺ¹":7547,"ì§ĢìŀĲ":7548,"Ġìĸ´ëĸł":7549,"Ġê´ĳë³µ":7550,"Ġíģ´":7551,"ëĭ¤ë¦¬":7552,"ek":7553,"ĠíĽĹëĤł":7554,"łĢëĭ¤":7555,"ĠéĢ":7556,"ìĨĮìĹĲìĦľ":7557,"ëł¥ìĿĺ":7558,"ëĵŃ":7559,"ì¹´íĥĢ":7560,"Ġëĭ¤ëĭ¤":7561,"Ġëħ¸ë¥´ìĽ¨ìĿ´":7562,"ĠìĺĪì¸¡":7563,"Ġë¶ģëıĻ":7564,"łĺ":7565,"ĠëħĦìĹĲìĦľ":7566,"Ġë§¤ëĭĪ":7567,"ë²ķìĹĲ":7568,"ìŀİ":7569,"ĠìĤ¬ëĥ¥":7570,"íķľìĿĺ":7571,"Ġgirl":7572,"ĠêµŃíĨł":7573,"ĠìŀĦì§ĦìĻľëŀĢ":7574,"ìĦ±íĻĶ":7575,"Ġëĭ¹ì´Ī":7576,"Ġê·¸ë¦¬ìĬ¤ìĿĺ":7577,"Ġê°ģê°ģìĿĺ":7578,"Ġinternational":7579,"Ġë³´ëĤ¸":7580,"ĠëĤ´ìĿĺ":7581,"Ġê¸°ë¡ĿíķĺìĺĢëĭ¤":7582,"ë§ĪìĿĺ":7583,"ĠìĤ¬ê±´ìĿ´":7584,"Ġëªħëªħ":7585,"hel":7586,"Ġë°ĺë°ľ":7587,"ĠìķŀëĳĲê³ł":7588,"Ġmac":7589,"ĠìĭłíķĻ":7590,"ĠìĭľëĤĺë¦¬ìĺ¤":7591,"Ġëĵ±íĮĲ":7592,"ĠìĨĮìŀ¬ì§Ģ":7593,"Ġì»¤ë®¤ëĭĪ":7594,"Ġdu":7595,"Ġcb":7596,"Ġë³´ëĥĪëĭ¤":7597,"ĠìĦłë³´":7598,"ĠìĺģíĻĶìłľ":7599,"Ġì°¨ê´Ģ":7600,"Ġë¶Ħëį°ìĬ¤":7601,"æīĢ":7602,"Ġfil":7603,"ãģŁ":7604,"ĠìĽ¨ìĿ¼":7605,"Ġê¸°ëĮĢ":7606,"ĠìĬ¤íĶ¼ëĵľ":7607,"ĠíĺĦì§Ģ":7608,"ĠìķĦíĭ°ìĬ¤íĬ¸":7609,"ĠìĦ¸ìĿ¸íĬ¸":7610,"ê³µì£¼":7611,"ĠêµŃë¯¼ìĿĺ":7612,"ë¬¸ìĿ´":7613,"ìĺģìĥģ":7614,"Ġkr":7615,"Ġì¡°ìĦłì´Ŀëıħ":7616,"ĠìŀłìĪĺ":7617,"ê²¸":7618,"ĠìĿĺìĭĿ":7619,"ëıĻìľ¼ë¡ľ":7620,"Ġë¶ķê´´":7621,"ë¯¼ëĭ¹":7622,"ĠìĿ´ìĽĲ":7623,"Ġëĭ¬ëĿ¼":7624,"Ġë°©ìĨ¡ìĿ¼":7625,"Ġrem":7626,"ãĤĬ":7627,"ëĭĪì¹´":7628,"Ġì¹´ëĿ¼":7629,"Ġë¶Ħëį°ìĬ¤ë¦¬ê°Ģ":7630,"ĠìĹ¬ìļ°ì£¼ìĹ°ìĥģ":7631,"Ġê°Ģê²Į":7632,"ëĭīìĬ¤":7633,"Ġass":7634,"ëªħìľ¼ë¡ľ":7635,"Ġì°¨ì§ĢíĸĪëĭ¤":7636,"ìĺĢìľ¼ëĤĺ":7637,"Ġê¶¤ëıĦ":7638,"ĠëĮĢëıĻ":7639,"Ġë¸ĮëłĪìĿ´":7640,"ê³¨ìĿĦ":7641,"Ġë´Ħ":7642,"å³¶":7643,"ì¦Ĳ":7644,"Ġêµ°ëĭ¨":7645,"Ġì°½ëĭ¨":7646,"Ł¥":7647,"Ġê¸°ë¡Ŀíķľ":7648,"ìĺģìĿĺ":7649,"ĠìĪľíĻĺ":7650,"Ġì£¼ìµľ":7651,"ĠìĿ´ê²½":7652,"Ġblack":7653,"ĠìĥĪë²½":7654,"Ġê³łëł¤ìĿĺ":7655,"¡Ń":7656,"ĠìĦ¸ê³ĦëĮĢ":7657,"Ġê·¸ëŁ¬íķľ":7658,"Ġwwe":7659,"ĠëĤ¨ìķĦíĶĦë¦¬ì¹´":7660,"Ġë§ŀìĿ´":7661,"ĠìĿ¼ìŀĲ":7662,"Ġë°Ľê²Į":7663,"íĨłìĭľ":7664,"Ġëĭ¤ìĪĺ":7665,"ìĤ¼ë":7666,"Ġele":7667,"Ġì¡´ìŀ¬íķĺëĬĶ":7668,"Ġë©ĺ":7669,"ìľ¼ëĭĪ":7670,"éķ·":7671,"ĠìĿ¼ìĭľ":7672,"Ġíĺ¼íķ©":7673,"ĠìĿĺë¬´":7674,"ĠìĬ¤ì¹´":7675,"Ġìĺ¤ìĬ¤ë§Į":7676,"ì©":7677,"ëĤ´ë²ĦìĬ¤":7678,"ĠëĶĶìĬ¤íģ¬":7679,"ĠëıĦëª¨":7680,"ĠëıĮìķĦê°Ģ":7681,"Ġì½Ķë¯¹":7682,"Ġë°ĽëĬĶëĭ¤":7683,"Ġì¶ľìĹ°ìŀĳ":7684,"Ġìľłê¸°":7685,"íĬ¸ë¦Ń":7686,"Ġì£¼íĥĿ":7687,"Ġda":7688,"Ġíı´ë¦¬":7689,"ëģ¼ë¦¬":7690,"ì²¸":7691,"ê±°ëŀĺ":7692,"ç¯":7693,"êµ¬ìĻĢ":7694,"ĠíĺĦìĥģ":7695,"ĠëłĪì§Ģ":7696,"ĠëĦĺëĬĶ":7697,"ĠìŀĲìłĦ":7698,"Ġì¥Ĳ":7699,"Ġä¹Ŀ":7700,"ull":7701,"Ġê³Ħê¸°ë¡ľ":7702,"Ġìľ¨ë¦¬":7703,"Ġëį¸":7704,"ĠíĬ¹ìĿ´":7705,"Ġê°¤ëŁŃìĭľ":7706,"Ġê·¸ëķĮ":7707,"æ®":7708,"ëĳĺ":7709,"ì¹´ë¦¬":7710,"íķĺë£¨":7711,"ĠìĿ´ìĹĪëĭ¤":7712,"Ġì§Ħìķķ":7713,"ìĶ¨ìĿĺ":7714,"ĠëĤĺìĺ¨ëĭ¤":7715,"Ġir":7716,"ĠíĸĪëįĺ":7717,"ë¥´ê¸°":7718,"Ġê·¸ìĻĢ":7719,"ãĥª":7720,"ĠíĨłëĦĪ":7721,"ĠìĿ¸ìļ©":7722,"²Į":7723,"ì£ł":7724,"Ġë¸Ķë¡ľê·¸":7725,"ë©ĺíĦ°ë¦¬":7726,"é¾į":7727,"ç¶ĵ":7728,"íĬ¸ìĻĢ":7729,"Ġéķ·":7730,"ëĭ¨ì§Ģ":7731,"ĠìĦłìĪĺê°Ģ":7732,"Ġì¡°ì¹´":7733,"Ġë°Ķë¥´ìħĢë¡ľ":7734,"Ġê°Ģê³ł":7735,"Ġìĭ¤ì§Ī":7736,"ĠìĿ´íĻĶ":7737,"Ġì²ľì²´":7738,"ë¯¸ë¥¼":7739,"ãĥĥ":7740,"ĠìĪľìĪĺ":7741,"ons":7742,"Ġëħ¼ìĿĺ":7743,"Ĭ±":7744,"ĠëħĦìĿ´":7745,"Ġê·¸ëłĪìĿ´":7746,"ìľ¼ë¡ľëıĦ":7747,"Ġì¹´ë¥¼ë¡ľ":7748,"ĠíĴĭë³¼":7749,"Ġje":7750,"ìĹ°íŀĪ":7751,"ĠíĶ¼íķ´ë¥¼":7752,"íĥĢìĿĺ":7753,"ĠíĶ½ì²ĺìĬ¤":7754,"Ġëį°ìĿ´íĦ°ë²łìĿ´ìĬ¤":7755,"ë©į":7756,"Ġê³µìĤ°ì£¼ìĿĺ":7757,"Ġê°ĢìĦľ":7758,"ĠìĤ¬ë§ĿíĸĪëĭ¤":7759,"Ġíľ´ëĮĢ":7760,"ê¶ĮìĹĲ":7761,"ì¹´ëĿ¼":7762,"íĥ±":7763,"ì¦ĪëĬĶ":7764,"Ġever":7765,"ĠìłĦíĻĶ":7766,"Ġìĵ°ìĿ¸ëĭ¤":7767,"Ġìĵ°ê³ł":7768,"ĠìĪľì²ľ":7769,"ings":7770,"Ġdna":7771,"ĠìĿ´íĺ¼":7772,"ìĿ¼ë°ĺ":7773,"ĠìĪĺë¦¬":7774,"Ġä¸Ĭ":7775,"itt":7776,"Ġë¡ľëłĮ":7777,"stem":7778,"ĠíĺĦìĹŃ":7779,"ìĿ´ìĹĪìľ¼ë©°":7780,"ì§Ģë°©ëıĦ":7781,"ëī´ìĬ¤":7782,"Ġëħ¼ëŀĢìĿ´":7783,"Ġì½ľë¡¬":7784,"ĠìĤ¬ìłĦ":7785,"ĠíķľìĿ¼":7786,"Ġìĺ¤ìĬ¤íĬ¸ëłĪìĿ¼ë¦¬ìķĦìĿĺ":7787,"ì§ĦìĿ´":7788,"ĠìĥĿíĥľ":7789,"ìĻĢìĿ´":7790,"ican":7791,"ool":7792,"ìķ¨":7793,"è°·":7794,"ì¿Ħ":7795,"ĠíĥĢìľ¨":7796,"Ġsa":7797,"ëł¹ìĿĦ":7798,"ê·¸ëŀĺ":7799,"ĠìĹ¬ê¸°ìĹĲ":7800,"Ġcor":7801,"ĠìĨĮìĨįìľ¼ë¡ľ":7802,"yn":7803,"ĠìĤ¬íĺķ":7804,"Ġê°ľë¥¼":7805,"Ġå¹³":7806,"Ġê³µì¤ĳ":7807,"ĠìŀĳíĴĪìĿĦ":7808,"Ġë¶ĪìķĪ":7809,"Ã¶":7810,"ê³łê°Ģ":7811,"Ġì¶ķìłľ":7812,"ìĹŃìĿ´":7813,"ĠìĭľìĥģìĭĿ":7814,"Ġê°Ģì¹ĺ":7815,"Ġiv":7816,"ìĿ´ìĦ¼":7817,"ĠìĦ±ê·ł":7818,"Ġíı¬ë§·":7819,"ãĤĵ":7820,"ë¥´ëĤĺ":7821,"ĠëĮĢìļ°":7822,"Ġcro":7823,"rap":7824,"Ġë°ĽìĿĦ":7825,"ĠíŀĪê°Ģìĭľ":7826,"ĠíĶĦë¡ľê·¸ëŀ¨ìĿĦ":7827,"ĳ¤":7828,"ĠìĤ¬ìļ©ìŀĲ":7829,"Ġì¹łëłĪ":7830,"ĠìľłìĤ¬íķľ":7831,"cd":7832,"ĠêµĲíĸ¥":7833,"ĠëĤĺíĥĢëĤ´ëĬĶ":7834,"Ġëĭ«":7835,"ĠìķĪëĤ´":7836,"íĥĢëĭĪ":7837,"íĻĶíķľ":7838,"ìĨĮëħĢ":7839,"Ġdream":7840,"ì¹´ëĤĺ":7841,"ì½ķ":7842,"ìłĦê³µ":7843,"ì§ĪìĿĦ":7844,"å®ĺ":7845,"ĠìĿ´ë¯¸ì§Ģ":7846,"åłĤ":7847,"ë¶Ģìŀ¥":7848,"Ġì²Ńì¶ĺ":7849,"ë°ķìĬ¤":7850,"ĠìŀĩëĬĶ":7851,"Ġìŀ¬ëĭ¨":7852,"Ġê²½ê¸°ëıĦìĿĺ":7853,"íķĺìļ°ìĬ¤":7854,"Ġìľłíĸī":7855,"ĠìĹŃìĤ¬ìłģ":7856,"ìľłìĿĺ":7857,"ĠìĪľìĦľ":7858,"ëĦ¤ìĿ´":7859,"ìĤ¬ì¹´":7860,"Ġê³µìŀ¥":7861,"ĠìĹ¬ëıĻìĥĿ":7862,"ĠìĬ¤ìĽ¨ëį´ìĿĺ":7863,"ëľ¨":7864,"ë¯¸ê°Ģ":7865,"ĠìĿ´ë°Ķ":7866,"ãģ¨":7867,"Ġì°½ìŀĳ":7868,"Ġìĭľìŀĳìľ¼ë¡ľ":7869,"Ġë¬¶":7870,"ĠìłĦìĽĲ":7871,"Ġë°ľê²¬ëĲľ":7872,"ëıĻìĿ´":7873,"ä¸Ĭ":7874,"ĠìĺĽ":7875,"ĠëĨĴìķĦ":7876,"ĠíĮ½":7877,"ìłķë¦¬":7878,"ìłķìĽĲ":7879,"Ġìĭ¤ìĤ¬":7880,"ĠëıĦë¯¸":7881,"ĠíĽĮ":7882,"Ġíį¼ë":7883,"ĠëĮĢíĨµëł¹ìĿ´":7884,"Ġì¤ĳìĿ´ëĭ¤":7885,"Ġë§Īì§Ģë§īìľ¼ë¡ľ":7886,"Ġíĸ¥íķ´":7887,"ìĸ¸ìĬ¤":7888,"Ġë°ľíĳľíķĺìĺĢëĭ¤":7889,"Ġìĭłë¶Ħ":7890,"Ġì¹´ëĤĺ":7891,"Ġcolle":7892,"ĠíĶĦë¡ľê·¸ëŀĺë°į":7893,"ë©´ìĿĺ":7894,"Ġì£¼ìłľ":7895,"Ġë¦¬ëĵľ":7896,"Ġìŀ¬ìĤ°":7897,"Ġê¸īíĸī":7898,"ë§Īë¥´":7899,"ĠìĨĮìĨ¡":7900,"ĠìĿ´íĽĦìĿĺ":7901,"ê°ĢìĹĲ":7902,"sc":7903,"Ġìĸ´ëĸłíķľ":7904,"ĠëĮĢíĻĶ":7905,"Ġê°ķìłĦ":7906,"Ġíı´":7907,"ĠëĤĺíĥĢëĤľëĭ¤":7908,"åı²":7909,"çĩ":7910,"ĵ¤ê³¼":7911,"ìĭ¤ìĿĺ":7912,"ĠìĿ´ë¦ĦìĿĺ":7913,"Ġê¹ĥ":7914,"ì½§":7915,"Ġë°Ģìĸĳ":7916,"ĠëĤĺìĻĶëĭ¤":7917,"ĠëģĿëĤľ":7918,"Ġë°ķìłķíĿ¬":7919,"Ġìĺ¤íĶĦëĭĿ":7920,"Ġì¡°ìłĪ":7921,"Ġì¶ķêµ¬ëĭ¨":7922,"ë¡ľìĦľìĿĺ":7923,"ì§Ģë°©ë²ķìĽĲ":7924,"ĠìļĶê¸Ī":7925,"Ġë§Īë¥´íģ¬":7926,"ĠëĲĺë©°":7927,"Ġê³µìĭĿìłģìľ¼ë¡ľ":7928,"å§":7929,"íģ´ëŁ½":7930,"ĠìĹĺë¦¬ìŀĲ":7931,"ĠìĿµìĬ¤":7932,"Ġì¶ľëł¥":7933,"Ġout":7934,"èĩ£":7935,"¨ìĿĦ":7936,"Ġä¸ģ":7937,"Ġìĭ«":7938,"Ġê°ľëªħ":7939,"Ġì£½ìĹĪëĭ¤":7940,"ble":7941,"ìĿ´ë©´":7942,"Ġê²½ê¸°ëĬĶ":7943,"ĠìĪĺíķĻìŀĲ":7944,"êµŃìĹĲ":7945,"¡¬":7946,"Ġëĵľë¦¼":7947,"Ġì¹´ë¥´":7948,"Ġmov":7949,"ì¹ĺìĺ¤":7950,"ĠìķĬìľ¼ë©°":7951,"ĠìĿ¼ìĿĺ":7952,"ĠëıĻìĭľ":7953,"íħĮë¥´":7954,"ĠëĮĢìłĦê´ĳìĹŃìĭľ":7955,"Ġìĭľê°ĦëĮĢ":7956,"ĠëĲĺìŀĲ":7957,"ìĦĿìĿ´":7958,"è¨ĺ":7959,"ëŀĲëĭ¤":7960,"ì¹ĺìķĦ":7961,"íļĮìĹĲìĦľ":7962,"ĠìłľìĻ¸íķĺê³ł":7963,"Ġê²¸ìŀĦ":7964,"ìĸ´ìł¸":7965,"íĩ":7966,"ĠìĺģìĽĲ":7967,"Ġhistory":7968,"§ĮìĹĲ":7969,"Ġê´ĳìĹŃ":7970,"ìĿ¸ìĿ´ëĭ¤":7971,"Ġì¢ĭìķĦíķĺëĬĶ":7972,"ĠìķĦëĵ¤ë¡ľ":7973,"ĠíĬ¸ìľĪ":7974,"ĠíĮĮìķħ":7975,"Ġë¬¸ëªħ":7976,"Ġê·¸ë§Į":7977,"ëĤĻ":7978,"êµŃëĮĢíķĻêµĲ":7979,"Ġspec":7980,"Ġêº¾":7981,"ĠìĿ¼ì¹ĺ":7982,"ĠìľĦëĮĢíķľ":7983,"Ġì¢ģ":7984,"êµ¬ì¡°":7985,"ë¶ĢìĹĲìĦľ":7986,"Ġê³¼íķĻìŀĲ":7987,"íļĮê´Ģ":7988,"Ġê°Ħíĸī":7989,"ĠìĿ´ëĵ¤ìĿĺ":7990,"Ġê°Ģë§Ī":7991,"ĠìĽĶê°Ħ":7992,"ĠìĿ´ëĿ¼ê³łëıĦ":7993,"Ġìļ´ëıĻìĿĦ":7994,"ple":7995,"Ġëª©íĳľë¡ľ":7996,"Ġê°ľìĭłêµĲ":7997,"Ġmod":7998,"ìŀĳê°Ģ":7999,"Ġë¬´ìĭľ":8000,"å¤ª":8001,"Ġë¶Ħëħ¸":8002,"ĠíŀĻíķ©":8003,"Ġë¶ĦìľĦ":8004,"Ġíı¬ëıĦ":8005,"ëĿ¼ìĿ´íĦ°":8006,"ëł¤ëĬĶ":8007,"Ġë©Ģë¦¬":8008,"Ġbbc":8009,"íħĶëłĪ":8010,"Ġìľłíļ¨":8011,"Ġë³´ê±´":8012,"ĠìŀĦê¸Ī":8013,"íħĮìĵ°":8014,"Ġë¬¸íĻĶìŀ¬ìŀĲë£Į":8015,"ç¿":8016,"¸ë°Ķ":8017,"Ġì§Ŀ":8018,"ĠíĻķë¥ł":8019,"ãģĹ":8020,"ĠìĽ°":8021,"Ġëª¨ìĹ¬":8022,"enn":8023,"³æĹ¥":8024,"ãģĭ":8025,"íķ´êµ°":8026,"å¸Ĥ":8027,"inc":8028,"ìĮį":8029,"ìĹ°ê¸°ìĥģ":8030,"ĠíħĲ":8031,"ëħ¸ë¯¸ìķ¼":8032,"Ġì§ĢìĿĢ":8033,"ĠìĹĲë¦Ń":8034,"Ġë§ĮìĽĲ":8035,"Ġë©Ķë¦¬":8036,"ĠçĶ²":8037,"ĠìĥģìľĦ":8038,"Ġíĺ¸ëĬĶ":8039,"ĠìĭľìŀĳíķĺìĹ¬":8040,"íĺģëªħ":8041,"Ġì¶ĺì²ľ":8042,"Ġsong":8043,"ĠìĪľê°Ħ":8044,"ĠìĿ´ì§Ħ":8045,"ĠíĮĮê´´ë":8046,"ĠìĿ¼ë¦¬":8047,"ìłķìľ¼ë¡ľ":8048,"Ġë¬´ë£Į":8049,"ĠìĿ¸ë¥ĺ":8050,"ê²łëĭ¤ëĬĶ":8051,"ĠìĨĮìĦ¤ê°Ģ":8052,"ĠìĪĺíĽĪìŀĲ":8053,"ìĤ¬ìļ°":8054,"íĭ°ëħ¸":8055,"ĠíĺĪìķ¡":8056,"ë°Ķìĭľ":8057,"Ġnor":8058,"ĠìĻķìŀĲ":8059,"éĥ½":8060,"ĠëĤ¨ëħĢ":8061,"Ġê³łêµĲ":8062,"ĠìĬ¹ìĿ¸":8063,"æĿĳ":8064,"ê³łë¦¬":8065,"Ġê²ĥìĿ´ë©°":8066,"Ġê³§":8067,"ì²Ńìŀ¥":8068,"Ġì¡°ì§ĢìķĦ":8069,"ë¦¬ì¹´":8070,"ĠìłĦì§ģ":8071,"ĠìľłíĬľë¸Į":8072,"ìĤ°íĻĶ":8073,"ĠëĶĶìĬ¤":8074,"ĠíķĺëĤĺëĬĶ":8075,"ĠìĥĪê²¨":8076,"ìĸ´ë²Ħë":8077,"ĠìķĦë²Ħì§ĢëĬĶ":8078,"Ġê²½ìļ°ìĹĲ":8079,"ìľ¼ë¡ľìĦľìĿĺ":8080,"ĠìĦľë¹ĦìĬ¤ë¥¼":8081,"Ġë°ķì§Ģ":8082,"Ġë³Ģíĺķ":8083,"ì§Ģë©´":8084,"ĠìķĬìķĺê³ł":8085,"ĠìĿ´ê¸Ģ":8086,"Ġìĺ¬ëł¤":8087,"íķĺìĺĢì§Ģë§Į":8088,"ë§Īì¹ĺ":8089,"Ġì§Ģê¸ĪìĿĢ":8090,"ĠìĹ¼ë":8091,"íĮ¡":8092,"Ġib":8093,"ĠìĤ¬ìļ©ëĲĺê³ł":8094,"ĠíĥĢê²©":8095,"Ġê°ĸëĬĶ":8096,"Ġë¹łë¥´ê²Į":8097,"ìĹĲìĦł":8098,"ëĲĺë©´":8099,"ĠëĤĻìĦł":8100,"ê¸°êµ¬":8101,"Ġë³´ìĬ¤íĦ´":8102,"ê³µìĭł":8103,"Ġìº¡":8104,"Ġìĥģë¬´":8105,"Ġë¶ĪëłĢëĭ¤":8106,"ĠíĽĪìŀ¥":8107,"Ġë§Ĳìķĺëĭ¤":8108,"Ġê·¸ëŀľëĵľ":8109,"Ġë§Ŀëªħ":8110,"ê¸°ìĹĲëĬĶ":8111,"Ġë¶ĢëıĻ":8112,"Ñĥ":8113,"Ġê°Ģì§Ħëĭ¤":8114,"ĠìĦ±ê²½":8115,"Ġê³¡ìĿĦ":8116,"ìĬ¤íı¬ì¸ł":8117,"Ġìļ°ëł¤":8118,"Ġë¬¸ìŀ¥":8119,"é¤":8120,"ĠìĿ´ìĽĥ":8121,"Ġë¯¼ì¤ĳ":8122,"ĠìĪĺìĥģíĸĪëĭ¤":8123,"įĶìĬ¤":8124,"Ġì¹´ì¦Ī":8125,"ĠìľłìĿ¼íķĺê²Į":8126,"íĻĪ":8127,"Ġëĭ¤ìĪĺìĿĺ":8128,"Ġì£¼ê¸°":8129,"Ġìŀ¬ëĬ¥":8130,"ì²ľëıĻ":8131,"Ġì½ĶëĤľ":8132,"ÃŃ":8133,"ë¦¬ê²Į":8134,"ĠìĭľëĤ´":8135,"ĠìĦľìļ¸ë":8136,"Ġíĺķíĥľë¥¼":8137,"ê±´ìĿĦ":8138,"ĠçŁ³":8139,"ìĬ¤ì¼ĢìĿ´":8140,"íı¬íĬ¸":8141,"ĠëıħíĬ¹":8142,"ĠíĻįë³´ë":8143,"ëĮĢë¶Ģ":8144,"Ġë°ľëªħ":8145,"ĠìĬ¤íĮĮìĿ´":8146,"Ġcal":8147,"ĠìłĦìŁģìĿĺ":8148,"íĶĦëŀĢ":8149,"æ¬":8150,"ĠìķĦë²ł":8151,"ë²łë¦¬":8152,"Ġì½ľë¡ľ":8153,"ĠìķĮëłĪ":8154,"ĠìĺģëıĻ":8155,"ĠìķĦíĭĢ":8156,"ìĹĲìĦľë§Į":8157,"Ġë¯¸ëĦ¤":8158,"ĠìłĦìĭł":8159,"Ġë¬¸ìłľë¡ľ":8160,"Ġnat":8161,"ĠìĬ¹ë¶Ģ":8162,"Ġìĸ´ëĵľ":8163,"ĠìĿ¼ì°į":8164,"ê°ķìĿĺ":8165,"Ġë°ĺëĮĢë¡ľ":8166,"ĠìĽĶìļĶìĿ¼":8167,"Ġì¤Ģëĭ¤":8168,"ĠíĪ":8169,"íķ©ëĭĪëĭ¤":8170,"ê³łìĿĺ":8171,"ë¬´ëĮĢ":8172,"ìŀ¬ëĭ¨":8173,"ĠíĽĦìĽĲ":8174,"ĠìĹŃìĿ´":8175,"ĠìłķíĻķíķľ":8176,"Ġê°ĢìĬ´":8177,"Ġë¹Įë³´ëĵľ":8178,"ĠëĦ¤ëįľëŀĢëĵľìĿĺ":8179,"ë¦¬ëħ¸":8180,"ë¬µ":8181,"ìĪŃìĿ´":8182,"Ġìĩ¼ë":8183,"ĠìĿ´ë£¬ëĭ¤":8184,"ins":8185,"Ġê´ĳì£¼ê´ĳìĹŃìĭľ":8186,"ìķĦëĭĪìķĦ":8187,"Ġê°ľìĽĲ":8188,"ê³ĦìĹ´":8189,"Ġì¶ľìĭłìľ¼ë¡ľ":8190,"Ġlink":8191,"Ġpre":8192,"Ġë©Ģíĭ°":8193,"Ġê·¸ëłĩê²Į":8194,"Ġsystem":8195,"ĠìĪĻì¢ħ":8196,"ĠìĿĺì¡´":8197,"ĠíķĺìĺĢìľ¼ëĤĺ":8198,"ĠìĪĺíĺ¸":8199,"Ġì¦Ī":8200,"Ġche":8201,"Ġë°©ìłķ":8202,"Ġê°ķëĵ±":8203,"Ġìĭ¬íĮĲ":8204,"ĠìĹĶëĶ©":8205,"ĠíĭĢ":8206,"ĠìķĪìĤ°":8207,"ĠëŁ¬ìĭľ":8208,"ĠëĳĶ":8209,"Ġíĺ¼ìŀĲ":8210,"ìĿĮìĹĲëıĦ":8211,"ì§Ģìłķ":8212,"ì§ĢìĿ¸":8213,"ĠìĦ±ìĶ¨":8214,"ĠìĬ¹ì§Ħ":8215,"ëĵľëĿ¼":8216,"ĠìĹ°ìĬµ":8217,"Ġce":8218,"ĠíĥĢì¼Ģ":8219,"¬´ë¥¼":8220,"Ġê¸¸ìĿĦ":8221,"ìłĦê³¼":8222,"íĻĶìĻĢ":8223,"ìĸ´ëĤ´":8224,"Ġpubl":8225,"Ġì²łìĪĺ":8226,"Ġë¶Ħëªħ":8227,"ëħ¸ìĿ´":8228,"Ã¤":8229,"Ġì²ĺíĺķ":8230,"Ġì²ľë§Į":8231,"ĠìłĦëĭ¹":8232,"Ġëĭ¹ìĭľìĹĲëĬĶ":8233,"ĠëĿ¼ìĿ´íĶĦ":8234,"ĠíķłìķĦë²Ħì§Ģ":8235,"ĠìĿ¼ë¡ľ":8236,"ĠìºĦ":8237,"Ġìĭľìŀĳíķľëĭ¤":8238,"ê³Ħìķ½":8239,"ãĥĪ":8240,"Ġê·¸ëĵ¤ìĿ´":8241,"ëĿ¼ëĶĶ":8242,"ë¹Ħë¡ľ":8243,"Ġíĳ¸ë¥¸":8244,"ĠëıĻìĦľ":8245,"Ġpet":8246,"ĠìĹĲìĸ´ë":8247,"Ġlo":8248,"ames":8249,"ĠìĤ¬ìŀĦ":8250,"Ġìĭľì¡°":8251,"ĠìĤ¿":8252,"ì¹ĺê¸°":8253,"Ġë²Ħë¦¬":8254,"Ġê°ľë°ľíķľ":8255,"ĠìķŀìĹĲìĦľ":8256,"Â²":8257,"ĠíĮĶëłĪ":8258,"Ġalb":8259,"Ġìĭ¸ìĽĢ":8260,"íĨµìĿĦ":8261,"Ġëĭ¬ëł¤":8262,"Ġíı¬íķ¨íķľëĭ¤":8263,"Ġrad":8264,"Ġê°Ģì¡Įëĭ¤":8265,"ìŀ¬ë¥¼":8266,"ars":8267,"æŀĹ":8268,"Ġë°ķê·¼":8269,"Ġíķ´ë³ĳ":8270,"ìĨĮìĻĢ":8271,"ëł¥ìľ¼ë¡ľ":8272,"ìĥīìĿĺ":8273,"íĺ¸ë¡ľ":8274,"ë¦´ëŁ¬":8275,"ê³łëĬĶ":8276,"ĠìĦ¸ìĥģìĿĦ":8277,"Ġnight":8278,"ĠìĹŃìŀĦíĸĪëĭ¤":8279,"Ġë¯¸ë¦¬":8280,"ĠìĿ´ëĿ¼íģ¬":8281,"Ġsuper":8282,"ì¹ľëĭ¤":8283,"ë¡ľìļ°":8284,"ëĳ¥ìĿ´":8285,"íĪ¬íĳľ":8286,"ìļ´ë¡ľ":8287,"ĠìĽĶíĻĶëĵľëĿ¼ë§Ī":8288,"ĠíĴįë¶Ģ":8289,"éİŃ":8290,"ê²½ì°°ìĦľ":8291,"ĠëıĻë¶ģ":8292,"ìĨĮìĪĺ":8293,"ĠìłĲìĪĺ":8294,"æŃ¦":8295,"Ġëª¨ìĸĳìĿĺ":8296,"Ġì£¼ìĭĿíļĮìĤ¬":8297,"ëĮĢêµĲ":8298,"Ġê¸ĢìĿĦ":8299,"ĠìĺĪìłķìĿ´ëĭ¤":8300,"ĠìĦłë°ķ":8301,"Ġìĭłìŀ¥":8302,"ĠìķĪëħķ":8303,"Ġìĺ¤ë¦¬ì½ĺ":8304,"Ĥ³":8305,"Ġåħĥ":8306,"ĠìĦľë¸Į":8307,"Ġë£¨íĥĢ":8308,"Ġìļ¸ë":8309,"Ġê¸°ë³ĳ":8310,"ĠíĶĮëłĪìĿ´ìĬ¤íħĮìĿ´ìħĺ":8311,"ìĤ¬ëł¹ë¶Ģ":8312,"ìĦľêµ¬":8313,"Ġì²łëıĦìĹŃìĿ´ëĭ¤":8314,"ĠìķĦìĽĥ":8315,"Ġì¹´íİĺ":8316,"ĠìĦ±ê·łê´Ģ":8317,"ee":8318,"Ã³":8319,"ıĻìķĪ":8320,"ìķµ":8321,"êµ¬ë¦¬":8322,"êµŃìľ¼ë¡ľ":8323,"ĠëĤĺíĥĢëĤ¸ëĭ¤":8324,"çı":8325,"ĠëıĮìķĦìĺ¨":8326,"ĠíķĦë¦½":8327,"Ġê¸¸ë":8328,"ĠìĿ´íĺĦ":8329,"ĠêµĲêµ¬":8330,"Ġë¬¸íĻĶë°©ìĨ¡":8331,"Ġê¸°ëıĻ":8332,"Ġíķ´ìĹĲ":8333,"ë¦¬íķĻ":8334,"ê³µë¦½":8335,"ĠìĦ±ìĿĦ":8336,"ĠìĨįëıĦ":8337,"ê¹Ķ":8338,"ë°Ķë¡ľ":8339,"Ġíıīê°Ģë¥¼":8340,"ìĦłê³¼":8341,"Ġê°ľê°Ģ":8342,"Ġëĺĳ":8343,"Ġê·¸ëŀĳ":8344,"ĠíĶĦë¦¬ëĵľë¦¬":8345,"ement":8346,"Ġë©ĶíĬ¸ë¡ľ":8347,"ĠìĿ¼ë¶Ģë¥¼":8348,"ê¸°ì§Ģ":8349,"Ġìĺģëĵ±":8350,"¬¸íĻĶ":8351,"íĬ¸ë¹Ħ":8352,"ë¶ĢëĮĢ":8353,"Ġíĺ¸ëĤ¨":8354,"Ġì¶¤":8355,"ĠìĹĨìľ¼ë©°":8356,"ìłĪíķľ":8357,"ç¥ĸ":8358,"ëł¥ê³¼":8359,"ĠìķĬê²Į":8360,"Ġdon":8361,"ca":8362,"ĠìĿ´ìĪľ":8363,"umb":8364,"íı´ë¦¬ìĬ¤":8365,"íĻ©íĽĦ":8366,"Ġê³¨íĤ¤":8367,"ĠìĭľíĿ¥":8368,"Ġë°ĶëĿ¼ë":8369,"Ġë°ĶëĢĮìĹĪëĭ¤":8370,"ìĻķìĿ´":8371,"ĠìĹ´ëł¸ëĭ¤":8372,"ëĦĮ":8373,"ĠìĦ¼íĬ¸ë":8374,"ution":8375,"Ġê°Ģìĥģ":8376,"ĠíķĺìĺĢìľ¼ë©°":8377,"ĠìĿ¸ì¹ĺ":8378,"Ġìĭľë§Ī":8379,"Ġë¬´ëĦĪ":8380,"Ġë¯¼ì£¼ì£¼ìĿĺ":8381,"é«ĺ":8382,"íħĮìĿ´":8383,"Ġë¸ĮëĿ¼ìĿ´ìĸ¸":8384,"éº":8385,"ì¹ľêµ¬":8386,"Ġíķĺì°¨":8387,"ĠìĨįíķľëĭ¤":8388,"ĠíĢ¸":8389,"ê¸°ê²½":8390,"ĠìķĦê°Ģ":8391,"ĠìĬ¤ë¦´ëŁ¬":8392,"Ġìĭ±ìĸ´ìĨ¡":8393,"ĠìĤ¬ì§ģ":8394,"ĠìķĦíĮĮíĬ¸":8395,"Ġìĥģì£¼":8396,"ĠëģĿëĤ´":8397,"Ġê°Ģì§ĢëĬĶ":8398,"¦¼":8399,"Ġíĳľì°½":8400,"Ġê´Ģê³Ħê°Ģ":8401,"Ġìłľì£¼íĬ¹ë³ĦìŀĲì¹ĺ":8402,"Ġì¡°ëªħ":8403,"ĠíĶĦ":8404,"¨¹":8405,"way":8406,"Ġê²½ìĥģëĤ¨ëıĦìĿĺ":8407,"Ġìĺ¤ìĦ¸":8408,"Ġmr":8409,"ëĴ":8410,"Ġê°Ģê³µìĿĺ":8411,"ĠìķĮëł¤ì¡Įëĭ¤":8412,"Ġê°Ģë¦¬íĤ¨ëĭ¤":8413,"Ġred":8414,"Ġë¡ľë¹Ī":8415,"Ġë¬´ë¹Ħ":8416,"ìĦ¤ìĿĦ":8417,"ì¡°ìłķ":8418,"Ġë°ķìĦ±":8419,"ĠìĻķìĿĺ":8420,"Ġëĭ¤íģĲë©ĺíĦ°ë¦¬":8421,"Ġíķ©ì³Ĳ":8422,"ĠìĿ´ìĦ¸":8423,"å£«":8424,"ĠìĿ¸ì§Ģ":8425,"Ġíİ¸ì°¬":8426,"Ġë¹ĮëĶ©":8427,"ĠìĹ°ê´Ģ":8428,"Ġêµ°ëĮĢë¥¼":8429,"ĠìłĲìłĲ":8430,"Ġìĭłíķľ":8431,"ë®¬":8432,"Ġëıķ":8433,"Ġëļľ":8434,"vel":8435,"Ġì¹´ìŀĲ":8436,"Ġìŀħìŀ¥":8437,"ĠäºĶ":8438,"ìłķëĭ¹":8439,"Ġê°Ģë¬¸ìĿĺ":8440,"ĠìķĦìķ¼":8441,"ĠëĦ·":8442,"ĠìĹ°ê°Ħ":8443,"Ġì¹¨ëŀµ":8444,"ĠìŀŃìĬ¨":8445,"ĠíĶ¼ë¶Ģ":8446,"ha":8447,"Ġì°¨ë³Ħ":8448,"Ġè¾Ľ":8449,"ĠíĶĦë¡ľìĿ´ìĦ¼":8450,"Ġëĵ¤ê³ł":8451,"ĠëĳĺëŁ¬ìĭ¸":8452,"ĠìķĪìĦ±":8453,"ĠíĥĢìŀħ":8454,"Ġë©°":8455,"´ëĭ¤":8456,"ĠëĤĺíı´ëłĪ":8457,"ĠëıĻê²½":8458,"ĠìĸĳìĤ°":8459,"Ġìĭľë¦¬ìķĦ":8460,"íĨłìĿĺ":8461,"Ġë¯¸êµŃìĹĲ":8462,"Ġêµ¬ë§Ī":8463,"ë¥¸ë":8464,"ìĽĲê³¼":8465,"ĠìĻ¸ê³Ħ":8466,"ĠíıŃìĬ¤":8467,"ĠìĿĮìĦ±":8468,"Ġìĭ±ìĸ´ìĨ¡ëĿ¼ìĿ´íĦ°":8469,"¢¨":8470,"éĻµ":8471,"ner":8472,"ĠìĿ´ìŀĲ":8473,"ĠìĤ¬ìĸĳ":8474,"Ġëĵ¯":8475,"Ġìľłìłģ":8476,"Ġê¼Ń":8477,"ìĬ¬ë¡ľ":8478,"íĺĳìĿĺíļĮ":8479,"è·":8480,"Ġë§Īë¬´":8481,"ĠìŀĳíĴĪìĿ´ëĭ¤":8482,"ĠíķĺëĤĺìĿ¸":8483,"Ġdel":8484,"ìĦłìĥĿ":8485,"Ġë¶Ģíĥģ":8486,"ëĸ":8487,"Ġë§ĪìĿĮìĿĦ":8488,"Ġì¤ĳì¶Ķ":8489,"Ġë§ĲíķĺëĬĶ":8490,"ke":8491,"Ġì§Ģê¸Īê¹Įì§Ģ":8492,"Ġtra":8493,"Ġë¯¸íĤ¤":8494,"Ġê°ĲìĹ¼":8495,"ë¬´ë¡ľ":8496,"Ġæī":8497,"ĠìĿ¼ë¶ĢëĬĶ":8498,"Ġë°©ë²ķìľ¼ë¡ľ":8499,"Ġíİĺë¥´ìĭľìķĦ":8500,"åĸĦ":8501,"ĠëĮĢê°ľ":8502,"Ġhigh":8503,"ĠìĤ¬ê²©":8504,"íķĻìĹĲìĦľ":8505,"ĠëªħíĻķ":8506,"ĠíĳľíĺĦë":8507,"ĠíĸīìľĦ":8508,"Ġêµ¬ê¸Ģ":8509,"Ġê¹ĢìĬ¹":8510,"ë°©íĸ¥":8511,"Ġìĸ´ê¹¨":8512,"Ġë£¨ìĪĺ":8513,"Ġå°ı":8514,"ìĤ¬ëŀĮ":8515,"iam":8516,"ĠíĽĦë³´ë¡ľ":8517,"íĤ·":8518,"ĠëĤ¨ê·¹":8519,"ê¹¥":8520,"Ġmas":8521,"çŃī":8522,"íķ´ê°Ģ":8523,"íĨłë¯¸":8524,"ĠìĹĨëĭ¤ëĬĶ":8525,"ìŀħêµ¬":8526,"ĳł":8527,"ì½ĶíĶĦ":8528,"åĮĸ":8529,"ĠìĭĿë¬¼ìĥģ":8530,"ì£¼ì¿ł":8531,"ated":8532,"Ġë²Īì£¼":8533,"ëŀŃ":8534,"Ġë©Ķê°Ģ":8535,"ĠìĿ´ë¤Ħ":8536,"ĠìŀĪìĿĮìĿĦ":8537,"Ġì£¼ë¬¸":8538,"Ø§":8539,"Ġì¥¬":8540,"ĠìľłëĭĽ":8541,"Ġì´Īìĥģ":8542,"åĥı":8543,"Ġì²ĺë²Į":8544,"Ġëª»íķĺëĬĶ":8545,"ìłķëıĻ":8546,"ì±ħìĿĦ":8547,"Ġìłĳì´ī":8548,"ĠëŃ":8549,"Ġdav":8550,"Ġë³ĳíķ©":8551,"ĠíķĺëĬĲ":8552,"ĠíĶĦë¡ľë¦¬ê·¸":8553,"ĠìĤ¬ìļ©ëĲľ":8554,"Ġëĭ¤ìĬ¤":8555,"ĠëłĪë²¨":8556,"ĠìĦ¸ìĽĶ":8557,"Ġë°Ķëĳĳ":8558,"ĠìķĪìĹĲìĦľ":8559,"Ġê¸°ë¡ĿìĿ´":8560,"ĠìĽĲìĿ¸":8561,"Ġíıīë¡łê°Ģ":8562,"ë©ľ":8563,"Ġstation":8564,"ĠëĵľëŁ¼":8565,"Ġë°Ķê¹¥":8566,"Ġë§ĲìĹĲ":8567,"cy":8568,"ìĽĲìĹĲìĦľ":8569,"ĠìĿ¸ëıĦìĿĺ":8570,"Ġë§Īì¹¨ëĤ´":8571,"ĠìĭłëıĻ":8572,"Ġì²łëıĦìĿĺ":8573,"ìĭĿíĴĪ":8574,"ë³´ìĿ´":8575,"ê°ĢëĬ¥":8576,"ê³µìĤ°":8577,"Ġkia":8578,"Ġíĸīëł¬":8579,"Ġìĭľì¦ĮìĹĲ":8580,"Ġê¸¸ìĿ´ëĬĶ":8581,"ìĽĲêµ¬":8582,"Ġíĥľì¡°":8583,"Ġbu":8584,"ĠìĦľê¸°":8585,"Ġpp":8586,"å¡":8587,"able":8588,"¬ĺ":8589,"ĠìĿ´ë³ĳ":8590,"íĭ°ìĺ¤":8591,"Ġë¹Ħíıīê°Ģ":8592,"ë¦¬íĥĢ":8593,"Ġìŀ¬ë°°":8594,"ĠëĤ´ìļ©ìĿĢ":8595,"Ġíģ¬ë¦¬ìĬ¤íĭ°":8596,"Ġëĵ£ê³ł":8597,"Ġgood":8598,"Ġob":8599,"Ġëĵ¤ìĸ´ìĦľ":8600,"ëĵ¤ìĸ´":8601,"ìĿ´ìĹĪì§Ģë§Į":8602,"ĠëĬĲëģ¼":8603,"ê¸°ê¹Įì§Ģ":8604,"Ġä¸Ļ":8605,"Ġê±°ìłľ":8606,"ĠíĺĲìĿĺë¡ľ":8607,"ena":8608,"ë³´íĨµ":8609,"Ġìļ´ëªħ":8610,"Ġìłķì±ħìĿĦ":8611,"íĹ¤ìĿ´":8612,"Ġang":8613,"Ġì¹¨ìŀħ":8614,"¶Ģë¥´íģ¬":8615,"ĠëĮĢì¡°":8616,"ëĭĪê¹Į":8617,"ĠìĹ°íĺ¸":8618,"íı´ë¦¬":8619,"ĠìĦ¸ìĹĲ":8620,"ìĦ¸ê°Ģ":8621,"arch":8622,"Ġìĺ¤ëŀ«":8623,"ĠëıĪìĿĦ":8624,"ĠìĬ¤ì¦ĪíĤ¤":8625,"ì§Ħêµ°":8626,"ìĿ´ë¯Ģë¡ľ":8627,"Ġì§ľ":8628,"ĠëĮĢíķĻêµĲìĹĲìĦľ":8629,"Ġend":8630,"çİ":8631,"ĠíĨ¤":8632,"Ġìĭłì²´":8633,"Ġì¿łëį°":8634,"Ġæ°¸":8635,"ĠìĤ½ìŀħ":8636,"ıĮ":8637,"Ġì§ĳìķĪ":8638,"ĠèĪ":8639,"ĠìĤ¬íĩ´":8640,"ë²łë¥´íģ¬":8641,"Ġê´Ģëł¨ìŀĲ":8642,"Ġìĺ¤íĥĢ":8643,"Ġcap":8644,"ĠëıĦìĦľ":8645,"Ġë¶Īì°¸":8646,"Ġë§¡ìķĦ":8647,"ĠìĤ¬ì¿łëĿ¼":8648,"Ġìį":8649,"Ġìłľìŀĳíķľ":8650,"ëĮĢìŀ¥":8651,"ĠëĬĳ":8652,"ĠìĥģìĦ¸":8653,"Ġyour":8654,"ìĿĮìĿ´":8655,"ĠíĺĦìŀ¥":8656,"Ġë°±ë§Į":8657,"êµĲìľ¡ì²Ń":8658,"Ġìį¼ëĭ¤":8659,"ĠìĥģìĨį":8660,"Ġìĵ°ìĿ´ëĬĶ":8661,"ĠìĬ¹ëł¤":8662,"Ġë°ľë§¤ëĲľ":8663,"Ġë³´íĹĺ":8664,"ĠìĤ¬ëŀĮëĵ¤ìĿĺ":8665,"ìķłëĤĺ":8666,"ott":8667,"Ġë¯¸ì¦Ī":8668,"ĮĢìĤ¬":8669,"Ġê³µê²©ìĪĺ":8670,"ì¹¸ìĦ¼":8671,"ĠíĮĮíĭ°":8672,"Ġë¹¨ê°Ħ":8673,"Ġbi":8674,"ëł¥ìĹĲ":8675,"ĠíĬ¹ê¸ī":8676,"ĠíĿĺëŁ¬":8677,"Ġëĭ¤ë£¬":8678,"ĠìĹ°êµ¬ë¥¼":8679,"ĠìľĦì¹ĺíķľëĭ¤":8680,"Ġì£¼ìĹ°ìľ¼ë¡ľ":8681,"ĠìķĦìĹŃ":8682,"ĠìķĦì¼Ģ":8683,"Ġíķ¨ëĿ½":8684,"ê³łì§Ģ":8685,"ê³ĦìĹĲìĦľ":8686,"ìĭ¤ìĿĢ":8687,"ĠëıĻíĻĶ":8688,"Ġíİ¼ì³Ĳ":8689,"ĠìĹĦì²ŃëĤľ":8690,"ëį°ìĬ¤":8691,"ìĺģíĻĶìłľ":8692,"ĠëĶ°ë¡ľ":8693,"Ġå±±":8694,"Ġë§Īì²ľ":8695,"Ġì¤ĳíĻĶìĿ¸ë¯¼ê³µíĻĶêµŃìĿĺ":8696,"ane":8697,"ĠìĿĺë¯¸ë¥¼":8698,"ĠìĿ´ìľ¤":8699,"Ġëĭ¤ë¥´ê²Į":8700,"ëĿ¼ë¡ľ":8701,"ìĦ¸ìĬ¤":8702,"Ġìĺ¤ëŀ«ëıĻìķĪ":8703,"ĠìĦ±íĸ¥":8704,"Ġíķ©ëıĻ":8705,"Ġê¸Īê°ķ":8706,"ç·":8707,"ĠìĦŀ":8708,"Ġft":8709,"Ġë°Ľìķĺê³ł":8710,"ê¸°ìĹĲìĦľ":8711,"Ġìĥĺ":8712,"Ġíİľìĭ±":8713,"Ġê¸°ìļ¸":8714,"ĠìķĦì¹´":8715,"ĠìĿ¸ì¦Ŀ":8716,"ĠìĬ¤íģ¬ë¦°":8717,"Ġreg":8718,"Ġíĺ¸ìĨĮ":8719,"Ġì²Ńì£¼ìĭľ":8720,"æ°ĳ":8721,"Ġìĸ´ëł¤ìļ´":8722,"íķĺìĺĢëĭ¤ê³ł":8723,"Ġìľłê³ł":8724,"ĠëĤĺìĿ´ë¡ľ":8725,"ìĭľíĤ¤ê¸°":8726,"ĠíĮĮíĬ¸ëĦĪ":8727,"ĠìĤ¬ìĿ´íĥĢë§Ī":8728,"Ġì§Ģìĭľ":8729,"Ġret":8730,"ĠìłĲìĿ´":8731,"ìŀĲë¡ľìĦľ":8732,"ĠëıĦíĺ¸ì¿ł":8733,"ĠìĦłìłĦ":8734,"Ġê°ķëıĻ":8735,"ëŁ¼ë¹ĦìķĦ":8736,"ë¯¸ìķ¼":8737,"ë¤¼":8738,"ë¬¸ìłľ":8739,"ãĤ¯":8740,"Ġmp":8741,"ĠìĿ´ëħ¸":8742,"Ġë³µìĽĲ":8743,"ĠìĹ°êµ¬ìĨĮ":8744,"Ġê¸ĢìĶ¨":8745,"ument":8746,"Ġë¹Ħë¡ĢëĮĢíĳľ":8747,"Ġê·ľìĬĪ":8748,"ëĭĪê°Ģ":8749,"Ġë§Īë£¨":8750,"Ġbs":8751,"ë°©ìĿĦ":8752,"ara":8753,"Ġë°ľë°ľ":8754,"Ġê¼½":8755,"Ġíĥľì¢ħ":8756,"ĠìĽ¨ìĿ´":8757,"Ġì§ĢëĥĪ":8758,"ìĬ¹ìĿĦ":8759,"ĠêµŃìŀ¥":8760,"ĠìĦ¸ìĻĢ":8761,"ĠìĥģíĻ©ìĹĲìĦľ":8762,"Ġìŀİ":8763,"ëĭĪìĬ¤íĬ¸":8764,"ĠíĬ¹ìĦ±":8765,"Ġë©ĶíĥĪ":8766,"Ġêµ¬ìŀħ":8767,"Ġíĺ¸ì£¼":8768,"ëıħë¦½":8769,"Ġut":8770,"Ġê²°ìĦł":8771,"ĠìĬ¤íĥĢìĿ¼":8772,"Ġê°ĢìĤ¬":8773,"Ġì¤ĳëıĻ":8774,"ĠëĤ¨ìĽĲ":8775,"ĠìĽĲëįĶ":8776,"Ġä¹Ļ":8777,"ĠëĮĢìĦł":8778,"Ġìĺµ":8779,"Ġrock":8780,"Ġíķ¨ê²½":8781,"Ġìłľê³µíķľëĭ¤":8782,"ĠìĪĺë¹ĦìĪĺ":8783,"Ġìŀ¬ìŀĦ":8784,"ĠíĨłëĦĪë¨¼íĬ¸":8785,"ëĭĪìĬ¤íĥĦ":8786,"Ġì§ĳìĹĲ":8787,"Ġoc":8788,"Ġë°ķìĥģ":8789,"ĠíĨłë§ĪìĬ¤":8790,"ĠìĽĲì£¼":8791,"Ġíķ´ì²´":8792,"Ġë³Ģìĭł":8793,"Ġtour":8794,"å°ĩ":8795,"Ġì¤ĳì§Ģ":8796,"ë¹ĦìĹĲ":8797,"īģ":8798,"Ġë¶Ģì¹ľ":8799,"ĠìłĦíĺķ":8800,"Ġê¸į":8801,"Ġìĥģíĥľë¡ľ":8802,"íĮĮìĿ´":8803,"ĠíŀĮ":8804,"ĠíĥĢìłĲ":8805,"ĠíĸīëıĻìĿĦ":8806,"Ġë¶ĢìĥģìĿĦ":8807,"ĠëĳĲëł¤":8808,"ĠíıŃíĥĦ":8809,"íĽĪëł¨":8810,"ĠíĶĦë¦¬ëĵľë¦¬íŀĪ":8811,"ë°ľìłĦ":8812,"ĠìķĮê³łë¦¬ì¦ĺ":8813,"Ġíķ´ì²´ë":8814,"ìĸ´ìķ¼":8815,"ĠìĨįíķľ":8816,"ĠíĢĺ":8817,"éħ":8818,"Ġfir":8819,"ĠëıĦë£¨":8820,"Ġë°©ìĨ¡ìĤ¬":8821,"Ġë°ľëłĮ":8822,"ëĿ¼ëĵľ":8823,"Ġê²Ģìĥī":8824,"Ġì¿łë°Ķ":8825,"Ġëħ¸ëŀĺë¥¼":8826,"ĠìķĦë²Ħì§ĢìĿĺ":8827,"Ġëľ»íķĺëĬĶ":8828,"Ġì½Ķìĸ´":8829,"ëĭ·":8830,"ĠìĺģíĻĶëĬĶ":8831,"Ġê°ľìŀħ":8832,"Ġìŀ¬ìĥĿ":8833,"ê·¸ëĿ¼ë":8834,"Ġìĭłì¹¸ìĦ¼":8835,"ĠìłĦìĨ¡":8836,"íĺĶ":8837,"Ġìĥģëĭ¹íķľ":8838,"ĠìĥĪë¡Ńê²Į":8839,"ìĬ¤íĦ°ë¯¸ëĦĲ":8840,"Ġìĸ»ìĿĢ":8841,"ĠëĮĢë¶Ģë¶ĦìĿĢ":8842,"Ġê°ľì°°":8843,"êµ°ìľ¼ë¡ľ":8844,"Ġëĭ¤ìļ´ë¡ľ":8845,"êµĲë¥¼":8846,"íģ´ë¦°":8847,"ĠìłĦíĨµìłģìĿ¸":8848,"Ġë³´ìľłíķĺê³ł":8849,"ĠìľĦíĤ¤":8850,"å®®":8851,"ĠíķŃê³µê¸°":8852,"ĠìĭŃìŀĲ":8853,"Ġê³±":8854,"íĻĶëĲĺìĸ´":8855,"ìĹ°ìĿĺ":8856,"Ġgs":8857,"ĠíĥĪíĩ´":8858,"ìĦĿìĿĢ":8859,"ĠíķŃìĿĺ":8860,"Ġì§Ħìĺģ":8861,"Ġë°ľëłĪ":8862,"Ġëį©":8863,"íģ¬ë¥¼":8864,"ĠìĻĦë²½":8865,"ìĹĪìĿĦ":8866,"ĠëĤĺëĿ¼ìĿĺ":8867,"ìļ´ìĺģ":8868,"Ġêµ¬ìŀ¥":8869,"ìŀĦìĿ´":8870,"Ġë²Īì§Ģ":8871,"ĠìŀĳíĴĪìĿĢ":8872,"Ġíķ´ìķ¼":8873,"Ġë¶ĦìĹĲ":8874,"ìĭ¬ìĿĺ":8875,"Ġìļ¸ìĤ°ê´ĳìĹŃìĭľ":8876,"å¸«":8877,"ëĥĪëĭ¤":8878,"ĠìĦ¹":8879,"ìĺĢì§Ģë§Į":8880,"ëĤŃ":8881,"ìĹ´ì°¨":8882,"Ġëı¼":8883,"ìĪĺë¦¬":8884,"ë§Īë£¨":8885,"ìļ´ëĮĢ":8886,"ëĶķ":8887,"Ġìĭľë¡ľ":8888,"Ġíģ¬ë¡ľìķĦíĭ°ìķĦ":8889,"Ġcc":8890,"ĠíķĻìĽĲ":8891,"æ¿":8892,"Ġê²¹":8893,"ĵ¤ìĹĲê²Į":8894,"Ġì¹ľìĦł":8895,"Ġsam":8896,"íļĮëĬĶ":8897,"Ġìļ°ëĿ¼":8898,"Ġë¡ľì¦Ī":8899,"Ġë·°":8900,"Ġê²½ìłľìłģ":8901,"êº":8902,"ino":8903,"ìĭľëĮĢìĿĺ":8904,"ë²Ħë¡ľ":8905,"ĠìŀĲìĭłëĵ¤ìĿĺ":8906,"ì¤ĳìĿ¸":8907,"Ġë¡ľë§ĪìĿĺ":8908,"Ġëĭ¤ìĿ´ë¬ĺ":8909,"ko":8910,"ìļ°ê°Ģ":8911,"ë¶ĦìĹĲ":8912,"ope":8913,"ìĥīìľ¼ë¡ľ":8914,"ĠìĿĮìķħìĿĦ":8915,"æĩ":8916,"Ġì§ĢìłĲ":8917,"Ġê°ĳìŀĲê¸°":8918,"çĪ":8919,"ë¯¸ë¥´":8920,"ĠëĦ¤ìĿ´ìħĺ":8921,"Ġíĵ¨":8922,"ëĭ´ë":8923,"Ġìĺ¤ë¥ĺ":8924,"íķĺìĺĢëįĺ":8925,"ĶĶìķĦ":8926,"ìķĪìłĦ":8927,"Ġì²ľì£¼êµĲ":8928,"Ġë°ĶìĿ´ìĺ¬":8929,"ĠìĪĺìĿĺ":8930,"Ġê²ĥìĿ´ëĿ¼ëĬĶ":8931,"que":8932,"íķ´ìł¸":8933,"ĠíĮĮëŀĢ":8934,"Ġëª¨ìķĦ":8935,"ĠíĻĶëł¤":8936,"Ġê¸°ëĳ¥":8937,"Ġë©ľë¡ľ":8938,"ë²łë¥´íĬ¸":8939,"íĦ°ëĦĲ":8940,"Ġakb":8941,"Ġê¾¸ë":8942,"Ĳģ":8943,"ìħĭ":8944,"ìĨĮë°©":8945,"íĬ¸ë£¨":8946,"ĠíĿĲë¦Ħ":8947,"ê´ĢìĹĲ":8948,"Ġì¢ħìĿ´":8949,"Ġê·¸ëĿ¼":8950,"Ġê¸°ëĭ¤":8951,"ë§¥ìĬ¤":8952,"ĠìĿ´ì¼Ģ":8953,"ĠíķĺìĿ¸":8954,"Ġëª¨ë¡ľ":8955,"Ġìĭľì¦Ī":8956,"Ġê¸°ìĥĿ":8957,"Ġíķ´ëĭ¹íķľëĭ¤":8958,"Ġê²½íĿ¬":8959,"Ġber":8960,"ĠíĻķë¦½":8961,"va":8962,"Ġdc":8963,"ĠëĤĺëĤĺ":8964,"Ġê¹Ģë³ĳ":8965,"Ġë³ĦëıĦ":8966,"Ġvers":8967,"ĠíĻľëıĻíĸĪëĭ¤":8968,"ë±Ģ":8969,"ĠíŀĪíĬ¸":8970,"Ġå£¬":8971,"ë£¸":8972,"Ġë§İìķĦ":8973,"ĠìľłíĨµ":8974,"ĠêµĲìľ¡ìĿĦ":8975,"Ġschool":8976,"ĠíķĦë¦Ħ":8977,"ĠìķĪëĵľë¡ľìĿ´ëĵľ":8978,"ìĦ°ëĭ¤":8979,"ĠìŀĳìĹħìĿĦ":8980,"oss":8981,"Ġìĺ¤ì§ģ":8982,"uss":8983,"ĠìĭłíĿ¥":8984,"Ġê±°ëĵŃ":8985,"ì¹´ìĬ¤":8986,"Ġìŀ¬íķĻ":8987,"åĢ":8988,"íİĢ":8989,"ê³¡ë©´":8990,"Ġë¶Ģë¶ĦìĿĦ":8991,"ĠëĬĲëĤĮ":8992,"Ġë°°íı¬":8993,"Ġã":8994,"Ġêµ¬íĺĦ":8995,"ĠæŁ³":8996,"Ġì£¼íĮĮ":8997,"ĠëĤĺìĿ´íĬ¸":8998,"Ġë°ĢëĿ¼ëħ¸":8999,"çĨ":9000,"Ġì²Ńêµ¬":9001,"íķ¨ê³¼":9002,"Ġä¿":9003,"ĠìŀĲìĽĲ":9004,"ĠëĮĢë²ķìĽĲ":9005,"Ġbre":9006,"ĠíİĺìĬ¤íĭ°ë²Į":9007,"ĠíĬ¸ìľĦ":9008,"Ġwin":9009,"ìĹ¬ìŀĲëĮĢíķĻêµĲ":9010,"ë³´íĨµíķĻêµĲ":9011,"Ġì¡´ìŀ¬íķĺì§Ģ":9012,"ìļ´ëıĻìŀ¥":9013,"ìĬ¤ëŁ½ê²Į":9014,"Ġê³µíĹĮ":9015,"Ġíİ¸ìĿ´ëĭ¤":9016,"Ġì£¼ìĨĮ":9017,"Ġëĭ¤ìĿĮëĤł":9018,"Ġíı¬íķ¨íķĺìĹ¬":9019,"Ġìĺģìĸĳ":9020,"Ġìĭłìļ©":9021,"ĠìĿ¼ìĸ´ëĤ¬ëĭ¤":9022,"ĠìĿ´ìĺ¨":9023,"ë¥´ì§Ģ":9024,"Ġë¹Ħê³µ":9025,"Ġë°Ķëĭ¥":9026,"ê¹Ŀ":9027,"Ġarm":9028,"Ġì¢ħë¡ľêµ¬":9029,"ĠìĿ¼ë³¸êµŃìľłì²łëıĦìĿĺ":9030,"Ġì¹´ìļ´":9031,"Ġê³łê°Ŀ":9032,"ĠìĥĿëª°":9033,"ê°ģìĿĦ":9034,"ĠíķĦëĵľ":9035,"ĠíĶ½ìħĢ":9036,"¬¸ëĮĢ":9037,"Ġíķ´ëıĦ":9038,"ĠìĦľìļ¸ëĮĢ":9039,"Ġë²Ĺìĸ´ëĤĺ":9040,"Ġë¡ľë§¨ìĬ¤":9041,"çĲĨ":9042,"Ġë¸Ķë¡Ŀ":9043,"Ġì¢Įìļ°":9044,"ĠìĹ°ì£¼ìŀĲ":9045,"ĠìĤ¬ìĭ¤ìĿ´":9046,"ĠìľĦìĥģ":9047,"ìĦ±ë©´":9048,"ë¥´ë§Ī":9049,"ìłľëıĦ":9050,"Ġbc":9051,"ĠìľĦìĹĲìĦľ":9052,"Ġì§ĳê¶Į":9053,"ĠíħĮìĬ¤íĬ¸":9054,"Ġê·ľëª¨ìĿĺ":9055,"ìĽ¨ìĿ´íĬ¸":9056,"ho":9057,"Ġë§Įëĭ¤":9058,"ë¬¼ìĿĢ":9059,"ĠìĿ¼ìĿĢ":9060,"Ġìļ°ë£¨":9061,"åı¸":9062,"ìĤ°ìĿ´":9063,"Ġact":9064,"íķĺë¯Ģë¡ľ":9065,"ë²ķìĿĢ":9066,"ë¶ĦìĿ´":9067,"¥¸":9068,"Ġê¸°ê°ĳ":9069,"ĠëıĦëįķ":9070,"åĩ":9071,"ìĿĮìĿĢ":9072,"ł¥ìĿĦ":9073,"ĠìĹŃìĿĢ":9074,"Ġì´Īì²Ń":9075,"Ġë§¡ìĿĢ":9076,"ĠìĿ´ë²¤íĬ¸":9077,"ĠìĹ¬ìĿĺ":9078,"Ġè²":9079,"ĠìĿ¼ìľ¼íĤ¤":9080,"ë¶ĢìĤ¬":9081,"Ġvo":9082,"Ġip":9083,"Ġëĭ¤ìļ´ë¡ľëĵľ":9084,"Ġë§Įëĵ¤ìĸ´ì¡Įëĭ¤":9085,"Ġë£¨ë§ĪëĭĪìķĦ":9086,"ĠìĹŃëªħ":9087,"æ¸":9088,"ĠìĿ´ìĬ¹ë§Į":9089,"Ġìĭ¤ëĤ´":9090,"ÑģÐº":9091,"ìĭ¼":9092,"Ġìĭľë¯¼ë":9093,"Ġìľłì¹ĺìĽĲ":9094,"Ġgk":9095,"ëĵľëŁ¬":9096,"ìĿ¸ìĹĲê²Į":9097,"ì°¾":9098,"ĠíĨłëĭĪ":9099,"ìķŀ":9100,"Ġì¡°ìļ©":9101,"Ġìķ¼ì¿ł":9102,"ĠíĻľëıĻíķĺìĺĢëĭ¤":9103,"Ġìłķë¬´":9104,"Ġare":9105,"ìĸ´ìļĶ":9106,"ìĥĿëªħ":9107,"Ġëħ¸ì¶ľ":9108,"å¯ħ":9109,"ĠìĿ´ë¥´ëŁ¬":9110,"ĠìĿ´íĥľ":9111,"ĠìĿ´ê´ĳ":9112,"Ġder":9113,"ĠíĨłì§Ģ":9114,"ê³¼íķĻê¸°ìĪł":9115,"Ġcenter":9116,"Ġì£¼ìŀ¥íķĺìĺĢëĭ¤":9117,"ĠíĶĮë¡ľë¦¬ëĭ¤":9118,"Ġìłķë¹Ħ":9119,"Ġsol":9120,"ĠëĭĮíħĲ":9121,"ëĭĪìĭľ":9122,"Ġëªħì¹ŃìĿĢ":9123,"ĠëĨĵê³ł":9124,"ìĬ¤íĨ¤":9125,"Ġsum":9126,"íĺĳëł¥":9127,"ìłĦìĤ¬":9128,"ê³µëĭ¨":9129,"Ġì°½ìĽĲìĭľ":9130,"Ġë¶ģìķĦë©Ķë¦¬ì¹´":9131,"Ġì§ĦíĸīìŀĲ":9132,"é¡":9133,"ĠëıĻëŀĺ":9134,"Ġìļ°ë¦¬ê°Ģ":9135,"íĮ½":9136,"Ġë°°êµ¬":9137,"ĠíĶĦë¡ľíĨł":9138,"Ġìłģíķ©":9139,"ĠìķĦëłĪëĤĺ":9140,"ëĭĪì¦ĺ":9141,"ë¡ľëıĦ":9142,"ëħ¸ë¶Ģ":9143,"ìĭĿìĹĲ":9144,"Ġè¨":9145,"Ġå§":9146,"Ġìŀ¥ë¹Ħ":9147,"ĠìĿ´ë£¨ìĸ´ì¡Įëĭ¤":9148,"ograp":9149,"Ġê°Ģë¦¬íĤ¤ëĬĶ":9150,"Ġëħ¸ë¬´":9151,"Ġê°Ģëĭ´":9152,"Ġë©´ë":9153,"Ġë°ľìĸ¸":9154,"ĠìłľìŀĳìĹĲ":9155,"Ġìłł":9156,"ĠëĵľëŀĺíĶĦíĬ¸":9157,"Ķĺ":9158,"ĠìĿĺìŀ¥":9159,"ĠìĭľëĵľëĭĪ":9160,"æ°¸":9161,"ĠíĬ¸ëŀľìĬ¤":9162,"ìķ¨ë²Ķ":9163,"ual":9164,"ìĹ£":9165,"ĠìŀĲê·¹":9166,"Ġê¸°ê¶Į":9167,"Ġç«":9168,"ĠìĦłìłķëĲĺìĹĪëĭ¤":9169,"ìĹĪê¸°":9170,"Ġìķ¨ëŁ°":9171,"ìĦľìĸĳ":9172,"Ġê°Ħëĭ¤":9173,"Ġë¯¸ë§Į":9174,"ĠìĦľì´Ī":9175,"ĠìĥģìŀĦ":9176,"Ġìŀħê³ł":9177,"Ġåħ¨":9178,"Ġíı°":9179,"Ġæ¬":9180,"Ġìĵ°ëŁ¬":9181,"ĠëĮĢíĨµëł¹ìĿĺ":9182,"Ġê³µë¬´ìĽĲ":9183,"ĠíĹ¨":9184,"ì¹´ê°Ģ":9185,"Ġìĭľë¦¬ì¦ĪìĿĺ":9186,"Ġìĥģìĭ¤":9187,"ĠëıĮëł¤":9188,"ĠíĻĶíķ©":9189,"ĠìĻķë¦½":9190,"ĠìľłíĿ¬":9191,"íŀĪê³ł":9192,"Ġíķ´ìłģ":9193,"ë¹Ĺ":9194,"ĠëĮĢíĳľíķĺëĬĶ":9195,"Ġåºļ":9196,"Ġê¹Ģì¤Ģ":9197,"íķ¨ìĿ´":9198,"ŁĪ":9199,"ìĤ°ìĹĲ":9200,"Ġì²łê±°":9201,"íĸīìĦ±":9202,"ĠìħĶ":9203,"Ġë²Īê¸¸":9204,"Ġìĥ¤ë¥¼":9205,"Ġêµ³":9206,"Ġë©Ī":9207,"ê²©íķľ":9208,"ìĤ¬ì§Ģ":9209,"ĠëĤ´ëł¸ëĭ¤":9210,"oo":9211,"ĠìĹ¬ìĦ¯":9212,"ĠëıħíĬ¹íķľ":9213,"ì¡°ì°¸":9214,"Ġìŀħìŀ¥ìĿĦ":9215,"Ġê°ĲëıħìĿĦ":9216,"Ġê³¼íķĻê¸°ìĪł":9217,"ì£¼ìĻĢ":9218,"íķĺìĹ¬ìķ¼":9219,"ĠíĪ¬ìŁģ":9220,"ĠæĪĬ":9221,"Ġìıĺ":9222,"Ġì¶Ķêµ¬":9223,"Ġë¸Įëŀĺ":9224,"ëĨĵ":9225,"Ġìĥģê´Ģ":9226,"ìĸ´ë¦¬":9227,"íĥĢëĬĶ":9228,"ene":9229,"ĠíĽĦê³Ħ":9230,"Ġê¸Īë©Ķëĭ¬ë¦¬ìĬ¤íĬ¸":9231,"Ġë§ĲìĿ´":9232,"Ġìŀħëł¥":9233,"Ġë°ĶìĿ´ëŁ¬ìĬ¤":9234,"Ġê²½ë¶Ģ":9235,"ĠìĹ¬ë¡ł":9236,"Ġli":9237,"ãģ«":9238,"Ġê¶Įë¦¬":9239,"ĠìĽĮëĦĪ":9240,"Ġê´Ģì§ģ":9241,"ĠëıĦì¿łê°ĢìĻĢ":9242,"Ġë°ķê·¼íĺľ":9243,"Ġæ´ª":9244,"ĠìĻĦìłĦíķľ":9245,"ĠìĺĢëĭ¤":9246,"ĠëĮĢë§Į":9247,"æ´¾":9248,"ky":9249,"Ġìĭłë¶Ģ":9250,"ì§Ģìĸ´":9251,"ê¸°ìĤ¬":9252,"Ġê³¡ìĿĢ":9253,"ìĤ°ìĿĢ":9254,"Ġë°Ķë¥´ìħĢë¡ľëĤĺ":9255,"ìĭľìķĦëĵľ":9256,"ĠìĽĶíĺ¸":9257,"Ġproject":9258,"ëĮĢëĮĢ":9259,"ĠìŀĳëıĻ":9260,"Ġë§ĪëĿ¼":9261,"ìĨĮìĨ¡":9262,"Ġbus":9263,"Įë¦°":9264,"Ġìŀ¬ì¦Ī":9265,"ĠìĦ¤ì¹ĺëĲľ":9266,"ê²ĢìĤ¬":9267,"ĠìĿ¼ê°Ħ":9268,"Ġìĸ»ìĸ´":9269,"Ġê°ľìĦ±":9270,"Ġê°ľë°©":9271,"ĠìłĦë¬¸ê°Ģ":9272,"Ġì§Ħìĭ¤":9273,"Ġë§Įëĵ¤ê³ł":9274,"Ġíı¬ìĿ¸íĬ¸":9275,"íĮ¨ë¥¼":9276,"ĠëıĮìķĦìĻĢ":9277,"ĠíŀĪíĭĢëŁ¬":9278,"ìķĶëıĻ":9279,"ĠìĺģëĤ¨":9280,"Ġê´Ģê°Ŀ":9281,"ĠíĬ¹ìłķíķľ":9282,"ĠìłĪë°ĺ":9283,"Ġìĺ¬ëŀĲ":9284,"íģ¬ê°Ģ":9285,"ĠëŁŃ":9286,"Ġìĺ¤ë¹ł":9287,"Ġìĺ¬ëł¸ëĭ¤":9288,"ĨĢ":9289,"Ħë¦¬ê·¸":9290,"ĠìĤ¬ë§Ŀíķľ":9291,"Ġë¹Įë¦¬":9292,"Ġë©Ķë¥´":9293,"Ġê³µìłķ":9294,"Ġëĭ¤ìĨĮ":9295,"Ġì´Īëĵ±":9296,"ĠíĻľëıĻíķĺê³ł":9297,"Ġë¬´ëĿ¼":9298,"Ġlet":9299,"ĠìķĪíĨłëĭĪ":9300,"ĠìĦ¤ëĵĿ":9301,"ĠìĺĪë°©":9302,"ĠìĤ¬ì´Į":9303,"lex":9304,"ĠëªħìĺĪìĿĺ":9305,"åī":9306,"Ġë¶Ģìłľ":9307,"ĠëĶĶì¦ĪëĭĪ":9308,"ĠìĦłìĥĿëĭĺ":9309,"ëįķìħĺ":9310,"ĠæŃ¦":9311,"ĠìĻķì¡°ìĿĺ":9312,"ĠìĿ¼ë¶Ģê°Ģ":9313,"Ġê°ĲëıħìĿ´":9314,"Ġë°ĽìķĦëĵ¤ìĹ¬":9315,"ĠìĿ´ê´Ģ":9316,"ĠìĹ´ë§¤":9317,"Ġì¶ľìĭľëĲĺìĹĪëĭ¤":9318,"ĠìĤ´ìķĦë":9319,"ĠíķĻìľĦë¥¼":9320,"ì£¼ìĿĺìĿĺ":9321,"Ġê¹ĢëĮĢì¤ĳ":9322,"ĠìĭľìŀĳëĲľ":9323,"ama":9324,"ĠìķĮëłīìĤ°ëįĶ":9325,"Ġê³µìĤ°ëĭ¹":9326,"Ġest":9327,"Ġìłķë¥ĺ":9328,"Ġëª©ìĨĮ":9329,"ìŀĲìĿ´ëĦĪ":9330,"ç¾ħ":9331,"Ġê¹Ģíĺķ":9332,"ìĿ¸ëĵ¤ìĿĦ":9333,"ĠíķľêµŃìĿ¸":9334,"íĦ°ë¥¼":9335,"ìĿ¸ëªħ":9336,"ĠíĶĦë¡ľê·¸ëŀ¨ìĿ´ëĭ¤":9337,"Ġê³³ìľ¼ë¡ľ":9338,"ìłĦëĮĢ":9339,"ater":9340,"ìŀĩ":9341,"ĠìĻķìĿ´":9342,"ĠíķĦìļĶíķĺëĭ¤":9343,"ĠíķĦìļĶê°Ģ":9344,"ë¥¨":9345,"ĠëĮĢíķľë¯¼êµŃìĹĲìĦľëĬĶ":9346,"íĬ¹ì§ĳ":9347,"ike":9348,"ë¥´ê°Ģ":9349,"Ġíģ¬ë¦¬ìĬ¤íĨł":9350,"ë²Ħë¦¬":9351,"Ġë§Įëĵłëĭ¤":9352,"Ġë°ľê²¬ëĲĺìĹĪëĭ¤":9353,"ĠìĹŃìĿ´ëĭ¤":9354,"íĬ¸ëłĪ":9355,"ĠìĸĳìĿĺ":9356,"ìĹŃìĿĺ":9357,"Ġê¹Ģìłľ":9358,"Ġê¹Ģì°½":9359,"ony":9360,"Ġê³µìĹ°ìĿĦ":9361,"ìķĦëĪĦ":9362,"ê³¼ëıĦ":9363,"ìĭŃìŀĲ":9364,"ĠëĮĢëł¹":9365,"Ġë¶Ģëĭ´":9366,"Ġìĺ¤ì¼Ģ":9367,"Ġìłľê³µíķĺëĬĶ":9368,"ìĿ¸ëıĦ":9369,"Ġë§Įëĵ¤ê¸°":9370,"ĠëĪĪìĹĲ":9371,"ì¾Į":9372,"urg":9373,"Ġìĺģíĺ¼":9374,"Ġë¯¸ìĤ¬":9375,"Ġê°Ĳìłķ":9376,"Ġê°Ħíĺ¸":9377,"Ġë°ĿìĿĢ":9378,"ì£¼ìĿĺë¥¼":9379,"ĠìĹŃìĤ¬ë¥¼":9380,"ì¸¡ë©´":9381,"Ġíķľê°ķ":9382,"ĠìĿį":9383,"Ġì½ĺíħĲì¸ł":9384,"¬´ë¶Ģ":9385,"bl":9386,"Ġë¥´":9387,"Ġê°Ģì¦Ī":9388,"ĠìĪĺëıĻ":9389,"Ġìĭłê³ł":9390,"Ġë²ķíķĻ":9391,"Ġë¹ħíĨłë¦¬ìķĦ":9392,"ĠìķĦì¦Ī":9393,"ĠìĿ¸íħĶ":9394,"ëĦĺ":9395,"Ġì¡¸ìĹħíķĺê³ł":9396,"Ĥľëĭ¤":9397,"ìļ´ìĪĺ":9398,"ĠìĤ¬ê¸°":9399,"Ġê°Ģìĵ°":9400,"ìķĶë¦¬":9401,"Ġìĩ¼íĬ¸":9402,"ĠÄ":9403,"ĠìķĬì§Ģë§Į":9404,"Ġìķī":9405,"ĠìłĦëıĻì°¨":9406,"we":9407,"ì²´ìĻĢ":9408,"Ġé¾į":9409,"ì´Ŀìŀ¥":9410,"ëĿ¼ê¸°":9411,"Ġì¤ĳìĹĲëĬĶ":9412,"ave":9413,"Ġë³ĢíĻĶë¥¼":9414,"ited":9415,"Ġê²ĮìŀĦìĿĦ":9416,"ĠìĤ¬ëĭ¨ë²ķìĿ¸":9417,"ĠìĦ¼íĬ¸ëŁ´":9418,"Ġë¶Ģë¶Ģ":9419,"íĥĲìłķ":9420,"ë¡ľìļ´":9421,"ĠìĦ¸ìĥģ":9422,"Ġíı¬ìĬ¤íĬ¸":9423,"ĠìķĬìľ¼ë©´":9424,"ĠíĬľ":9425,"Ġë³µìĿĮ":9426,"ê²½ê¸°ìŀ¥":9427,"Ġê°Ģì¹ĺê°Ģ":9428,"Ġä¸Ģ":9429,"ĠìŀĲê°Ģ":9430,"Ġìłķê¶Į":9431,"Ġfaì»µ":9432,"Ġë§ĪìĬ¤":9433,"Ġìŀ¥ìĿĺ":9434,"ific":9435,"Ġê¸°ìĨĮ":9436,"ĠìŀĲëŀĳ":9437,"Ġê°ľëŁī":9438,"Ġë³´ìĿ´ì§Ģ":9439,"ìĦĿìĿĺ":9440,"Ġêµ¬ë³Ħ":9441,"ìķĦìĿ¼ëŀľëĵľ":9442,"ì½ĶíĨł":9443,"íĺĦëıĻ":9444,"íĶĦëŀĢìĭľìĬ¤ì½Ķ":9445,"ĠìĿ´ëĵ¤ìĿĦ":9446,"Ġter":9447,"å¥³":9448,"ë¥Ń":9449,"ĠìŀĲë¦¬ìĹĲ":9450,"ĠíĶ¼íĬ¸":9451,"Ġëª¸ìĿĦ":9452,"Ġë¶ģë¯¸":9453,"ĠìĬ¤íĶ¼":9454,"ë¬¸íĹĮ":9455,"ĠìĦłê±°ìĹĲìĦľ":9456,"Ġê°Ħë¶Ģ":9457,"Ġë±Ģ":9458,"ĠìĿ´ì°½":9459,"ĠíĮĮëĤĺ":9460,"Ġìľ¤ì¹ĺ":9461,"ĠìĦ¸ìĿ´ë¶Ģ":9462,"Ġë¥´ëĦ¤":9463,"ĠìĹ°ëĿ½":9464,"ì¶¤":9465,"ĠìĤ¬ëŀĮëĵ¤ìĿĦ":9466,"ĠíħĮëĭĪìĬ¤":9467,"ĠåĬī":9468,"Ġì§Ģêµ¬ìĿĺ":9469,"Ġëħ¸ìĦłìĿĦ":9470,"ë²ķìĿ´":9471,"Ġìĭ¬ê°ģíķľ":9472,"ê³µìĹ°":9473,"Ġìĸ¸ëįķ":9474,"íĢĺ":9475,"ĠìĹŃìĹĲìĦľ":9476,"Ġë¬¸ìĿĦ":9477,"Ġëķ":9478,"Ġë¬¸ìŀ¬":9479,"Ġê³ĦìłĪ":9480,"ëĦ¤ë§Ī":9481,"Ġì´Ŀìŀ¬":9482,"Ġê¸°ëħĲë¬¼":9483,"ĠìĨĮíĻĶ":9484,"Ġë°©ì§Ģ":9485,"ĠìĿ´ë£¨ê³ł":9486,"ì¤ĳíķľ":9487,"¤ëĭ¤":9488,"ĠëĤĺìķĦê°Ģ":9489,"ì¤ĳìĭ¬":9490,"éĩİ":9491,"Ġìĸ»ìĿĦ":9492,"ĠìĹ°ê²°íķĺëĬĶ":9493,"Ġpm":9494,"Ġíİĳ":9495,"ìĭ¤ìŀ¥":9496,"ĠëĤ´ìļ©ìĿ´":9497,"Ġì´Īê¸°ìĿĺ":9498,"ĠìĿ´ë³µ":9499,"Ġê²½ì£¼ìĭľ":9500,"Ġì¶Ķê¸°ê²½":9501,"Ġê°Ĳëıħìľ¼ë¡ľ":9502,"ç¥ŀ":9503,"ĠìĤ¬ìļ°ëĶĶ":9504,"ìĿ¼ìĿ´":9505,"Ġìĭľë²Ķ":9506,"ëĲĺìĹĪëĭ¤ê°Ģ":9507,"Ġë¶Ģë¶ĦìĿ´":9508,"Ġå·±":9509,"Ġprodu":9510,"å¹´":9511,"Ġë¬´ë¦":9512,"ê³µíĻĶëĭ¹":9513,"íĮĮë¥¼":9514,"Ġëª¸ë":9515,"ĠìĬ¤ë¯¸ìĬ¤":9516,"ĠëĤĺëĪĦìĸ´":9517,"Ġê¸°íļĮë¥¼":9518,"Ġmil":9519,"íĻĶìłĲ":9520,"Ġåĳ":9521,"ì¹ĺê²Į":9522,"ĠìĽĶìĿĺ":9523,"Ġë¯¹":9524,"ĠìĪĺìļĶ":9525,"ë¡Ģë¡ľ":9526,"ê³¡ìĿĦ":9527,"ĠíĻľìķ½ìĿĦ":9528,"Ġë¹ĦìĦľ":9529,"ì¢ħìĿĢ":9530,"å¯§":9531,"ê°ĢìļĶ":9532,"£¨ìĬ¤":9533,"ìĥĿìĿĺ":9534,"æĻĤ":9535,"Ġë¶Ħê¸°ìłĲ":9536,"ason":9537,"ĠíĻįë³´ëĮĢìĤ¬":9538,"íĻĶíķĻ":9539,"Ġì½Ķë¡ľëĤĺ":9540,"Ġìĺģêµ¬":9541,"Ġíķ´íĶ¼":9542,"ì£¼ìĿ¸":9543,"ator":9544,"ì§ĳíķ©":9545,"íļĮìĹĲ":9546,"Ġæ¥":9547,"Ġì²´íĹĺ":9548,"ãģĨ":9549,"ĠíĶ¼ê²¨":9550,"ãĤī":9551,"ĠíħĮíģ¬":9552,"ĠìĤ¬ì¿ł":9553,"Ġìĺ¤ëĶĶìħĺ":9554,"ì¡¸":9555,"Ġíĥľìĸ´ëĤ¬":9556,"è¾°":9557,"ĠëªħìĿĢ":9558,"Ġbook":9559,"ĠëĶľ":9560,"Ġmic":9561,"app":9562,"Ġê·¸ê²ĥìĿ´":9563,"ĠëĮĢíķľìłľêµŃ":9564,"Ġking":9565,"é½":9566,"ĠëıĦë¦¬":9567,"ĠíĥĢëĬĶ":9568,"ĠëıĦìĭľìĿĺ":9569,"ĠíĻĶë©´":9570,"Ġì°¸ê°ĢìŀĲ":9571,"ë³´ìĤ´":9572,"Ġline":9573,"íķĺì§ĢëĬĶ":9574,"ĠíĨµìĺģ":9575,"Ġë¯¸ì¹´":9576,"ìĿ´ìĥģ":9577,"ëıĦìĹĲìĦľ":9578,"ëħĦëıĦ":9579,"Ġë¨¸ë¬¼ë":9580,"Ġrom":9581,"Ġæķ":9582,"Ġnd":9583,"íĮĲìĿ´":9584,"Ġìŀħë²ķ":9585,"ĠìĤ¬ê±´ìĿĺ":9586,"ĠìĤ¬ìĹħìĿĦ":9587,"æ©":9588,"ĤĺëĿ¼":9589,"Ġìłķìŀ¬":9590,"Ġìĥ¬":9591,"Ĳł":9592,"ìļ°ìĬ¤ìĿĺ":9593,"ĠìĪĺìĨĮ":9594,"ì¹´ìĺ¤":9595,"ember":9596,"Ġë¡±":9597,"Ġê³µë£¡":9598,"ĠíĹĪê°Ģ":9599,"ĠíĨ°":9600,"ĠíĮĮíĤ¤ìĬ¤íĥĦ":9601,"Ġë¦¬ìĬ¤íĬ¸":9602,"Ġha":9603,"è£":9604,"ì§ĢìĽĲì§Ģë°©ëıĦ":9605,"Ġcam":9606,"ĠìłķìĿ´":9607,"Ġë²Ħì§Ģ":9608,"ìĭľíĶ½":9609,"ĠìĦ±ìłģìĿĦ":9610,"Ġë°ľê²¬ëĲľëĭ¤":9611,"ëĭ¤ìĿ´ëĿ¼":9612,"Ġìĭ¤ì²ľ":9613,"Ġëŀĳ":9614,"Ġsim":9615,"Ġìľłì¹ĺ":9616,"Ġë§ĲìĿ´ëĭ¤":9617,"Ġsci":9618,"Ġë§Īì²ľë£¨":9619,"ĠìłľëĦ¤":9620,"ga":9621,"Ġëį§ë¶Ļ":9622,"Ġíĥ±":9623,"ĠìĹĨìĿĦ":9624,"ê¸Īìľµ":9625,"Ġclass":9626,"Ġê±°ëĳĲìĹĪëĭ¤":9627,"Ġì¤ĳìŀ¥":9628,"ìĹŃìĹĲìĦľ":9629,"Ġmer":9630,"Ġë³´ìķĺëĭ¤":9631,"ĠìĿĺìĭ¬":9632,"ĠìĥģëĮĢìłģìľ¼ë¡ľ":9633,"ĠìĿ¸íĦ°íİĺìĿ´ìĬ¤":9634,"ìĩĦë":9635,"ĠíĥĲíĹĺ":9636,"ĠìĤ¬ëıĦ":9637,"ìĺ¨ìĿĺ":9638,"Ġíİĺë£¨":9639,"Ġé»ĥ":9640,"ĠëĮĢíķľë¯¼êµŃìĹĲìĦľ":9641,"Ġê±·":9642,"Ġheart":9643,"ë¦¬ìķĪ":9644,"Ġì£¼ì§Ģ":9645,"Ġì¶ĶëĿ½":9646,"ĠíķŃêµ¬":9647,"Ġì¡´ìĬ¤":9648,"Ġëª¨ìĿĮ":9649,"ĠíĬ¸ëłĪìĿ´":9650,"ĠæĿ¾":9651,"Ġphil":9652,"ĠíĢ´":9653,"Ħĺ":9654,"ĠìľłìłĦìŀĲ":9655,"ĠìķĮìķĦ":9656,"ĠíķĦëĿ¼ë":9657,"Ġë§Īë¬´ë¦¬":9658,"ìĸ´íĬ¸":9659,"Ġíļ¨ê³¼ë¥¼":9660,"Ġoffic":9661,"ë²³":9662,"Ġì£¼ëł¥":9663,"ĠìĥģíĥľìĹĲìĦľ":9664,"ĠìĿ¼ìłķíķľ":9665,"Ġê°ĸëĬĶëĭ¤":9666,"ĠìĪĺìĿµ":9667,"íĸĪëĭ¤ê°Ģ":9668,"ìĬ¤ì¼ĢìĿ´íĮħ":9669,"ĠmìĿĺ":9670,"Ġstat":9671,"ĠìĿ¼ìĸ´ëĤĺëĬĶ":9672,"ks":9673,"Ġìĵ°ìĹ¬":9674,"Ġë¹ļ":9675,"Ġì§ĢëĭĪê³ł":9676,"éĽĨ":9677,"ê²©ìľ¼ë¡ľ":9678,"ëıĦìĤ¬":9679,"ĠíķĺìĹĲ":9680,"ìĹī":9681,"ëĲĺìĹĪìĿĦ":9682,"ĠìłķìĦł":9683,"Ġìĺ¬ë¦¼":9684,"ĠìľłíķĻ":9685,"ê°Ģì¡±":9686,"ä¸ĭ":9687,"ĠëĮĢì²´ë¡ľ":9688,"ĠíıŃëł¥":9689,"Ġì¹ĺëŁ¬":9690,"Ġì§Ħì§ľ":9691,"ĠëłĪìłĦë":9692,"ĠëĤĺíĥĢëĤĺëĬĶ":9693,"ä¿¡":9694,"Ġëĵ¤ìĸ´ê°Ķëĭ¤":9695,"Ġë°°íĭĢ":9696,"ĠìĦłìĪĺëĭ¨":9697,"ĠìĹ´ì°¨ê°Ģ":9698,"ensis":9699,"Ġë³¸ì§Ī":9700,"Ġêµ¬ìĽĲ":9701,"Ġì¶©ì£¼":9702,"Ġê³µê°ľëĲľ":9703,"Ġìĥģì²ĺ":9704,"ĠëĨĴëĭ¤":9705,"ĠíķŃê³µìĤ¬":9706,"ĠìĹĲëĶĶ":9707,"ĠíĶĦëŀĳìĬ¤ìĸ´":9708,"Ġëĭ®":9709,"Ġë³´ìĹ¬ì¤Ģëĭ¤":9710,"ĠìĿ´ì¤Ģ":9711,"Ġê²ī":9712,"ĠìŀħìĤ¬":9713,"ĠíĤ¤ìĬ¤":9714,"å¢":9715,"Ġif":9716,"Ġger":9717,"Ġì°©ê³µ":9718,"ĠìŀĬ":9719,"íħĮìĬ¤":9720,"Ġìĺģì¡°":9721,"Ġê¹Ģëªħ":9722,"ë¯¸ëĬĶ":9723,"ĠìĪĺë£Į":9724,"ĠíĻĢë¡ľ":9725,"íı¬ë¥¼":9726,"ç¢":9727,"ìĤ°ìĦ±":9728,"ures":9729,"ĠìĥĮíĶĦëŀĢìĭľìĬ¤ì½Ķ":9730,"Ġëĭ¤ëĭĪìĹĺ":9731,"Ġê°ĢëģĶ":9732,"íĨ°":9733,"Ġêµ¬ë§¤":9734,"Ġê°Ĳìĭľ":9735,"ĠëĮĢë¶Ģë¶ĦìĿ´":9736,"ĠëĲĺëĬĶëį°":9737,"Ġì±ħìŀĦìĿĦ":9738,"ëıĻëĭ¹":9739,"ê³µê°Ħ":9740,"Ġback":9741,"åĦ":9742,"ĠìĨĮìĬ¤":9743,"íĬ¸ë¡¤":9744,"Ġë¹Ħìłķ":9745,"ĠìĤ¬ëł¹ê´Ģ":9746,"ìĿ´ìĭľ":9747,"ì¹´ë¡ľ":9748,"Ġë³µìĪĺ":9749,"Ġê³łê¸ī":9750,"Ġê´ĢìĹ¬":9751,"ëħ¸ë¦¬":9752,"ĠìĿ´ë¡ľìį¨":9753,"Ġíĭ°ë²ł":9754,"æĢ§":9755,"íĻĶëĲĺìĹĪëĭ¤":9756,"Ġê´ĳìĤ°":9757,"ron":9758,"ĠëŁī":9759,"Ġê³łê³ł":9760,"ê°ĲìĿ´":9761,"ä»£":9762,"ì²´ìľ¡ê´Ģ":9763,"ĠìŀĦë¬´":9764,"fl":9765,"Ġnm":9766,"ĠëĮĢë³Ģ":9767,"ĠìĪĺìĪĺ":9768,"Ġê³µê¸°":9769,"ĠìĭľìĬ¤íħľìĿĦ":9770,"©ĺ":9771,"ë¯¼ìĿĺ":9772,"Ġë°ľìĥĿíķĺëĬĶ":9773,"Ġcs":9774,"ê¸°ìŀĲ":9775,"Ġê¸°ì§Ģ":9776,"Ġíķĺë²Ħëĵľ":9777,"Ġinc":9778,"oph":9779,"ions":9780,"ĠìŀĲë¦¬ìŀ¡":9781,"Ġìľ¨ë¦¬ìļ°ìĬ¤":9782,"ì§ĦìĿĢ":9783,"Ġê°ĸì¶Ķê³ł":9784,"Ġdec":9785,"ĠìĬ¤íĥĢë¦¬ê·¸":9786,"ìĭľì¦Į":9787,"ĠìĦ¬ìĿĺ":9788,"ĠìĬ¤íĶĦë§ģ":9789,"Ġê¸įìłķ":9790,"ĠíķĦìĪĺ":9791,"Ġêµ¬ë¦¬":9792,"ĠìĦ±ì§ģ":9793,"ë³´íĹĺ":9794,"Ġvide":9795,"ĠìŀħíķĻìĭĿ":9796,"ì°¸ëª¨":9797,"ì¡°ë¶Ģ":9798,"å¿ĥ":9799,"Ġê¸°ëıĦ":9800,"ĠêµĲëªħ":9801,"íģ°":9802,"ìĿ´ìĬ¤ì¼Ģ":9803,"Ġê¸´ê¸ī":9804,"ë¡¯":9805,"ĠíĶĦë¡ľíķĦ":9806,"ë¨¸ë¦¬":9807,"Ġë°´":9808,"Ġì§ĢìĹŃìľ¼ë¡ľ":9809,"Ġcy":9810,"ĠíıīìĥĿ":9811,"ĠìķĮìķĦë":9812,"Ġì¢ħìĤ¬":9813,"Ġêµ¿":9814,"Ġë°Ľìķĺìľ¼ë©°":9815,"Ġeur":9816,"Ġë§ĮëĤľ":9817,"Ġíģ¬ê³ł":9818,"ĠçĻ¸":9819,"ëĿ¼íĤ¤":9820,"Ġì¡°ë³":9821,"Ġë³µë¬´":9822,"Ġëª¬ìĬ¤íĦ°":9823,"Ġì§ĦëıĦ":9824,"ĠëĤĺê°ĢìĤ¬íĤ¤":9825,"ì§Ħìĺģ":9826,"ĠëĤĺë£¨":9827,"ë°©ìĿĺ":9828,"æķİ":9829,"Ġëį´ë§Īíģ¬ìĿĺ":9830,"Ġê°¤ëŁ¬ë¦¬":9831,"Ġìĭľë¦½":9832,"ìĻĢëĿ¼":9833,"Ġê³łì§Ģ":9834,"ĠìĨĲìĿĦ":9835,"Ġë°©ìĺģëĲľ":9836,"Ġë°ľíĥģ":9837,"Ġwal":9838,"let":9839,"ĠëĤĺëīľëĭ¤":9840,"Ġë§ĪíĤ¤":9841,"ĠëĲĺëıĮ":9842,"Ġë§Įíķľ":9843,"ãģ¦":9844,"ì£¼ìĿĺìłģ":9845,"Ġê³¨íĤ¤íį¼":9846,"ĠìĪĺìĪł":9847,"ĠìłĦê¹Įì§Ģ":9848,"èģĸ":9849,"Ġê²°ìĿĺ":9850,"Ġì§ĢìľĦë¥¼":9851,"ìķ¼ë§Į":9852,"Ġì¹´ë©ĶëĿ¼":9853,"íĶĦëŀĳ":9854,"ĠëĤĺíı´ëłĪìĺ¹":9855,"ĠìĬ¤íĨ¤":9856,"ĠíļŁ":9857,"ë²ķìĿĺ":9858,"ĠíĮ¨ëŁ¬":9859,"ĠìŀĲìľłë¯¼ì£¼ëĭ¹":9860,"ĠìķĦìĭľìķĪì»µ":9861,"Ġë¯¸êµŃê³¼":9862,"ĠìľĦì¹ĺë¥¼":9863,"Ġì¢ĭëĭ¤":9864,"Ġíĺģìĭł":9865,"Ġìĭ¬ìŀ¥":9866,"íĶĦìĬ¤":9867,"ĠìĦĿìľł":9868,"ĠìĥĪìłķì¹ĺë¯¼ì£¼ìĹ°íķ©":9869,"Ġë¦¬ëĪ":9870,"ëįĶìĬ¤":9871,"ĠíĶĮë£¨":9872,"Ġéĺ":9873,"Ġì£½ìĿĮìĿĦ":9874,"Ġyork":9875,"ĠíıĲìĩĦ":9876,"ëĭ´ëĭ¹":9877,"ë°¤":9878,"Ġíķĺë§Ī":9879,"ĠìĬ¤ì½§":9880,"ìĭ¤ìĿ´":9881,"êµŃìłľê³µíķŃ":9882,"ĠìĿ¼ë³¸ìĿ¸":9883,"rop":9884,"íĶĮë¡ľ":9885,"ĠìķĶíĺ¸":9886,"ob":9887,"Ĳ¬":9888,"ĠìŀĪìĹĪëĭ¤ê³ł":9889,"Ġì¦īìĭľ":9890,"ĠëĮĢëŁī":9891,"ĠìķĦë°Ķ":9892,"Ġkh":9893,"ĠíķĻìĤ´":9894,"Ġë°©ìĨ¡ìĿĦ":9895,"Ġshow":9896,"Ġì§ĢìĥģìĹŃìĿ´ëĭ¤":9897,"Ġç¥ŀ":9898,"ìĦľìĽĲ":9899,"ìĹĪëĭ¤ê³ł":9900,"Ġìºłíį¼ìĬ¤":9901,"º«":9902,"íŀĺ":9903,"Ġë²¼":9904,"Ġmnet":9905,"ëĬĲëĥĲ":9906,"Ġsun":9907,"Ġê¹Ģê´ĳ":9908,"ĠëĨĴìĿ´ëĬĶ":9909,"ĠìĤ¬ë§ī":9910,"ë¬¸ìĿĺ":9911,"Ġíķłë¨¸ëĭĪ":9912,"ĠìĤ¬ëĭ¤":9913,"Ġíı¬íķ¨íķĺê³ł":9914,"ĠëĨįì´Į":9915,"ìĤ¬íķŃ":9916,"ë²¡":9917,"ĠíĶ¼ìķĦ":9918,"ìĭĿê³¼":9919,"Ġë¬´ìļ©":9920,"ĠíĨłë¨¸ìĬ¤":9921,"Ġgt":9922,"Ġì¡°ìĦłì´Ŀëıħë¶Ģ":9923,"ìĦłìĹĲìĦľ":9924,"Ġë°°ìłķ":9925,"ĠìĤ¬ìłģ":9926,"Ġìķŀìľ¼ë¡ľ":9927,"Ġìĺ¤ëĬĶ":9928,"ĠìĿ¸ë¬¼ë¡ľ":9929,"Ġêµ°ëĮĢ":9930,"ë¶ģë©´":9931,"Ġëħ¸ëıĻìŀĲ":9932,"íı¬ëĵľ":9933,"ĠíĥĢìļ´":9934,"Ġjun":9935,"ĠìŀĳíĴĪìľ¼ë¡ľ":9936,"Ġë¬¼ìĿĦ":9937,"Ġìĩ¼ìĻĢ":9938,"ĠìĿ´ë¥´ëłĢëĭ¤":9939,"Ġsd":9940,"ĠìĿ¸ìĥģ":9941,"ĠìĦľëªħ":9942,"ĠìĥģìĿĦ":9943,"åĨ":9944,"Ġì´ĪìĹĲ":9945,"ìĺ¤ë¡ľ":9946,"ĠìĨĮíĺķ":9947,"ĠëĶĶìł¤":9948,"ĠìĿ´ìĥģìĿ´":9949,"Ġíģ¬ëĭ¤":9950,"ìĹ´ìĿĦ":9951,"Ġì°©ìļ©":9952,"ĠìĿ¸ìłĳíķľ":9953,"ĠíĶ¼ê³ł":9954,"ĠìľłëĭĪë²ĦìĭľìķĦëĵľ":9955,"íĥĢìŀĦ":9956,"Ġì°¸ê³łìŀĲë£Į":9957,"íĮĮëĬĶ":9958,"Ġì±Įë¦°":9959,"ì¡°íĮĲìĦľ":9960,"Ġëª¨ëŀĺ":9961,"ĠìŀĪìĹĪê¸°":9962,"êµ´ë":9963,"Ġíķ«":9964,"§ī":9965,"Ġê°Ģìķ¼":9966,"Ġê²ĢíĨł":9967,"ĠëĶĶìŀĲìĿ´ëĦĪ":9968,"Ġë¶Īê°Ģë¦¬ìķĦ":9969,"Ġê°Ģìĭľ":9970,"ĠìĿ´ë¥¸ë°Ķ":9971,"ĠìĽĲìłľ":9972,"Ġê²ĮìŀĦìĿĺ":9973,"ĠíħĮìĿ¼ëŁ¬":9974,"æ±Ł":9975,"Ġê·¼ë³¸":9976,"ery":9977,"Ġë¶ĦìŀĲ":9978,"Ġëª©ìļĶìĿ¼":9979,"Ġìĺ¤ìĬ¤íĬ¸ë¦¬ìķĦìĿĺ":9980,"ìĹ°ìĪĺ":9981,"ĠìĿ´ëĤ´":9982,"Ġëĭ¨íĸī":9983,"ĠìĿ´ë¥¸ëĭ¤":9984,"ĠëĮĢì§Ģ":9985,"íĮĮìĿ´ìĸ´":9986,"Ġìĭ¤ì¢ħ":9987,"Ġê½":9988,"ĠìķĦíĬ¸":9989,"ãģ¾":9990,"Ġgp":9991,"ĠíĻ©íĥľ":9992,"ĠìĿ´ìłĦìĹĲëĬĶ":9993,"ĠìĬĪíį¼ë":9994,"ìĦľë©´":9995,"Ġìĭ«ìĸ´":9996,"Ġê´ĳëªħ":9997,"oul":9998,"Ġëį°ë·ĶíķĺìĺĢëĭ¤":9999}